<pad>	0
<unk>	0
<s>	0
</s>	0
<|system|>	0
<|user|>	0
<|assistant|>	0
<|end|>	0
<0x00>	0
<0x01>	0
<0x02>	0
<0x03>	0
<0x04>	0
<0x05>	0
<0x06>	0
<0x07>	0
<0x08>	0
<0x09>	0
<0x0A>	0
<0x0B>	0
<0x0C>	0
<0x0D>	0
<0x0E>	0
<0x0F>	0
<0x10>	0
<0x11>	0
<0x12>	0
<0x13>	0
<0x14>	0
<0x15>	0
<0x16>	0
<0x17>	0
<0x18>	0
<0x19>	0
<0x1A>	0
<0x1B>	0
<0x1C>	0
<0x1D>	0
<0x1E>	0
<0x1F>	0
<0x20>	0
<0x21>	0
<0x22>	0
<0x23>	0
<0x24>	0
<0x25>	0
<0x26>	0
<0x27>	0
<0x28>	0
<0x29>	0
<0x2A>	0
<0x2B>	0
<0x2C>	0
<0x2D>	0
<0x2E>	0
<0x2F>	0
<0x30>	0
<0x31>	0
<0x32>	0
<0x33>	0
<0x34>	0
<0x35>	0
<0x36>	0
<0x37>	0
<0x38>	0
<0x39>	0
<0x3A>	0
<0x3B>	0
<0x3C>	0
<0x3D>	0
<0x3E>	0
<0x3F>	0
<0x40>	0
<0x41>	0
<0x42>	0
<0x43>	0
<0x44>	0
<0x45>	0
<0x46>	0
<0x47>	0
<0x48>	0
<0x49>	0
<0x4A>	0
<0x4B>	0
<0x4C>	0
<0x4D>	0
<0x4E>	0
<0x4F>	0
<0x50>	0
<0x51>	0
<0x52>	0
<0x53>	0
<0x54>	0
<0x55>	0
<0x56>	0
<0x57>	0
<0x58>	0
<0x59>	0
<0x5A>	0
<0x5B>	0
<0x5C>	0
<0x5D>	0
<0x5E>	0
<0x5F>	0
<0x60>	0
<0x61>	0
<0x62>	0
<0x63>	0
<0x64>	0
<0x65>	0
<0x66>	0
<0x67>	0
<0x68>	0
<0x69>	0
<0x6A>	0
<0x6B>	0
<0x6C>	0
<0x6D>	0
<0x6E>	0
<0x6F>	0
<0x70>	0
<0x71>	0
<0x72>	0
<0x73>	0
<0x74>	0
<0x75>	0
<0x76>	0
<0x77>	0
<0x78>	0
<0x79>	0
<0x7A>	0
<0x7B>	0
<0x7C>	0
<0x7D>	0
<0x7E>	0
<0x7F>	0
<0x80>	0
<0x81>	0
<0x82>	0
<0x83>	0
<0x84>	0
<0x85>	0
<0x86>	0
<0x87>	0
<0x88>	0
<0x89>	0
<0x8A>	0
<0x8B>	0
<0x8C>	0
<0x8D>	0
<0x8E>	0
<0x8F>	0
<0x90>	0
<0x91>	0
<0x92>	0
<0x93>	0
<0x94>	0
<0x95>	0
<0x96>	0
<0x97>	0
<0x98>	0
<0x99>	0
<0x9A>	0
<0x9B>	0
<0x9C>	0
<0x9D>	0
<0x9E>	0
<0x9F>	0
<0xA0>	0
<0xA1>	0
<0xA2>	0
<0xA3>	0
<0xA4>	0
<0xA5>	0
<0xA6>	0
<0xA7>	0
<0xA8>	0
<0xA9>	0
<0xAA>	0
<0xAB>	0
<0xAC>	0
<0xAD>	0
<0xAE>	0
<0xAF>	0
<0xB0>	0
<0xB1>	0
<0xB2>	0
<0xB3>	0
<0xB4>	0
<0xB5>	0
<0xB6>	0
<0xB7>	0
<0xB8>	0
<0xB9>	0
<0xBA>	0
<0xBB>	0
<0xBC>	0
<0xBD>	0
<0xBE>	0
<0xBF>	0
<0xC0>	0
<0xC1>	0
<0xC2>	0
<0xC3>	0
<0xC4>	0
<0xC5>	0
<0xC6>	0
<0xC7>	0
<0xC8>	0
<0xC9>	0
<0xCA>	0
<0xCB>	0
<0xCC>	0
<0xCD>	0
<0xCE>	0
<0xCF>	0
<0xD0>	0
<0xD1>	0
<0xD2>	0
<0xD3>	0
<0xD4>	0
<0xD5>	0
<0xD6>	0
<0xD7>	0
<0xD8>	0
<0xD9>	0
<0xDA>	0
<0xDB>	0
<0xDC>	0
<0xDD>	0
<0xDE>	0
<0xDF>	0
<0xE0>	0
<0xE1>	0
<0xE2>	0
<0xE3>	0
<0xE4>	0
<0xE5>	0
<0xE6>	0
<0xE7>	0
<0xE8>	0
<0xE9>	0
<0xEA>	0
<0xEB>	0
<0xEC>	0
<0xED>	0
<0xEE>	0
<0xEF>	0
<0xF0>	0
<0xF1>	0
<0xF2>	0
<0xF3>	0
<0xF4>	0
<0xF5>	0
<0xF6>	0
<0xF7>	0
<0xF8>	0
<0xF9>	0
<0xFA>	0
<0xFB>	0
<0xFC>	0
<0xFD>	0
<0xFE>	0
<0xFF>	0
he	-0
▁t	-1
▁a	-2
▁s	-3
▁w	-4
nd	-5
▁the	-6
ed	-7
▁and	-8
▁to	-9
▁b	-10
in	-11
▁h	-12
▁wa	-13
re	-14
▁f	-15
ou	-16
it	-17
▁T	-18
▁l	-19
▁c	-20
er	-21
▁d	-22
▁he	-23
▁was	-24
▁m	-25
▁p	-26
om	-27
▁o	-28
ay	-29
▁The	-30
ar	-31
ing	-32
is	-33
▁g	-34
il	-35
id	-36
▁S	-37
at	-38
en	-39
▁n	-40
▁sa	-41
▁ha	-42
an	-43
im	-44
or	-45
on	-46
▁it	-47
▁th	-48
▁H	-49
ll	-50
le	-51
▁"	-52
▁her	-53
et	-54
ot	-55
▁She	-56
ir	-57
▁He	-58
es	-59
▁They	-60
▁in	-61
ver	-62
ut	-63
ow	-64
ck	-65
▁e	-66
▁L	-67
▁u	-68
ld	-69
oo	-70
▁y	-71
▁said	-72
ig	-73
▁r	-74
▁be	-75
ily	-76
▁st	-77
am	-78
▁I	-79
ce	-80
▁she	-81
ke	-82
pp	-83
ith	-84
ve	-85
▁O	-86
▁with	-87
▁On	-88
▁on	-89
▁of	-90
ked	-91
▁Lily	-92
▁so	-93
ri	-94
▁his	-95
nt	-96
▁you	-97
very	-98
▁pl	-99
ad	-100
▁B	-101
▁day	-102
▁that	-103
▁up	-104
▁had	-105
st	-106
▁play	-107
▁they	-108
▁we	-109
▁mom	-110
▁for	-111
el	-112
ould	-113
un	-114
▁M	-115
my	-116
ent	-117
ch	-118
▁happ	-119
▁li	-120
itt	-121
▁want	-122
▁sh	-123
out	-124
her	-125
ly	-126
ound	-127
▁very	-128
ome	-129
all	-130
se	-131
ittle	-132
▁do	-133
▁not	-134
ime	-135
▁wh	-136
end	-137
▁little	-138
▁time	-139
▁k	-140
▁there	-141
al	-142
ht	-143
▁ne	-144
▁A	-145
▁re	-146
▁happy	-147
▁It	-148
▁big	-149
▁sm	-150
▁but	-151
ack	-152
▁is	-153
▁saw	-154
▁an	-155
riend	-156
▁friend	-157
ra	-158
▁as	-159
ry	-160
ide	-161
."	-162
▁One	-163
ake	-164
ug	-165
ved	-166
▁Tim	-167
ter	-168
▁loo	-169
▁Once	-170
▁were	-171
ore	-172
ec	-173
▁J	-174
!"	-175
▁lo	-176
▁bo	-177
▁him	-178
▁too	-179
▁go	-180
irl	-181
▁se	-182
▁wanted	-183
▁girl	-184
ard	-185
▁j	-186
▁upon	-187
ill	-188
▁out	-189
▁them	-190
▁sp	-191
fu	-192
way	-193
▁are	-194
▁at	-195
ind	-196
ur	-197
▁could	-198
▁Tom	-199
hen	-200
▁their	-201
▁smil	-202
▁did	-203
▁Ben	-204
ain	-205
▁ex	-206
hed	-207
art	-208
▁have	-209
▁ar	-210
▁went	-211
rom	-212
ic	-213
▁W	-214
hing	-215
ful	-216
lp	-217
ight	-218
▁can	-219
▁all	-220
▁friends	-221
▁kn	-222
▁nam	-223
um	-224
▁But	-225
ood	-226
▁help	-227
one	-228
▁back	-229
?"	-230
ark	-231
▁cl	-232
▁fun	-233
are	-234
▁le	-235
▁Timmy	-236
▁no	-237
You	-238
▁say	-239
oug	-240
▁named	-241
op	-242
▁al	-243
▁sc	-244
elt	-245
side	-246
▁smiled	-247
▁loved	-248
ick	-249
▁felt	-250
▁around	-251
▁asked	-252
▁man	-253
▁fe	-254
▁toy	-255
▁looked	-256
omet	-257
ame	-258
▁like	-259
▁some	-260
▁see	-261
ure	-262
▁ro	-263
▁br	-264
▁boy	-265
▁would	-266
▁me	-267
▁bir	-268
get	-269
▁start	-270
ong	-271
ice	-272
▁somet	-273
ss	-274
▁bird	-275
▁fa	-276
ade	-277
▁wor	-278
king	-279
▁ag	-280
dd	-281
ings	-282
▁what	-283
▁away	-284
▁make	-285
own	-286
▁tre	-287
▁ran	-288
gether	-289
▁started	-290
ie	-291
ag	-292
oud	-293
ared	-294
▁something	-295
▁made	-296
,"	-297
▁Mom	-298
ited	-299
if	-300
▁together	-301
▁co	-302
▁E	-303
▁You	-304
▁park	-305
ther	-306
▁exc	-307
▁car	-308
▁sad	-309
▁put	-310
▁other	-311
▁pr	-312
▁new	-313
▁from	-314
▁says	-315
▁la	-316
ble	-317
▁F	-318
▁home	-319
▁mu	-320
▁again	-321
▁when	-322
▁hug	-323
ell	-324
est	-325
▁who	-326
▁then	-327
▁dec	-328
ach	-329
ep	-330
▁found	-331
ried	-332
pped	-333
▁good	-334
ook	-335
▁ch	-336
▁fl	-337
as	-338
▁wal	-339
▁get	-340
qu	-341
ought	-342
ally	-343
▁playing	-344
hat	-345
pl	-346
▁excited	-347
▁sw	-348
ous	-349
▁things	-350
▁got	-351
▁Su	-352
▁D	-353
▁decid	-354
uck	-355
▁decided	-356
▁liked	-357
▁every	-358
ro	-359
▁Sam	-360
ave	-361
▁came	-362
nn	-363
▁bl	-364
ax	-365
▁one	-366
▁down	-367
▁v	-368
▁scared	-369
ust	-370
▁than	-371
ouse	-372
▁bec	-373
▁care	-374
▁find	-375
▁your	-376
▁dad	-377
ara	-378
ny	-379
ist	-380
▁feel	-381
▁dog	-382
ap	-383
▁ab	-384
▁Ann	-385
▁ke	-386
ways	-387
▁gra	-388
arn	-389
▁didn	-390
▁gr	-391
fe	-392
▁always	-393
ers	-394
▁took	-395
ant	-396
our	-397
▁lot	-398
ess	-399
▁So	-400
▁Max	-401
▁po	-402
▁kne	-403
▁about	-404
▁mommy	-405
▁Sara	-406
▁my	-407
eci	-408
nder	-409
▁look	-410
bb	-411
▁outside	-412
▁will	-413
ched	-414
▁tree	-415
▁bu	-416
▁ball	-417
▁thought	-418
▁toys	-419
▁When	-420
▁Anna	-421
ened	-422
ise	-423
▁int	-424
ite	-425
▁ta	-426
▁more	-427
ecial	-428
▁special	-429
▁old	-430
▁learn	-431
▁know	-432
▁ho	-433
▁pu	-434
▁take	-435
ged	-436
ret	-437
▁Jo	-438
▁laug	-439
▁knew	-440
dden	-441
▁pe	-442
▁Her	-443
au	-444
fter	-445
ive	-446
▁any	-447
▁how	-448
▁cat	-449
▁sor	-450
ma	-451
▁Every	-452
ddenly	-453
▁tr	-454
▁show	-455
▁Jack	-456
▁much	-457
ia	-458
▁tw	-459
▁sl	-460
and	-461
ink	-462
▁house	-463
ish	-464
▁run	-465
▁sk	-466
ven	-467
▁op	-468
▁mo	-469
▁hand	-470
▁into	-471
▁sorry	-472
▁sun	-473
▁clo	-474
▁inside	-475
▁proud	-476
▁qu	-477
▁tried	-478
▁told	-479
▁couldn	-480
▁gave	-481
▁or	-482
▁water	-483
▁en	-484
ump	-485
▁never	-486
ate	-487
▁over	-488
ank	-489
▁expl	-490
by	-491
▁heard	-492
ace	-493
▁if	-494
here	-495
other	-496
ty	-497
▁eat	-498
ion	-499
▁Suddenly	-500
ause	-501
dy	-502
ge	-503
▁this	-504
▁Then	-505
▁room	-506
etter	-507
▁each	-508
▁played	-509
▁pick	-510
▁From	-511
▁We	-512
▁str	-513
▁gre	-514
▁box	-515
ak	-516
▁just	-517
▁wat	-518
▁hugged	-519
▁pret	-520
oth	-521
▁com	-522
▁off	-523
▁because	-524
▁His	-525
ile	-526
▁nice	-527
▁need	-528
ue	-529
▁Mia	-530
▁jo	-531
▁small	-532
▁long	-533
▁bear	-534
sed	-535
iz	-536
uc	-537
▁unt	-538
ough	-539
ort	-540
▁fo	-541
ving	-542
▁many	-543
▁And	-544
▁until	-545
▁sn	-546
ild	-547
ine	-548
sel	-549
▁try	-550
imal	-551
▁learned	-552
▁animal	-553
gry	-554
▁better	-555
▁C	-556
▁im	-557
▁end	-558
▁call	-559
em	-560
▁kind	-561
ft	-562
aut	-563
urt	-564
▁love	-565
▁ad	-566
ady	-567
▁best	-568
ars	-569
urn	-570
vent	-571
ber	-572
▁dre	-573
▁flow	-574
▁thanked	-575
pt	-576
▁cle	-577
▁beaut	-578
▁sky	-579
▁â	-580
urp	-581
arden	-582
▁garden	-583
▁bra	-584
▁fast	-585
lly	-586
▁even	-587
▁fi	-588
▁cu	-589
▁laughed	-590
▁careful	-591
ves	-592
▁by	-593
self	-594
▁lots	-595
▁don	-596
Yes	-597
▁che	-598
▁jump	-599
▁beauti	-600
lew	-601
▁loud	-602
▁beautiful	-603
▁te	-604
▁way	-605
iny	-606
▁fam	-607
wn	-608
▁ra	-609
ies	-610
▁gl	-611
▁still	-612
▁Joh	-613
▁come	-614
ase	-615
▁hard	-616
▁list	-617
▁wo	-618
▁P	-619
ast	-620
Th	-621
▁stay	-622
ect	-623
▁animals	-624
ning	-625
▁hurt	-626
sh	-627
▁safe	-628
ct	-629
▁col	-630
▁rem	-631
▁both	-632
▁under	-633
ree	-634
ane	-635
▁two	-636
▁let	-637
hes	-638
▁brave	-639
▁As	-640
ople	-641
▁lived	-642
▁imp	-643
▁its	-644
ool	-645
▁family	-646
▁su	-647
▁After	-648
ished	-649
ucy	-650
▁fin	-651
be	-652
▁bad	-653
▁flew	-654
urpr	-655
▁Lucy	-656
ob	-657
▁kept	-658
▁called	-659
▁people	-660
igh	-661
▁surpr	-662
▁walked	-663
▁stor	-664
▁dan	-665
kay	-666
▁should	-667
ock	-668
led	-669
▁soon	-670
▁red	-671
fore	-672
▁fore	-673
▁John	-674
▁fly	-675
▁book	-676
It	-677
ised	-678
xt	-679
▁angry	-680
Let	-681
▁going	-682
▁rock	-683
▁share	-684
ip	-685
No	-686
▁G	-687
ummy	-688
▁pic	-689
▁opened	-690
▁explore	-691
▁clean	-692
▁doll	-693
▁con	-694
▁now	-695
age	-696
▁keep	-697
▁advent	-698
▁door	-699
▁wind	-700
▁before	-701
▁dra	-702
▁pretty	-703
▁sto	-704
illy	-705
▁cre	-706
▁ground	-707
▁shiny	-708
▁real	-709
dded	-710
▁ide	-711
ary	-712
▁Mommy	-713
▁cry	-714
▁far	-715
▁turn	-716
▁noise	-717
ied	-718
▁fr	-719
▁ey	-720
▁Dad	-721
▁feeling	-722
les	-723
so	-724
▁war	-725
▁color	-726
thing	-727
TM	-728
▁idea	-729
▁un	-730
▁walking	-731
▁also	-732
▁Bob	-733
th	-734
▁picked	-735
▁smile	-736
oy	-737
imb	-738
▁while	-739
▁thr	-740
▁next	-741
What	-742
▁climb	-743
iced	-744
▁ma	-745
▁bed	-746
eet	-747
▁adventure	-748
ture	-749
ger	-750
ff	-751
▁wr	-752
▁nodded	-753
ious	-754
ted	-755
ac	-756
▁being	-757
▁looking	-758
▁clos	-759
▁N	-760
▁dif	-761
▁Sp	-762
▁has	-763
joy	-764
▁stopped	-765
ting	-766
ember	-767
▁give	-768
▁truck	-769
▁del	-770
aybe	-771
ught	-772
That	-773
▁picture	-774
Thank	-775
▁eyes	-776
▁noticed	-777
▁food	-778
▁ever	-779
maz	-780
▁quick	-781
▁great	-782
▁amaz	-783
▁tow	-784
▁wait	-785
▁after	-786
▁think	-787
▁listen	-788
kes	-789
able	-790
▁own	-791
▁walk	-792
▁bre	-793
▁vo	-794
▁enjoy	-795
▁remember	-796
▁bro	-797
▁dis	-798
▁hands	-799
▁blue	-800
bbit	-801
▁repl	-802
▁forest	-803
ized	-804
▁app	-805
irst	-806
▁everyone	-807
▁slide	-808
▁import	-809
▁showed	-810
▁rain	-811
▁flowers	-812
▁near	-813
gan	-814
▁ac	-815
▁fish	-816
▁wonder	-817
▁work	-818
llow	-819
▁rabbit	-820
▁shout	-821
oon	-822
▁head	-823
bbed	-824
▁important	-825
▁strong	-826
▁watch	-827
▁bright	-828
▁de	-829
bye	-830
fere	-831
▁quickly	-832
▁right	-833
▁differe	-834
▁mean	-835
▁watched	-836
▁Jane	-837
▁tal	-838
▁boat	-839
▁stick	-840
▁replied	-841
▁us	-842
▁tou	-843
▁Sue	-844
▁sound	-845
▁ye	-846
▁store	-847
ered	-848
▁follow	-849
▁use	-850
day	-851
▁Spot	-852
▁where	-853
▁sure	-854
ange	-855
▁place	-856
▁okay	-857
▁been	-858
▁squ	-859
▁mor	-860
▁Sarah	-861
▁ru	-862
lease	-863
▁child	-864
ath	-865
▁dress	-866
▁face	-867
▁different	-868
▁ask	-869
▁yell	-870
▁closer	-871
▁voice	-872
▁became	-873
We	-874
▁goodbye	-875
▁curi	-876
▁tra	-877
▁high	-878
ng	-879
aught	-880
▁warm	-881
▁mag	-882
co	-883
▁hop	-884
ached	-885
▁cr	-886
▁night	-887
▁our	-888
▁curious	-889
▁Everyone	-890
▁does	-891
▁Th	-892
▁tell	-893
ndma	-894
leep	-895
Look	-896
ull	-897
▁three	-898
▁bel	-899
ired	-900
ount	-901
▁cook	-902
▁forg	-903
▁cake	-904
more	-905
▁anymore	-906
ey	-907
▁open	-908
▁grabbed	-909
ila	-910
▁first	-911
▁pain	-912
ass	-913
▁cont	-914
▁am	-915
▁In	-916
▁fav	-917
imes	-918
itc	-919
▁bit	-920
▁butter	-921
▁z	-922
▁lea	-923
unny	-924
▁only	-925
▁pull	-926
▁sweet	-927
▁Lila	-928
▁birds	-929
orn	-930
▁kid	-931
▁per	-932
▁jumped	-933
▁ba	-934
▁helped	-935
▁fire	-936
▁mon	-937
▁block	-938
▁here	-939
▁fell	-940
▁grass	-941
▁reached	-942
▁happened	-943
isy	-944
Can	-945
▁sing	-946
iss	-947
▁dr	-948
▁story	-949
▁glad	-950
▁flo	-951
ppy	-952
▁sand	-953
nts	-954
itchen	-955
▁kitchen	-956
▁brother	-957
▁realized	-958
▁through	-959
▁stop	-960
▁having	-961
▁sees	-962
▁rest	-963
▁mum	-964
▁beh	-965
▁prin	-966
▁ready	-967
▁began	-968
▁shouted	-969
▁lady	-970
▁That	-971
▁really	-972
▁yummy	-973
ater	-974
zy	-975
▁less	-976
▁ate	-977
where	-978
▁soft	-979
▁game	-980
▁pare	-981
air	-982
▁himself	-983
▁tri	-984
fully	-985
▁world	-986
▁mess	-987
▁draw	-988
▁Let	-989
ather	-990
▁done	-991
▁underst	-992
ins	-993
▁tired	-994
Mom	-995
▁magic	-996
▁Joe	-997
▁Do	-998
▁fill	-999
▁Tommy	-1000
▁Fin	-1001
▁used	-1002
ster	-1003
▁fix	-1004
▁seen	-1005
ken	-1006
▁cut	-1007
▁waved	-1008
▁making	-1009
▁coming	-1010
▁duck	-1011
▁kids	-1012
▁thing	-1013
▁hat	-1014
▁favor	-1015
akes	-1016
▁top	-1017
▁favorite	-1018
▁prom	-1019
olly	-1020
▁catch	-1021
▁ste	-1022
bo	-1023
ign	-1024
▁pap	-1025
▁worry	-1026
▁bunny	-1027
▁Sally	-1028
▁tast	-1029
▁name	-1030
▁parents	-1031
▁pond	-1032
▁butterf	-1033
▁funny	-1034
▁why	-1035
eddy	-1036
▁part	-1037
▁pretend	-1038
ient	-1039
▁delic	-1040
▁touch	-1041
▁flower	-1042
▁another	-1043
▁Can	-1044
▁looks	-1045
Wow	-1046
▁swim	-1047
▁fro	-1048
▁hair	-1049
mer	-1050
aisy	-1051
▁full	-1052
▁surprise	-1053
iver	-1054
ation	-1055
▁cars	-1056
▁hopped	-1057
▁mouse	-1058
▁dro	-1059
▁light	-1060
rel	-1061
▁worked	-1062
▁cried	-1063
uff	-1064
▁cool	-1065
▁gi	-1066
▁din	-1067
▁lesson	-1068
ards	-1069
▁thank	-1070
▁trees	-1071
▁sho	-1072
oney	-1073
▁spot	-1074
▁set	-1075
▁years	-1076
Don	-1077
▁bag	-1078
andy	-1079
▁running	-1080
▁cra	-1081
▁green	-1082
▁-	-1083
▁remembered	-1084
us	-1085
ued	-1086
▁dri	-1087
hy	-1088
ike	-1089
▁doing	-1090
▁hold	-1091
▁wood	-1092
▁behind	-1093
▁sleep	-1094
▁slow	-1095
".	-1096
▁carefully	-1097
ely	-1098
▁dark	-1099
▁smell	-1100
▁Em	-1101
▁window	-1102
▁wished	-1103
▁needed	-1104
▁yellow	-1105
▁read	-1106
▁At	-1107
▁Benny	-1108
▁floor	-1109
▁sat	-1110
▁hole	-1111
ren	-1112
▁cold	-1113
▁blocks	-1114
TMs	-1115
▁happily	-1116
▁perf	-1117
▁paper	-1118
aring	-1119
ul	-1120
▁surprised	-1121
▁tall	-1122
▁finished	-1123
▁held	-1124
▁Jim	-1125
▁bow	-1126
▁move	-1127
▁dream	-1128
▁anything	-1129
▁left	-1130
▁lost	-1131
▁buy	-1132
▁air	-1133
▁Daisy	-1134
▁Finally	-1135
▁enjoyed	-1136
▁laugh	-1137
▁butterfly	-1138
▁swing	-1139
▁To	-1140
▁frog	-1141
▁There	-1142
▁arri	-1143
▁followed	-1144
▁wrong	-1145
▁rel	-1146
▁cast	-1147
▁Billy	-1148
▁ice	-1149
▁lion	-1150
▁herself	-1151
ined	-1152
ross	-1153
▁fair	-1154
▁hill	-1155
▁children	-1156
▁pre	-1157
▁delicious	-1158
▁build	-1159
▁contin	-1160
▁likes	-1161
reed	-1162
▁Now	-1163
ream	-1164
▁close	-1165
▁friendly	-1166
cess	-1167
ield	-1168
▁snow	-1169
sy	-1170
▁Molly	-1171
ens	-1172
▁hear	-1173
▁hun	-1174
▁arrived	-1175
▁hid	-1176
▁Gra	-1177
▁Jen	-1178
▁able	-1179
Hell	-1180
▁dir	-1181
Hello	-1182
▁el	-1183
▁arm	-1184
asure	-1185
▁wonderful	-1186
▁forgot	-1187
▁hot	-1188
▁table	-1189
▁filled	-1190
▁baby	-1191
▁understand	-1192
▁gone	-1193
▁tight	-1194
▁might	-1195
▁bug	-1196
▁creat	-1197
▁song	-1198
▁gent	-1199
▁colors	-1200
ds	-1201
lf	-1202
ner	-1203
▁else	-1204
▁please	-1205
▁books	-1206
▁mat	-1207
▁continued	-1208
▁broken	-1209
▁someone	-1210
▁yes	-1211
▁pat	-1212
ich	-1213
▁Amy	-1214
▁stayed	-1215
ask	-1216
▁leaves	-1217
▁This	-1218
sp	-1219
▁enough	-1220
▁castle	-1221
gon	-1222
shed	-1223
▁poin	-1224
▁agreed	-1225
▁amazing	-1226
room	-1227
▁wall	-1228
av	-1229
▁pink	-1230
irrel	-1231
ash	-1232
▁break	-1233
▁getting	-1234
▁morning	-1235
▁finally	-1236
▁gu	-1237
▁vis	-1238
app	-1239
▁count	-1240
▁moment	-1241
▁wants	-1242
▁grandma	-1243
▁Jill	-1244
man	-1245
▁comp	-1246
▁pi	-1247
▁few	-1248
▁perfect	-1249
row	-1250
▁trying	-1251
▁mother	-1252
▁squirrel	-1253
▁scary	-1254
ama	-1255
▁mar	-1256
icy	-1257
▁mus	-1258
ries	-1259
▁fur	-1260
ced	-1261
red	-1262
▁dinner	-1263
▁strange	-1264
▁turned	-1265
ere	-1266
▁met	-1267
oom	-1268
▁joy	-1269
▁brought	-1270
▁roll	-1271
▁climbed	-1272
▁ju	-1273
▁fight	-1274
oup	-1275
▁beach	-1276
ance	-1277
rot	-1278
▁daddy	-1279
▁others	-1280
▁puppy	-1281
▁hungry	-1282
ence	-1283
ons	-1284
▁pictures	-1285
▁sail	-1286
▁white	-1287
uffy	-1288
▁sometimes	-1289
▁balloon	-1290
apped	-1291
oring	-1292
▁spl	-1293
▁wet	-1294
▁fall	-1295
▁What	-1296
ated	-1297
▁listened	-1298
▁wasn	-1299
▁cookies	-1300
▁cream	-1301
▁clot	-1302
▁Maybe	-1303
lc	-1304
▁ride	-1305
▁everything	-1306
▁spark	-1307
wl	-1308
▁pol	-1309
▁smiles	-1310
▁clothes	-1311
▁sear	-1312
▁talk	-1313
▁tail	-1314
der	-1315
ee	-1316
▁amazed	-1317
amp	-1318
▁makes	-1319
ister	-1320
os	-1321
ever	-1322
▁woods	-1323
▁Soon	-1324
eter	-1325
ower	-1326
▁waited	-1327
▁All	-1328
▁alone	-1329
▁sit	-1330
zz	-1331
▁deep	-1332
▁music	-1333
▁thre	-1334
key	-1335
med	-1336
ucky	-1337
▁lake	-1338
▁pet	-1339
ctor	-1340
▁pie	-1341
▁danger	-1342
▁visit	-1343
▁won	-1344
▁grow	-1345
▁silly	-1346
▁pulled	-1347
▁teddy	-1348
ott	-1349
thy	-1350
▁leave	-1351
me	-1352
▁plan	-1353
ssed	-1354
▁cloud	-1355
▁field	-1356
▁land	-1357
Oh	-1358
▁fox	-1359
▁towards	-1360
ang	-1361
This	-1362
▁treat	-1363
▁promised	-1364
cket	-1365
ugg	-1366
▁side	-1367
▁flying	-1368
▁hide	-1369
ames	-1370
ope	-1371
eces	-1372
▁sec	-1373
▁pieces	-1374
igg	-1375
▁Fl	-1376
▁bigger	-1377
▁asks	-1378
▁worried	-1379
ained	-1380
▁cup	-1381
▁Mama	-1382
▁sister	-1383
ix	-1384
▁bran	-1385
cle	-1386
▁em	-1387
ually	-1388
▁belie	-1389
▁faster	-1390
▁pen	-1391
▁race	-1392
▁treasure	-1393
gg	-1394
But	-1395
▁slowly	-1396
▁moral	-1397
▁shared	-1398
ises	-1399
▁blank	-1400
Maybe	-1401
▁owner	-1402
ph	-1403
▁such	-1404
▁reach	-1405
iet	-1406
▁grate	-1407
sw	-1408
▁shap	-1409
▁thinks	-1410
▁plant	-1411
avy	-1412
▁money	-1413
fort	-1414
ming	-1415
▁runs	-1416
▁blanket	-1417
▁most	-1418
▁answ	-1419
▁party	-1420
▁ele	-1421
▁living	-1422
▁ve	-1423
▁paint	-1424
▁dance	-1425
ling	-1426
▁must	-1427
▁wear	-1428
▁grateful	-1429
▁dragon	-1430
▁Daddy	-1431
▁candy	-1432
▁everywhere	-1433
ire	-1434
▁job	-1435
unch	-1436
ased	-1437
▁nap	-1438
▁dolls	-1439
▁join	-1440
▁cho	-1441
▁snack	-1442
▁bike	-1443
▁bar	-1444
▁quiet	-1445
▁magical	-1446
ol	-1447
▁colorful	-1448
▁pot	-1449
▁gif	-1450
▁monster	-1451
▁black	-1452
▁welc	-1453
Okay	-1454
ze	-1455
less	-1456
▁river	-1457
▁bott	-1458
▁stepped	-1459
▁Mr	-1460
uit	-1461
▁pro	-1462
outh	-1463
▁helping	-1464
▁across	-1465
orm	-1466
set	-1467
▁mouth	-1468
▁Just	-1469
▁broke	-1470
ipped	-1471
▁princess	-1472
▁pa	-1473
▁farmer	-1474
▁dangerous	-1475
▁Jimmy	-1476
▁hig	-1477
▁je	-1478
▁crying	-1479
▁Mary	-1480
▁same	-1481
▁sign	-1482
▁scream	-1483
ear	-1484
ored	-1485
▁smart	-1486
▁disapp	-1487
bble	-1488
▁carrot	-1489
▁win	-1490
▁att	-1491
eared	-1492
ident	-1493
▁train	-1494
▁Mum	-1495
▁acc	-1496
▁heal	-1497
▁heavy	-1498
▁spr	-1499
▁stre	-1500
▁words	-1501
▁stu	-1502
▁wouldn	-1503
iting	-1504
▁pass	-1505
Sure	-1506
▁Emma	-1507
▁teac	-1508
▁mix	-1509
▁closed	-1510
Why	-1511
▁bee	-1512
▁doctor	-1513
▁threw	-1514
▁believe	-1515
▁dirty	-1516
▁monkey	-1517
▁eating	-1518
Mommy	-1519
▁fruit	-1520
▁stuck	-1521
asket	-1522
▁coll	-1523
▁bite	-1524
▁butt	-1525
▁tower	-1526
▁basket	-1527
▁past	-1528
▁higher	-1529
TMt	-1530
▁town	-1531
The	-1532
▁bowl	-1533
▁twins	-1534
▁bath	-1535
▁buck	-1536
br	-1537
▁cheered	-1538
chool	-1539
▁heart	-1540
▁Grandma	-1541
ventually	-1542
▁suddenly	-1543
pping	-1544
▁pers	-1545
▁Inside	-1546
umb	-1547
▁clapped	-1548
ord	-1549
Hi	-1550
▁drove	-1551
▁longer	-1552
▁pushed	-1553
▁hit	-1554
de	-1555
cked	-1556
▁stand	-1557
▁teacher	-1558
▁gentle	-1559
▁cour	-1560
▁cray	-1561
▁hoped	-1562
▁fairy	-1563
▁neigh	-1564
▁min	-1565
▁school	-1566
▁pack	-1567
▁pocket	-1568
▁without	-1569
▁free	-1570
▁today	-1571
▁neighb	-1572
ney	-1573
▁brown	-1574
ract	-1575
▁feels	-1576
▁accident	-1577
ier	-1578
▁course	-1579
▁wings	-1580
orrow	-1581
▁Wh	-1582
▁smo	-1583
▁forget	-1584
▁yard	-1585
▁jour	-1586
▁Fluffy	-1587
▁chair	-1588
▁fence	-1589
▁happen	-1590
▁dry	-1591
▁along	-1592
▁sang	-1593
▁apple	-1594
▁swings	-1595
▁corn	-1596
phant	-1597
▁leg	-1598
ead	-1599
ountain	-1600
▁secret	-1601
ts	-1602
▁lon	-1603
▁explained	-1604
▁singing	-1605
▁welcome	-1606
ment	-1607
▁shoes	-1608
▁piece	-1609
cy	-1610
issed	-1611
▁games	-1612
▁noises	-1613
▁turns	-1614
ors	-1615
▁inst	-1616
▁elephant	-1617
▁adventures	-1618
▁Tw	-1619
yard	-1620
vel	-1621
▁lonely	-1622
▁sea	-1623
▁shop	-1624
▁bring	-1625
▁taking	-1626
▁late	-1627
▁Sammy	-1628
ible	-1629
▁backyard	-1630
▁trou	-1631
▁plac	-1632
▁shook	-1633
▁upset	-1634
▁dropped	-1635
▁young	-1636
fused	-1637
itting	-1638
▁owl	-1639
▁rocks	-1640
▁exploring	-1641
▁swam	-1642
▁throw	-1643
ung	-1644
▁seemed	-1645
ail	-1646
▁ben	-1647
▁stories	-1648
ward	-1649
▁exp	-1650
▁moved	-1651
▁soup	-1652
▁stars	-1653
▁caught	-1654
▁Their	-1655
▁neck	-1656
oun	-1657
▁whe	-1658
ches	-1659
▁relie	-1660
aughty	-1661
▁belong	-1662
▁dist	-1663
▁mail	-1664
▁naughty	-1665
▁tiny	-1666
▁bucket	-1667
bby	-1668
ions	-1669
▁wise	-1670
▁lunch	-1671
▁star	-1672
ocked	-1673
▁drink	-1674
▁though	-1675
ces	-1676
▁hugs	-1677
▁nearby	-1678
▁street	-1679
▁jar	-1680
▁es	-1681
▁cou	-1682
bow	-1683
▁des	-1684
▁orange	-1685
llo	-1686
▁wish	-1687
▁Later	-1688
ek	-1689
▁well	-1690
▁miss	-1691
▁ph	-1692
ape	-1693
cing	-1694
▁key	-1695
▁woke	-1696
▁year	-1697
▁inv	-1698
▁busy	-1699
▁pig	-1700
ining	-1701
▁nest	-1702
▁af	-1703
ity	-1704
col	-1705
aughter	-1706
vered	-1707
▁Al	-1708
▁rainbow	-1709
cer	-1710
▁purp	-1711
adow	-1712
▁cir	-1713
▁nose	-1714
pper	-1715
▁branch	-1716
ours	-1717
▁arms	-1718
to	-1719
▁resp	-1720
▁carry	-1721
Lily	-1722
▁huge	-1723
▁shapes	-1724
▁forever	-1725
▁ca	-1726
▁ob	-1727
▁sick	-1728
▁nothing	-1729
▁farm	-1730
▁juice	-1731
▁Thank	-1732
▁wondered	-1733
raid	-1734
▁relieved	-1735
▁cow	-1736
Do	-1737
▁bat	-1738
▁mark	-1739
▁afraid	-1740
▁tom	-1741
▁peace	-1742
▁bus	-1743
▁Tweet	-1744
▁fit	-1745
▁purple	-1746
ho	-1747
▁daughter	-1748
▁exciting	-1749
▁mil	-1750
▁sitting	-1751
sting	-1752
▁round	-1753
▁driver	-1754
▁mad	-1755
▁hello	-1756
▁swimming	-1757
▁With	-1758
ose	-1759
▁intere	-1760
itch	-1761
▁cute	-1762
▁patient	-1763
▁boun	-1764
▁journey	-1765
▁gift	-1766
idge	-1767
▁touched	-1768
fish	-1769
shine	-1770
▁disco	-1771
▁whist	-1772
▁bench	-1773
▁letter	-1774
▁life	-1775
▁onto	-1776
▁kite	-1777
▁mine	-1778
▁laughing	-1779
▁egg	-1780
▁takes	-1781
thday	-1782
▁days	-1783
▁kitt	-1784
▁king	-1785
▁sounds	-1786
ese	-1787
let	-1788
board	-1789
▁sunshine	-1790
▁ret	-1791
▁act	-1792
▁creature	-1793
▁fing	-1794
▁fan	-1795
▁inc	-1796
▁accidentally	-1797
▁comes	-1798
▁pointed	-1799
▁wra	-1800
▁holding	-1801
ness	-1802
▁spoon	-1803
ball	-1804
▁band	-1805
▁coat	-1806
▁lift	-1807
▁power	-1808
▁gigg	-1809
▁sunny	-1810
▁promise	-1811
▁cozy	-1812
irt	-1813
▁shell	-1814
▁collect	-1815
▁return	-1816
▁imag	-1817
ped	-1818
▁cave	-1819
▁comfort	-1820
▁gather	-1821
▁kick	-1822
▁milk	-1823
▁ce	-1824
▁instead	-1825
▁Jenny	-1826
Of	-1827
▁grab	-1828
▁pres	-1829
▁birthday	-1830
▁lucky	-1831
alm	-1832
▁anyone	-1833
▁mist	-1834
ittens	-1835
round	-1836
▁ear	-1837
sc	-1838
▁smiling	-1839
▁hor	-1840
▁bought	-1841
Hey	-1842
▁later	-1843
gged	-1844
og	-1845
▁hope	-1846
ten	-1847
▁searched	-1848
ize	-1849
▁watching	-1850
▁storm	-1851
▁tasty	-1852
▁Emily	-1853
▁interesting	-1854
ove	-1855
eth	-1856
▁bread	-1857
▁pudd	-1858
▁spo	-1859
▁wide	-1860
▁Ch	-1861
▁cheese	-1862
aur	-1863
oman	-1864
▁Come	-1865
▁spin	-1866
▁spid	-1867
▁adm	-1868
▁bush	-1869
▁talked	-1870
arp	-1871
▁woman	-1872
unt	-1873
blem	-1874
▁shining	-1875
▁gives	-1876
▁eas	-1877
▁problem	-1878
els	-1879
▁person	-1880
▁button	-1881
▁ent	-1882
▁sharp	-1883
▁trouble	-1884
▁present	-1885
▁healthy	-1886
▁Ell	-1887
▁suc	-1888
▁quest	-1889
▁sandw	-1890
▁lovely	-1891
▁road	-1892
▁zoom	-1893
▁smelled	-1894
▁meet	-1895
ub	-1896
▁clever	-1897
▁vill	-1898
epend	-1899
▁honey	-1900
ont	-1901
▁clouds	-1902
▁plane	-1903
▁pract	-1904
▁matter	-1905
▁rope	-1906
▁snowman	-1907
▁ducks	-1908
▁spotted	-1909
▁rolled	-1910
isa	-1911
▁Somet	-1912
▁apples	-1913
▁bottle	-1914
owed	-1915
▁pile	-1916
▁par	-1917
▁danced	-1918
umber	-1919
ndp	-1920
▁ap	-1921
▁front	-1922
▁myster	-1923
▁path	-1924
▁giant	-1925
amed	-1926
▁cheer	-1927
▁which	-1928
een	-1929
▁zoo	-1930
▁saf	-1931
▁prot	-1932
▁whole	-1933
▁lay	-1934
▁card	-1935
cean	-1936
eb	-1937
▁ocean	-1938
▁hon	-1939
▁sur	-1940
▁puzz	-1941
▁crayons	-1942
▁med	-1943
▁kiss	-1944
▁protect	-1945
▁sack	-1946
ond	-1947
ching	-1948
▁appeared	-1949
▁eag	-1950
▁building	-1951
oose	-1952
▁shr	-1953
▁horse	-1954
▁puts	-1955
▁Jake	-1956
œI	-1957
▁organ	-1958
▁St	-1959
▁places	-1960
▁slid	-1961
▁Lisa	-1962
▁tasted	-1963
▁pop	-1964
▁feather	-1965
▁Together	-1966
Good	-1967
▁emb	-1968
▁wild	-1969
ert	-1970
▁tun	-1971
▁respect	-1972
▁supp	-1973
▁loves	-1974
▁cookie	-1975
▁mach	-1976
▁trip	-1977
▁answer	-1978
▁spent	-1979
▁asleep	-1980
▁Mittens	-1981
▁How	-1982
▁lad	-1983
▁thin	-1984
▁screamed	-1985
▁mud	-1986
▁pill	-1987
▁splas	-1988
▁wearing	-1989
▁minut	-1990
erly	-1991
▁snake	-1992
▁impre	-1993
▁mind	-1994
ular	-1995
▁helpful	-1996
ale	-1997
▁seat	-1998
▁furry	-1999
▁corner	-2000
▁bark	-2001
▁confused	-2002
▁foot	-2003
cks	-2004
Come	-2005
▁di	-2006
up	-2007
▁mountain	-2008
▁couch	-2009
ndpa	-2010
▁gently	-2011
▁worm	-2012
▁embar	-2013
▁dirt	-2014
ones	-2015
▁write	-2016
▁val	-2017
▁coin	-2018
▁ign	-2019
▁embarra	-2020
▁neighbor	-2021
▁spider	-2022
nic	-2023
la	-2024
▁ladder	-2025
▁talking	-2026
arge	-2027
▁picnic	-2028
▁last	-2029
lex	-2030
▁faces	-2031
▁delight	-2032
▁live	-2033
▁goes	-2034
▁teach	-2035
▁wave	-2036
▁pretended	-2037
▁oven	-2038
▁Peter	-2039
▁ser	-2040
▁eventually	-2041
▁rec	-2042
mo	-2043
▁remind	-2044
ife	-2045
▁Mummy	-2046
▁pan	-2047
▁cart	-2048
▁feet	-2049
ex	-2050
izz	-2051
▁sal	-2052
▁phone	-2053
nny	-2054
read	-2055
▁blew	-2056
▁whenever	-2057
▁bell	-2058
als	-2059
old	-2060
unk	-2061
▁Bu	-2062
▁ban	-2063
▁ring	-2064
▁ash	-2065
▁Sometimes	-2066
▁paw	-2067
▁colour	-2068
▁calm	-2069
lebr	-2070
▁Johnny	-2071
▁spread	-2072
▁celebr	-2073
▁finish	-2074
▁tool	-2075
▁drive	-2076
▁spray	-2077
▁large	-2078
▁shy	-2079
▁tries	-2080
▁rob	-2081
▁chocol	-2082
▁waiting	-2083
▁tid	-2084
▁Little	-2085
▁Le	-2086
▁push	-2087
▁ant	-2088
▁fixed	-2089
▁Be	-2090
bbles	-2091
▁pool	-2092
▁embarrassed	-2093
▁village	-2094
▁ple	-2095
▁smooth	-2096
▁forgive	-2097
aul	-2098
▁Go	-2099
▁sel	-2100
▁stra	-2101
▁chick	-2102
▁'	-2103
▁hum	-2104
▁tomorrow	-2105
▁Sus	-2106
▁fighting	-2107
▁coo	-2108
▁pour	-2109
ungle	-2110
▁cann	-2111
▁cloth	-2112
▁cross	-2113
▁teeth	-2114
▁gen	-2115
urse	-2116
▁Teddy	-2117
▁machine	-2118
▁Everywhere	-2119
▁stret	-2120
▁songs	-2121
▁rep	-2122
▁jungle	-2123
▁banan	-2124
▁tea	-2125
▁shirt	-2126
▁net	-2127
▁hiding	-2128
▁emp	-2129
▁cannot	-2130
▁knee	-2131
ighed	-2132
▁creative	-2133
per	-2134
▁empty	-2135
▁peaceful	-2136
▁kitten	-2137
Tom	-2138
ult	-2139
▁fold	-2140
▁barked	-2141
▁carrots	-2142
▁bugs	-2143
▁While	-2144
▁sol	-2145
▁spe	-2146
▁taste	-2147
inted	-2148
▁rude	-2149
▁leaf	-2150
getable	-2151
▁step	-2152
▁tightly	-2153
▁chocolate	-2154
▁vegetable	-2155
▁meadow	-2156
▁Some	-2157
▁puddle	-2158
▁chased	-2159
▁treats	-2160
▁forward	-2161
▁robot	-2162
▁grew	-2163
▁stir	-2164
▁selfish	-2165
box	-2166
dge	-2167
▁wore	-2168
oph	-2169
My	-2170
ato	-2171
▁trust	-2172
▁rocket	-2173
iger	-2174
▁save	-2175
▁wip	-2176
▁Even	-2177
umpy	-2178
ground	-2179
▁av	-2180
▁whistle	-2181
▁tidy	-2182
▁maybe	-2183
▁disappo	-2184
den	-2185
▁knocked	-2186
airs	-2187
▁neckl	-2188
▁spicy	-2189
▁wash	-2190
ator	-2191
▁moon	-2192
eterm	-2193
▁sour	-2194
most	-2195
▁lem	-2196
Please	-2197
▁sparkly	-2198
▁determ	-2199
▁string	-2200
▁crab	-2201
St	-2202
▁landed	-2203
▁meant	-2204
▁almost	-2205
ned	-2206
▁Please	-2207
▁gener	-2208
▁gun	-2209
▁plate	-2210
arm	-2211
aking	-2212
▁jumping	-2213
▁prince	-2214
ush	-2215
▁hidden	-2216
dle	-2217
ird	-2218
▁pri	-2219
▁gold	-2220
▁stone	-2221
▁shelf	-2222
▁fear	-2223
▁disappointed	-2224
▁knowing	-2225
ano	-2226
▁hours	-2227
era	-2228
ustr	-2229
▁splash	-2230
ian	-2231
elly	-2232
▁missed	-2233
▁pin	-2234
▁scar	-2235
▁carried	-2236
▁line	-2237
lower	-2238
▁decor	-2239
▁shore	-2240
▁van	-2241
▁hears	-2242
gly	-2243
ying	-2244
▁stood	-2245
▁bal	-2246
▁sharing	-2247
▁whis	-2248
▁sticks	-2249
▁ugly	-2250
▁snacks	-2251
▁standing	-2252
▁legs	-2253
▁tells	-2254
▁Br	-2255
▁scre	-2256
▁Alice	-2257
▁honest	-2258
▁understood	-2259
▁frustr	-2260
▁ber	-2261
▁puzzle	-2262
▁necklace	-2263
▁circ	-2264
▁yelled	-2265
kin	-2266
▁sleepy	-2267
▁thankful	-2268
sist	-2269
▁gray	-2270
▁breath	-2271
▁number	-2272
▁sheep	-2273
▁gas	-2274
▁mysterious	-2275
▁fil	-2276
▁fancy	-2277
▁twirl	-2278
▁burn	-2279
▁hel	-2280
▁jew	-2281
▁blow	-2282
▁nut	-2283
▁pay	-2284
▁group	-2285
▁Bo	-2286
▁success	-2287
▁police	-2288
osaur	-2289
▁seed	-2290
▁Susie	-2291
▁mummy	-2292
▁ashamed	-2293
▁frustrated	-2294
orry	-2295
itter	-2296
▁messy	-2297
▁generous	-2298
▁waves	-2299
vous	-2300
▁deer	-2301
▁test	-2302
▁Leo	-2303
▁mot	-2304
▁plants	-2305
▁gathered	-2306
ork	-2307
▁poor	-2308
▁Why	-2309
▁taught	-2310
erp	-2311
hin	-2312
iff	-2313
▁returned	-2314
pack	-2315
ony	-2316
▁these	-2317
▁bedroom	-2318
▁pir	-2319
ital	-2320
▁determined	-2321
ina	-2322
Stop	-2323
▁Don	-2324
▁Today	-2325
▁polite	-2326
▁dancing	-2327
▁pizz	-2328
▁passed	-2329
▁dinosaur	-2330
ote	-2331
▁excite	-2332
▁pillow	-2333
ual	-2334
▁powerful	-2335
▁fig	-2336
▁gar	-2337
▁drew	-2338
▁sandwich	-2339
af	-2340
▁ner	-2341
▁hosp	-2342
▁esc	-2343
illed	-2344
▁Bl	-2345
▁gate	-2346
▁hospital	-2347
▁comfortable	-2348
work	-2349
▁taken	-2350
▁sighed	-2351
izzy	-2352
▁Mark	-2353
▁nods	-2354
▁spoil	-2355
▁minutes	-2356
▁nervous	-2357
▁wolf	-2358
▁often	-2359
arl	-2360
▁Pet	-2361
▁ship	-2362
▁pleased	-2363
▁cri	-2364
▁lit	-2365
▁easy	-2366
ensive	-2367
▁cries	-2368
▁wander	-2369
▁scr	-2370
▁hur	-2371
▁bored	-2372
▁expensive	-2373
▁excitement	-2374
▁reg	-2375
▁drum	-2376
▁exam	-2377
▁tick	-2378
▁knight	-2379
iness	-2380
▁medic	-2381
▁hopping	-2382
itty	-2383
▁sold	-2384
ser	-2385
▁finger	-2386
▁chest	-2387
▁bone	-2388
▁vegetables	-2389
iddle	-2390
▁true	-2391
▁medicine	-2392
▁seek	-2393
▁class	-2394
▁feed	-2395
▁tent	-2396
▁relax	-2397
▁asking	-2398
ets	-2399
▁flut	-2400
▁scarf	-2401
▁packed	-2402
▁content	-2403
▁answered	-2404
▁pizza	-2405
▁saved	-2406
uce	-2407
erpill	-2408
▁caterpill	-2409
▁weak	-2410
▁clown	-2411
▁glass	-2412
▁working	-2413
Where	-2414
▁yourself	-2415
light	-2416
▁grumpy	-2417
▁rad	-2418
▁cand	-2419
oof	-2420
ecially	-2421
▁spend	-2422
▁kissed	-2423
▁playground	-2424
oop	-2425
▁wagged	-2426
▁pray	-2427
▁become	-2428
▁jelly	-2429
▁stuff	-2430
▁middle	-2431
▁tears	-2432
▁boring	-2433
▁giggled	-2434
▁Pete	-2435
ates	-2436
body	-2437
▁drop	-2438
▁chew	-2439
▁shoot	-2440
▁pus	-2441
▁eggs	-2442
▁crawl	-2443
pecially	-2444
▁distance	-2445
▁wis	-2446
▁especially	-2447
▁balls	-2448
▁closet	-2449
▁garage	-2450
▁rid	-2451
▁vase	-2452
▁lemon	-2453
que	-2454
▁sailed	-2455
▁questions	-2456
▁cage	-2457
▁lead	-2458
▁sight	-2459
issors	-2460
▁bathroom	-2461
▁Bobby	-2462
▁caterpillar	-2463
▁hang	-2464
▁scissors	-2465
▁ones	-2466
▁stones	-2467
▁flag	-2468
▁Eventually	-2469
▁mir	-2470
▁drawing	-2471
▁Blue	-2472
▁boss	-2473
▁lock	-2474
aged	-2475
▁End	-2476
▁mistake	-2477
▁splashed	-2478
▁bridge	-2479
ror	-2480
▁add	-2481
▁fis	-2482
▁wrote	-2483
Ben	-2484
selves	-2485
▁lying	-2486
ym	-2487
▁ok	-2488
cept	-2489
Sorry	-2490
▁tie	-2491
▁covered	-2492
▁skipped	-2493
▁gets	-2494
▁Mandy	-2495
▁match	-2496
mb	-2497
▁dest	-2498
imp	-2499
▁mov	-2500
ating	-2501
▁fake	-2502
▁calling	-2503
▁disappeared	-2504
▁cap	-2505
▁clap	-2506
▁queen	-2507
Who	-2508
▁incred	-2509
▁fluffy	-2510
▁Mrs	-2511
▁crack	-2512
▁ruined	-2513
▁walks	-2514
▁brush	-2515
▁wheel	-2516
▁ext	-2517
▁Mar	-2518
▁boys	-2519
▁Fred	-2520
Are	-2521
▁ind	-2522
▁discovered	-2523
▁fruits	-2524
elp	-2525
▁map	-2526
▁team	-2527
▁change	-2528
▁thick	-2529
▁sweetie	-2530
▁tag	-2531
ination	-2532
▁eld	-2533
▁lose	-2534
▁smelly	-2535
port	-2536
▁glow	-2537
▁roar	-2538
▁Brown	-2539
▁soap	-2540
▁famous	-2541
ella	-2542
keep	-2543
▁horn	-2544
▁lazy	-2545
▁once	-2546
▁crown	-2547
arth	-2548
▁sell	-2549
▁father	-2550
▁feathers	-2551
▁Dan	-2552
illi	-2553
▁bake	-2554
▁juicy	-2555
▁motor	-2556
▁picks	-2557
▁moving	-2558
?".	-2559
alous	-2560
usual	-2561
▁unusual	-2562
▁colourful	-2563
▁incredible	-2564
ugar	-2565
▁measure	-2566
▁eye	-2567
▁Dave	-2568
▁dogs	-2569
▁fine	-2570
▁goat	-2571
▁week	-2572
▁realised	-2573
ipp	-2574
▁jealous	-2575
▁branches	-2576
▁If	-2577
▁clear	-2578
▁ord	-2579
▁extra	-2580
▁mic	-2581
▁knife	-2582
▁eager	-2583
▁glue	-2584
▁board	-2585
▁borrow	-2586
▁mirror	-2587
▁sugar	-2588
▁mighty	-2589
ured	-2590
▁sil	-2591
▁shows	-2592
asing	-2593
▁Ella	-2594
▁check	-2595
▁tiger	-2596
▁No	-2597
▁banana	-2598
▁licked	-2599
▁craw	-2600
yal	-2601
▁log	-2602
▁bottom	-2603
▁crawled	-2604
▁adventur	-2605
Now	-2606
ache	-2607
umbled	-2608
▁boxes	-2609
ots	-2610
ately	-2611
▁tape	-2612
▁drank	-2613
▁ed	-2614
Help	-2615
▁favour	-2616
▁louder	-2617
▁cover	-2618
hip	-2619
ique	-2620
▁adventurous	-2621
uggest	-2622
fast	-2623
▁suggest	-2624
imed	-2625
▁mod	-2626
▁body	-2627
▁cost	-2628
▁unique	-2629
▁favourite	-2630
▁aw	-2631
▁cleaned	-2632
▁happening	-2633
▁noisy	-2634
▁decide	-2635
▁breakfast	-2636
▁dig	-2637
▁nod	-2638
▁figure	-2639
keeper	-2640
▁straw	-2641
▁bubbles	-2642
land	-2643
▁yours	-2644
▁kindness	-2645
▁word	-2646
▁lamp	-2647
▁offered	-2648
▁loyal	-2649
▁coins	-2650
▁fridge	-2651
ti	-2652
▁dish	-2653
▁rare	-2654
fic	-2655
▁joke	-2656
uggled	-2657
▁towel	-2658
▁against	-2659
▁elderly	-2660
ddy	-2661
apping	-2662
▁ang	-2663
ipper	-2664
▁wand	-2665
▁managed	-2666
▁grace	-2667
▁twist	-2668
▁accept	-2669
▁cher	-2670
▁whale	-2671
▁circles	-2672
▁bloom	-2673
▁diffic	-2674
▁impressed	-2675
appy	-2676
olog	-2677
rag	-2678
▁cam	-2679
▁pee	-2680
▁hero	-2681
cil	-2682
ery	-2683
head	-2684
▁pump	-2685
▁added	-2686
▁frown	-2687
▁pencil	-2688
ages	-2689
lies	-2690
▁arg	-2691
▁weal	-2692
▁dizzy	-2693
▁shark	-2694
▁wrapped	-2695
▁ham	-2696
▁difficult	-2697
▁organized	-2698
ilt	-2699
▁melt	-2700
▁guess	-2701
▁apolog	-2702
▁pointing	-2703
Well	-2704
▁toug	-2705
▁depend	-2706
▁balance	-2707
▁enjoying	-2708
Be	-2709
▁hunt	-2710
ready	-2711
▁jog	-2712
▁ears	-2713
▁jewel	-2714
▁loudly	-2715
▁balloons	-2716
▁spun	-2717
▁grown	-2718
▁Tweety	-2719
▁happiness	-2720
emo	-2721
zed	-2722
anged	-2723
▁wagon	-2724
Me	-2725
ory	-2726
▁Nemo	-2727
▁tunn	-2728
▁market	-2729
edient	-2730
▁already	-2731
▁painting	-2732
▁clay	-2733
▁giving	-2734
rage	-2735
▁hurts	-2736
▁rough	-2737
▁sword	-2738
▁brilli	-2739
omed	-2740
▁belonged	-2741
▁brothers	-2742
▁fool	-2743
alk	-2744
▁squee	-2745
▁fright	-2746
▁learning	-2747
▁circle	-2748
▁island	-2749
▁brilliant	-2750
▁tough	-2751
▁compet	-2752
▁record	-2753
▁barn	-2754
▁weird	-2755
▁choose	-2756
▁slipped	-2757
▁pil	-2758
▁ref	-2759
▁saying	-2760
▁stream	-2761
▁bald	-2762
▁swan	-2763
▁needs	-2764
▁rich	-2765
▁safely	-2766
▁thu	-2767
▁four	-2768
▁harm	-2769
▁shake	-2770
▁smoke	-2771
▁strawber	-2772
▁Whenever	-2773
▁obedient	-2774
▁thoughtful	-2775
▁lifted	-2776
▁cheerful	-2777
▁bitter	-2778
▁ter	-2779
▁berries	-2780
iv	-2781
▁chase	-2782
▁search	-2783
▁jam	-2784
▁turt	-2785
▁flash	-2786
▁buttons	-2787
▁dreamed	-2788
oot	-2789
▁hose	-2790
▁norm	-2791
▁means	-2792
▁walls	-2793
▁trucks	-2794
▁wrap	-2795
▁crayon	-2796
▁stronger	-2797
▁unl	-2798
▁city	-2799
▁tank	-2800
▁toast	-2801
▁Fr	-2802
œLet	-2803
▁Bella	-2804
▁Mike	-2805
gy	-2806
ature	-2807
laimed	-2808
▁hats	-2809
▁mixed	-2810
▁foolish	-2811
bin	-2812
▁edge	-2813
aw	-2814
▁Sn	-2815
shion	-2816
▁moms	-2817
ipe	-2818
▁fier	-2819
▁bossy	-2820
▁dreams	-2821
▁exclaimed	-2822
▁dependable	-2823
▁cabin	-2824
▁scare	-2825
▁Alex	-2826
▁escape	-2827
▁wealthy	-2828
atter	-2829
▁normal	-2830
▁movie	-2831
▁times	-2832
▁twig	-2833
▁kinds	-2834
▁proudly	-2835
wards	-2836
▁libr	-2837
▁using	-2838
▁rat	-2839
▁independ	-2840
iable	-2841
▁cop	-2842
▁fierce	-2843
ject	-2844
▁jack	-2845
▁shells	-2846
Tim	-2847
▁fre	-2848
▁dolp	-2849
▁above	-2850
▁trunk	-2851
▁camera	-2852
▁chicken	-2853
▁enorm	-2854
▁design	-2855
▁joined	-2856
▁reliable	-2857
ext	-2858
orge	-2859
illie	-2860
▁enormous	-2861
▁cro	-2862
▁roof	-2863
▁Cl	-2864
▁falls	-2865
▁explored	-2866
pes	-2867
▁fat	-2868
▁suit	-2869
▁excitedly	-2870
▁laughs	-2871
▁parrot	-2872
▁invited	-2873
▁fountain	-2874
▁frightened	-2875
▁useful	-2876
irp	-2877
▁tools	-2878
▁smaller	-2879
ado	-2880
▁icy	-2881
▁terri	-2882
▁sounded	-2883
▁cleaning	-2884
▁My	-2885
▁skin	-2886
▁grandpa	-2887
▁independent	-2888
Here	-2889
▁valu	-2890
▁shone	-2891
▁notice	-2892
▁turtle	-2893
ola	-2894
erry	-2895
▁magn	-2896
▁shape	-2897
▁track	-2898
na	-2899
▁nosy	-2900
▁chose	-2901
▁knows	-2902
▁stumbled	-2903
▁lean	-2904
ention	-2905
▁competit	-2906
▁reminded	-2907
▁admired	-2908
▁stubb	-2909
ouses	-2910
▁bull	-2911
▁mole	-2912
▁whisp	-2913
ye	-2914
▁yog	-2915
▁bags	-2916
▁showing	-2917
inal	-2918
ress	-2919
▁frag	-2920
▁swe	-2921
uring	-2922
▁Paul	-2923
▁yarn	-2924
▁fingers	-2925
▁brightly	-2926
▁Bobo	-2927
▁cere	-2928
▁ways	-2929
oppy	-2930
▁seem	-2931
▁arrow	-2932
▁kicked	-2933
▁office	-2934
▁law	-2935
iginal	-2936
▁Ducky	-2937
▁bushes	-2938
▁marble	-2939
▁successful	-2940
▁cudd	-2941
▁gem	-2942
amond	-2943
▁stubborn	-2944
▁mem	-2945
▁guit	-2946
▁tunnel	-2947
▁delighted	-2948
eorge	-2949
▁raced	-2950
▁harder	-2951
▁suggested	-2952
arry	-2953
▁rode	-2954
▁mel	-2955
▁pant	-2956
▁helps	-2957
▁tooth	-2958
▁beet	-2959
▁built	-2960
▁painted	-2961
▁original	-2962
kn	-2963
▁tummy	-2964
▁houses	-2965
▁spoiled	-2966
▁diamond	-2967
dom	-2968
▁Lola	-2969
▁bounce	-2970
inary	-2971
▁sunf	-2972
▁George	-2973
▁Joey	-2974
▁stri	-2975
▁fragile	-2976
▁dull	-2977
▁space	-2978
▁fresh	-2979
▁solve	-2980
▁searching	-2981
▁Soph	-2982
▁tele	-2983
▁thunder	-2984
▁picking	-2985
▁Grace	-2986
▁steal	-2987
▁counted	-2988
▁practice	-2989
▁Andy	-2990
▁clum	-2991
▁hairy	-2992
▁stamp	-2993
▁birdie	-2994
▁lights	-2995
▁valuable	-2996
▁son	-2997
▁Toby	-2998
▁cone	-2999
▁prize	-3000
▁rushed	-3001
▁changed	-3002
▁avo	-3003
▁cheap	-3004
com	-3005
▁angel	-3006
▁grand	-3007
▁salad	-3008
ience	-3009
▁march	-3010
▁comput	-3011
iew	-3012
gest	-3013
▁beak	-3014
▁wake	-3015
▁study	-3016
▁costum	-3017
▁guitar	-3018
▁low	-3019
known	-3020
umbers	-3021
▁cereal	-3022
anut	-3023
▁lab	-3024
▁biggest	-3025
▁liz	-3026
cient	-3027
▁poured	-3028
uth	-3029
▁post	-3030
▁metal	-3031
pid	-3032
▁char	-3033
▁view	-3034
▁bean	-3035
▁spinning	-3036
▁dove	-3037
▁scrat	-3038
▁enc	-3039
▁yet	-3040
illa	-3041
tern	-3042
▁bump	-3043
▁stove	-3044
▁stupid	-3045
ines	-3046
anger	-3047
▁trump	-3048
▁thirst	-3049
▁graceful	-3050
▁ing	-3051
▁Millie	-3052
▁ancient	-3053
▁trap	-3054
▁envel	-3055
▁flute	-3056
▁pirate	-3057
▁resc	-3058
▁wire	-3059
▁acorn	-3060
▁nurse	-3061
▁clumsy	-3062
▁unknown	-3063
corn	-3064
ilty	-3065
▁helm	-3066
redient	-3067
▁guilty	-3068
▁ingredient	-3069
▁prep	-3070
▁goose	-3071
▁playful	-3072
▁dreaming	-3073
!".	-3074
vice	-3075
▁forth	-3076
▁compass	-3077
▁persist	-3078
▁telling	-3079
ement	-3080
▁pow	-3081
ither	-3082
▁pumpkin	-3083
▁beetle	-3084
▁serious	-3085
▁print	-3086
▁peeked	-3087
▁Grandpa	-3088
▁half	-3089
▁locked	-3090
▁themselves	-3091
cu	-3092
▁wiped	-3093
▁terrible	-3094
▁careless	-3095
▁env	-3096
▁desk	-3097
▁earth	-3098
▁sniff	-3099
▁finding	-3100
▁popcorn	-3101
▁boats	-3102
▁delicate	-3103
▁sparkled	-3104
▁pup	-3105
▁peanut	-3106
▁stairs	-3107
▁washed	-3108
isk	-3109
▁barber	-3110
▁reward	-3111
▁allowed	-3112
▁numbers	-3113
▁whispered	-3114
▁Polly	-3115
▁leaving	-3116
▁thirsty	-3117
▁sne	-3118
▁doesn	-3119
▁stage	-3120
▁ending	-3121
œWhat	-3122
▁batter	-3123
▁ow	-3124
▁Next	-3125
▁cact	-3126
▁trumpet	-3127
▁imagined	-3128
How	-3129
œIt	-3130
▁those	-3131
▁handle	-3132
▁nicely	-3133
▁pattern	-3134
▁spilled	-3135
▁pasta	-3136
▁ingredients	-3137
cod	-3138
time	-3139
▁uncle	-3140
▁screen	-3141
▁mis	-3142
▁Ellie	-3143
▁hay	-3144
œLetâ	-3145
▁sudden	-3146
▁friendship	-3147
▁cur	-3148
▁hammer	-3149
▁warned	-3150
▁er	-3151
▁Pat	-3152
▁guard	-3153
▁missing	-3154
▁regular	-3155
▁dough	-3156
▁sauce	-3157
▁lizard	-3158
▁computer	-3159
▁bees	-3160
▁wing	-3161
▁compassion	-3162
▁flashlight	-3163
oomy	-3164
▁refused	-3165
arsh	-3166
comfort	-3167
▁carrying	-3168
▁driving	-3169
ellig	-3170
▁cactus	-3171
▁crocod	-3172
▁gasped	-3173
▁slides	-3174
awn	-3175
ision	-3176
▁snee	-3177
▁potato	-3178
▁deliver	-3179
▁envelope	-3180
▁intellig	-3181
▁uncomfort	-3182
ud	-3183
▁scoot	-3184
▁uncomfortable	-3185
▁stops	-3186
▁square	-3187
tter	-3188
ugged	-3189
▁shel	-3190
▁squash	-3191
▁impress	-3192
▁popular	-3193
▁flex	-3194
▁rose	-3195
▁seeds	-3196
▁mailbox	-3197
▁discover	-3198
▁Pe	-3199
▁complet	-3200
▁celebrate	-3201
▁eng	-3202
▁dead	-3203
▁note	-3204
ations	-3205
▁rubbed	-3206
▁scatter	-3207
▁stickers	-3208
▁Your	-3209
▁pants	-3210
▁penny	-3211
▁pepper	-3212
There	-3213
▁hoop	-3214
▁moder	-3215
▁witch	-3216
▁shiver	-3217
▁persistent	-3218
▁pige	-3219
▁ahead	-3220
▁melon	-3221
▁advice	-3222
▁stranger	-3223
▁meal	-3224
▁task	-3225
▁handed	-3226
▁shocked	-3227
▁perm	-3228
▁resist	-3229
▁question	-3230
ray	-3231
▁rug	-3232
▁rubb	-3233
▁twirled	-3234
▁charming	-3235
▁aunt	-3236
▁sorts	-3237
gu	-3238
ince	-3239
▁tied	-3240
▁dust	-3241
▁shadow	-3242
oe	-3243
▁otter	-3244
▁towers	-3245
▁beauty	-3246
▁modern	-3247
▁flexible	-3248
▁sunflower	-3249
▁sink	-3250
▁surf	-3251
het	-3252
robe	-3253
▁tor	-3254
▁knock	-3255
▁snuggled	-3256
▁thinking	-3257
▁clock	-3258
▁create	-3259
▁placed	-3260
loo	-3261
host	-3262
▁rub	-3263
▁stat	-3264
▁cooking	-3265
▁bent	-3266
▁fork	-3267
▁load	-3268
▁jolly	-3269
▁order	-3270
▁anx	-3271
▁shut	-3272
▁crane	-3273
▁chance	-3274
▁jug	-3275
▁base	-3276
▁humble	-3277
▁jacket	-3278
▁nature	-3279
ipop	-3280
rell	-3281
▁gir	-3282
llipop	-3283
▁growing	-3284
▁tap	-3285
aghet	-3286
▁encou	-3287
aghetti	-3288
▁cricket	-3289
▁attic	-3290
▁spoke	-3291
▁truth	-3292
▁counting	-3293
▁dolphin	-3294
▁impressive	-3295
gust	-3296
▁ghost	-3297
▁destro	-3298
▁library	-3299
▁cupboard	-3300
aid	-3301
ric	-3302
▁hipp	-3303
▁patch	-3304
▁anxious	-3305
▁blueber	-3306
▁chasing	-3307
▁disgust	-3308
▁lollipop	-3309
▁neat	-3310
▁couldnâ	-3311
▁spaghetti	-3312
▁butterflies	-3313
▁opens	-3314
▁Tweetie	-3315
Go	-3316
fa	-3317
orant	-3318
▁meas	-3319
▁sadly	-3320
▁fearful	-3321
▁zip	-3322
▁comb	-3323
▁Sandy	-3324
bled	-3325
▁gum	-3326
▁mill	-3327
▁courage	-3328
▁travel	-3329
▁stretched	-3330
aby	-3331
ebra	-3332
▁yawn	-3333
▁early	-3334
▁holds	-3335
▁further	-3336
▁support	-3337
noon	-3338
▁pale	-3339
▁wheels	-3340
▁envious	-3341
▁harmless	-3342
▁afternoon	-3343
▁intelligent	-3344
▁ordinary	-3345
ict	-3346
aches	-3347
▁sleeping	-3348
▁crocodile	-3349
▁gor	-3350
▁rece	-3351
▁brace	-3352
▁phot	-3353
▁sett	-3354
▁umb	-3355
▁Maria	-3356
▁umbrell	-3357
▁tem	-3358
arian	-3359
▁attract	-3360
▁windows	-3361
▁brighter	-3362
▁firework	-3363
▁ignorant	-3364
▁dug	-3365
▁send	-3366
▁names	-3367
▁zebra	-3368
▁tomato	-3369
They	-3370
iches	-3371
▁Look	-3372
▁speed	-3373
▁collar	-3374
▁creatures	-3375
See	-3376
▁hedge	-3377
▁engine	-3378
aff	-3379
ices	-3380
▁mask	-3381
▁impat	-3382
▁shoe	-3383
▁purse	-3384
▁filthy	-3385
▁shield	-3386
▁anywhere	-3387
œYes	-3388
ne	-3389
▁bri	-3390
▁camp	-3391
▁Sophie	-3392
▁badly	-3393
▁impro	-3394
▁candle	-3395
htub	-3396
▁Here	-3397
▁math	-3398
▁waff	-3399
▁alert	-3400
▁pengu	-3401
▁itself	-3402
▁reading	-3403
▁piano	-3404
▁bathtub	-3405
▁letters	-3406
▁restless	-3407
Ow	-3408
ief	-3409
▁Everything	-3410
▁Bear	-3411
▁split	-3412
▁pebble	-3413
▁spring	-3414
▁impatient	-3415
iron	-3416
▁chain	-3417
▁scale	-3418
▁shine	-3419
▁Sm	-3420
▁gifted	-3421
coa	-3422
▁ener	-3423
▁trick	-3424
▁gloomy	-3425
▁hunter	-3426
▁disgusting	-3427
▁Sh	-3428
▁led	-3429
▁cocoa	-3430
▁crazy	-3431
He	-3432
▁carp	-3433
▁compassionate	-3434
▁ax	-3435
lcano	-3436
▁mush	-3437
▁nail	-3438
ikes	-3439
▁torn	-3440
▁Bunny	-3441
ctop	-3442
▁kay	-3443
▁avoc	-3444
▁deaf	-3445
ctopus	-3446
▁helmet	-3447
▁cats	-3448
▁stack	-3449
▁drawer	-3450
▁gorilla	-3451
ibb	-3452
▁hung	-3453
▁hippo	-3454
▁admire	-3455
▁sandwiches	-3456
ses	-3457
▁jet	-3458
▁seal	-3459
▁object	-3460
▁nowhere	-3461
ips	-3462
▁spell	-3463
▁value	-3464
▁distant	-3465
cut	-3466
ffe	-3467
▁destroy	-3468
ffee	-3469
iest	-3470
▁oat	-3471
aulif	-3472
▁enth	-3473
▁trash	-3474
Yay	-3475
▁Will	-3476
aurant	-3477
▁anyway	-3478
▁octopus	-3479
▁sticker	-3480
▁Bill	-3481
▁soar	-3482
▁sofa	-3483
▁axe	-3484
œThat	-3485
▁hive	-3486
▁jumps	-3487
▁super	-3488
▁cartoon	-3489
▁pretending	-3490
▁restaurant	-3491
hood	-3492
▁may	-3493
▁human	-3494
▁practiced	-3495
▁hook	-3496
erable	-3497
▁compl	-3498
▁Before	-3499
▁statue	-3500
year	-3501
▁sym	-3502
▁Annie	-3503
▁unpack	-3504
▁miserable	-3505
▁cards	-3506
▁enthus	-3507
▁pigeon	-3508
▁shaking	-3509
▁neighbour	-3510
▁cows	-3511
▁rice	-3512
▁hurry	-3513
▁caulif	-3514
▁package	-3515
▁umbrella	-3516
uct	-3517
ccol	-3518
▁bet	-3519
ccoli	-3520
▁jeep	-3521
▁nuts	-3522
▁cryst	-3523
▁cooked	-3524
▁starts	-3525
▁bandage	-3526
▁clapping	-3527
▁leop	-3528
▁Charl	-3529
▁James	-3530
▁barrel	-3531
▁stared	-3532
▁scooter	-3533
▁volcano	-3534
▁attractive	-3535
und	-3536
▁bin	-3537
cream	-3538
▁dess	-3539
▁rules	-3540
▁Buddy	-3541
▁nobody	-3542
io	-3543
▁wheat	-3544
▁giggle	-3545
▁Brownie	-3546
▁explain	-3547
bol	-3548
▁pony	-3549
▁sent	-3550
▁fu	-3551
▁carpet	-3552
▁magnet	-3553
ef	-3554
▁riding	-3555
▁roared	-3556
▁symbol	-3557
▁message	-3558
▁pressed	-3559
▁backpack	-3560
▁competitive	-3561
▁pad	-3562
▁goal	-3563
▁colours	-3564
▁sweater	-3565
▁decorate	-3566
gn	-3567
▁art	-3568
▁pilot	-3569
▁station	-3570
▁bicy	-3571
▁reco	-3572
▁exper	-3573
ailable	-3574
▁silver	-3575
▁mushroom	-3576
az	-3577
aroo	-3578
ceed	-3579
angaroo	-3580
▁rolling	-3581
▁Snow	-3582
stairs	-3583
▁parade	-3584
par	-3585
stri	-3586
▁separ	-3587
▁cooler	-3588
▁muff	-3589
▁treasures	-3590
▁rod	-3591
▁harsh	-3592
▁coffee	-3593
▁switch	-3594
ubby	-3595
▁country	-3596
▁dessert	-3597
▁bracelet	-3598
▁helpless	-3599
▁kangaroo	-3600
▁available	-3601
▁Tr	-3602
▁older	-3603
▁thief	-3604
▁cushion	-3605
▁broccoli	-3606
▁cauliflower	-3607
aked	-3608
iskers	-3609
▁eras	-3610
▁perform	-3611
ube	-3612
▁Are	-3613
▁golf	-3614
▁flour	-3615
▁football	-3616
▁Lilly	-3617
▁Whiskers	-3618
▁tire	-3619
▁polish	-3620
▁painter	-3621
heart	-3622
ophone	-3623
orable	-3624
▁Where	-3625
▁given	-3626
▁quite	-3627
▁raven	-3628
▁scold	-3629
▁needle	-3630
▁shouts	-3631
▁succeed	-3632
eer	-3633
▁repe	-3634
▁second	-3635
If	-3636
arnt	-3637
▁film	-3638
▁learnt	-3639
▁fireman	-3640
▁pushing	-3641
▁Smith	-3642
▁leopard	-3643
▁shopkeeper	-3644
▁vi	-3645
▁iron	-3646
▁paws	-3647
▁size	-3648
▁vine	-3649
▁point	-3650
▁bounced	-3651
ummer	-3652
▁kayak	-3653
▁steps	-3654
▁monkeys	-3655
▁swinging	-3656
▁troubled	-3657
elery	-3658
▁didnâ	-3659
▁starting	-3660
zzy	-3661
▁hall	-3662
▁skip	-3663
▁triang	-3664
▁soldier	-3665
▁sle	-3666
▁tax	-3667
kelet	-3668
▁curt	-3669
▁tube	-3670
▁Jerry	-3671
▁lively	-3672
▁adorable	-3673
▁respectful	-3674
▁trop	-3675
▁onion	-3676
▁chubby	-3677
▁modest	-3678
▁curtain	-3679
nna	-3680
▁ten	-3681
cycle	-3682
gging	-3683
ipping	-3684
▁holes	-3685
▁stirred	-3686
▁organize	-3687
ci	-3688
aled	-3689
anda	-3690
ebook	-3691
▁elev	-3692
▁hadn	-3693
▁leash	-3694
▁reind	-3695
▁ol	-3696
▁lip	-3697
night	-3698
▁notebook	-3699
keleton	-3700
▁recogn	-3701
▁shrimp	-3702
▁trophy	-3703
▁Charlie	-3704
▁por	-3705
astic	-3706
inking	-3707
▁elevator	-3708
▁Pap	-3709
▁Give	-3710
▁club	-3711
▁five	-3712
▁pipe	-3713
▁bicycle	-3714
▁marched	-3715
▁listening	-3716
▁ur	-3717
▁pun	-3718
▁case	-3719
▁cord	-3720
▁obser	-3721
▁barking	-3722
▁crystal	-3723
▁beep	-3724
▁luck	-3725
▁reef	-3726
▁taxi	-3727
▁tray	-3728
strich	-3729
▁frowned	-3730
▁haircut	-3731
▁lightning	-3732
▁Baby	-3733
▁eraser	-3734
▁happier	-3735
▁reindeer	-3736
reci	-3737
▁pulls	-3738
▁airport	-3739
▁Mag	-3740
▁tur	-3741
ucked	-3742
▁sailor	-3743
▁wishes	-3744
angu	-3745
▁quar	-3746
▁comet	-3747
▁speak	-3748
▁forgave	-3749
▁drawings	-3750
ooped	-3751
▁paid	-3752
▁langu	-3753
hino	-3754
▁appreci	-3755
▁visited	-3756
▁somewhere	-3757
▁zoomed	-3758
▁tripped	-3759
sely	-3760
▁micr	-3761
▁salt	-3762
▁laser	-3763
▁thanks	-3764
▁thread	-3765
▁skeleton	-3766
Give	-3767
▁lid	-3768
itten	-3769
▁vest	-3770
▁ended	-3771
▁short	-3772
▁celery	-3773
▁univer	-3774
olin	-3775
▁lions	-3776
▁peach	-3777
come	-3778
▁yach	-3779
▁pastry	-3780
▁sandbox	-3781
▁climbing	-3782
▁Papa	-3783
▁buzz	-3784
▁chalk	-3785
▁jokes	-3786
▁repair	-3787
▁theater	-3788
azz	-3789
▁rhino	-3790
▁grapes	-3791
▁insist	-3792
▁tricks	-3793
▁turkey	-3794
▁microphone	-3795
▁incl	-3796
▁either	-3797
▁hoping	-3798
▁evening	-3799
▁shelter	-3800
▁unlock	-3801
▁sort	-3802
▁energy	-3803
▁pushes	-3804
▁yacht	-3805
▁checked	-3806
▁closely	-3807
▁costume	-3808
▁gro	-3809
▁ped	-3810
▁unh	-3811
▁spir	-3812
▁laund	-3813
▁rescue	-3814
▁created	-3815
ected	-3816
▁ants	-3817
▁Harry	-3818
▁Would	-3819
▁finds	-3820
▁screw	-3821
▁sunset	-3822
▁sweetheart	-3823
▁cube	-3824
▁ribb	-3825
ecause	-3826
▁breat	-3827
▁skill	-3828
▁laundry	-3829
enny	-3830
▁stom	-3831
Anna	-3832
play	-3833
▁pole	-3834
▁shovel	-3835
▁ostrich	-3836
▁oy	-3837
icer	-3838
▁prov	-3839
▁saus	-3840
▁Danny	-3841
▁dishes	-3842
▁raining	-3843
▁complete	-3844
achel	-3845
▁bikes	-3846
▁porch	-3847
▁behave	-3848
▁blowing	-3849
affe	-3850
osie	-3851
▁toil	-3852
▁summer	-3853
erc	-3854
gie	-3855
ron	-3856
▁Inst	-3857
render	-3858
▁rever	-3859
▁fields	-3860
▁mug	-3861
▁brus	-3862
▁bubble	-3863
▁trains	-3864
▁fort	-3865
▁frame	-3866
▁papers	-3867
▁softly	-3868
Bye	-3869
stic	-3870
▁quit	-3871
▁raft	-3872
▁bears	-3873
▁strawberry	-3874
œYou	-3875
aused	-3876
▁radio	-3877
▁strugg	-3878
▁Jul	-3879
▁spirit	-3880
▁toilet	-3881
▁giraffe	-3882
▁glove	-3883
▁marry	-3884
▁mixer	-3885
▁wallet	-3886
ceros	-3887
iastic	-3888
▁display	-3889
▁enthusiastic	-3890
urb	-3891
enry	-3892
▁soil	-3893
▁flame	-3894
▁kitty	-3895
▁welcomed	-3896
▁grabs	-3897
▁panda	-3898
▁powder	-3899
▁disturb	-3900
▁putting	-3901
▁unhappy	-3902
▁basketball	-3903
▁lime	-3904
▁mild	-3905
▁peek	-3906
▁sock	-3907
▁tear	-3908
▁sneak	-3909
▁stretch	-3910
anic	-3911
cast	-3912
iling	-3913
▁Clara	-3914
▁exerc	-3915
▁rhinoceros	-3916
▁knot	-3917
▁meat	-3918
chanic	-3919
▁Henry	-3920
any	-3921
una	-3922
ison	-3923
ween	-3924
▁belt	-3925
▁stuffed	-3926
▁surrender	-3927
▁mule	-3928
▁boots	-3929
▁fisher	-3930
▁napkin	-3931
▁avocado	-3932
▁between	-3933
▁weather	-3934
▁celebrated	-3935
pe	-3936
ccer	-3937
ckey	-3938
icop	-3939
▁bul	-3940
reeze	-3941
▁crib	-3942
icopter	-3943
▁hockey	-3944
▁sandcast	-3945
TMm	-3946
edy	-3947
▁Jess	-3948
▁cane	-3949
▁loop	-3950
▁disag	-3951
▁press	-3952
▁soccer	-3953
▁mechanic	-3954
▁helicopter	-3955
▁wag	-3956
chair	-3957
▁appl	-3958
▁perfectly	-3959
seum	-3960
▁bur	-3961
▁dancer	-3962
▁cardboard	-3963
▁page	-3964
▁shade	-3965
▁baking	-3966
▁leaned	-3967
▁fle	-3968
▁pal	-3969
▁rag	-3970
▁bulb	-3971
▁medal	-3972
▁museum	-3973
▁shouldn	-3974
▁pair	-3975
▁counter	-3976
▁quarrel	-3977
▁apologized	-3978
▁Bet	-3979
▁alive	-3980
▁violin	-3981
▁oil	-3982
▁vide	-3983
▁motorcycle	-3984
izes	-3985
▁vet	-3986
▁dive	-3987
▁wife	-3988
▁armchair	-3989
ges	-3990
▁lie	-3991
▁drops	-3992
▁magaz	-3993
▁sprink	-3994
Dad	-3995
uby	-3996
▁rot	-3997
iture	-3998
▁cups	-3999
▁diary	-4000
▁lives	-4001
▁breaks	-4002
urniture	-4003
▁falling	-4004
▁baseball	-4005
▁attention	-4006
mand	-4007
▁barks	-4008
▁frogs	-4009
unately	-4010
▁grocer	-4011
▁Instead	-4012
▁chickens	-4013
▁language	-4014
▁furniture	-4015
low	-4016
▁minute	-4017
▁smells	-4018
▁fishing	-4019
▁imagine	-4020
▁shoulder	-4021
ories	-4022
▁photo	-4023
▁slept	-4024
▁Maggie	-4025
▁palace	-4026
▁waving	-4027
men	-4028
▁See	-4029
▁tuna	-4030
▁judge	-4031
▁staff	-4032
▁golden	-4033
..	-4034
rod	-4035
▁ble	-4036
▁men	-4037
▁tub	-4038
▁mama	-4039
▁triangle	-4040
bul	-4041
▁introd	-4042
▁ignored	-4043
▁kingdom	-4044
▁cherries	-4045
sing	-4046
imney	-4047
▁Tony	-4048
▁fisherman	-4049
▁inf	-4050
▁flies	-4051
▁married	-4052
▁imagination	-4053
eterin	-4054
▁freez	-4055
▁offer	-4056
▁chimney	-4057
▁presents	-4058
▁jellyfish	-4059
eterinarian	-4060
▁mop	-4061
▁lend	-4062
▁petals	-4063
▁passport	-4064
▁Lee	-4065
▁pine	-4066
▁seeing	-4067
▁shower	-4068
▁zipper	-4069
▁veterinarian	-4070
▁vend	-4071
▁trail	-4072
urch	-4073
▁donâ	-4074
▁First	-4075
▁sheet	-4076
▁straight	-4077
▁chirp	-4078
▁heads	-4079
▁plastic	-4080
▁accepted	-4081
▁feelings	-4082
▁Ste	-4083
▁reve	-4084
▁weep	-4085
▁discu	-4086
▁twink	-4087
▁meeting	-4088
▁Ab	-4089
Your	-4090
▁prun	-4091
ippery	-4092
▁trave	-4093
▁headed	-4094
▁radish	-4095
▁shakes	-4096
▁eagerly	-4097
orses	-4098
▁allig	-4099
▁chess	-4100
▁planet	-4101
▁player	-4102
▁bananas	-4103
▁memories	-4104
▁slippery	-4105
▁Bun	-4106
▁Tina	-4107
▁swung	-4108
▁winter	-4109
ait	-4110
▁hut	-4111
▁skirt	-4112
▁ink	-4113
▁since	-4114
▁horses	-4115
gen	-4116
▁True	-4117
▁cheek	-4118
▁pirates	-4119
ngth	-4120
▁poem	-4121
▁glowing	-4122
chor	-4123
▁ambul	-4124
▁grill	-4125
▁worth	-4126
house	-4127
▁grin	-4128
▁inse	-4129
▁lawy	-4130
▁cable	-4131
▁strength	-4132
▁Ted	-4133
▁sung	-4134
▁However	-4135
▁penguin	-4136
opl	-4137
iday	-4138
▁aer	-4139
▁agre	-4140
▁aeropl	-4141
▁invest	-4142
▁rubber	-4143
▁dressed	-4144
▁writing	-4145
▁forgotten	-4146
lass	-4147
▁fauc	-4148
▁skull	-4149
▁factor	-4150
▁oyster	-4151
▁cob	-4152
▁itch	-4153
▁wool	-4154
▁breeze	-4155
▁vendor	-4156
▁belongs	-4157
▁scolded	-4158
tress	-4159
▁maze	-4160
▁sque	-4161
▁doors	-4162
▁opera	-4163
▁investig	-4164
▁mattress	-4165
▁shouting	-4166
aud	-4167
reek	-4168
œItâ	-4169
▁creek	-4170
▁hotel	-4171
▁factory	-4172
ues	-4173
▁news	-4174
▁pinch	-4175
▁throwing	-4176
ites	-4177
▁pra	-4178
▁burned	-4179
▁faucet	-4180
▁mystery	-4181
▁ambulance	-4182
web	-4183
▁Or	-4184
▁gym	-4185
▁below	-4186
▁mistakes	-4187
ense	-4188
▁crow	-4189
▁herb	-4190
▁journ	-4191
▁improve	-4192
▁sailing	-4193
▁argue	-4194
Because	-4195
▁popped	-4196
▁happens	-4197
▁surround	-4198
te	-4199
ler	-4200
▁May	-4201
▁hol	-4202
▁sir	-4203
▁entered	-4204
▁hanging	-4205
▁holiday	-4206
▁bouncing	-4207
▁alligator	-4208
▁boot	-4209
▁quack	-4210
▁lawyer	-4211
▁relaxed	-4212
▁crawling	-4213
▁separate	-4214
bbie	-4215
rosc	-4216
▁har	-4217
▁poke	-4218
▁rake	-4219
▁miner	-4220
▁moves	-4221
▁steam	-4222
ssible	-4223
▁Snowy	-4224
▁anchor	-4225
▁cobweb	-4226
▁microsc	-4227
▁sprayed	-4228
▁investigate	-4229
'.	-4230
▁lawn	-4231
▁Freddy	-4232
▁folder	-4233
▁flapped	-4234
ab	-4235
▁sizes	-4236
▁yield	-4237
▁church	-4238
▁sticky	-4239
▁puddles	-4240
▁classroom	-4241
▁ig	-4242
chie	-4243
hero	-4244
▁itâ	-4245
place	-4246
▁flea	-4247
▁hopes	-4248
▁igloo	-4249
▁applaud	-4250
▁journal	-4251
▁sniffed	-4252
▁blankets	-4253
▁microscope	-4254
Max	-4255
case	-4256
anges	-4257
▁superhero	-4258
ggy	-4259
▁aut	-4260
▁veil	-4261
▁known	-4262
▁yogurt	-4263
▁ceiling	-4264
ero	-4265
▁Iâ	-4266
medi	-4267
ising	-4268
lasses	-4269
▁stable	-4270
▁prevent	-4271
mediately	-4272
▁collected	-4273
▁splashing	-4274
▁sunglasses	-4275
▁Buzz	-4276
▁firef	-4277
▁makeup	-4278
▁amazement	-4279
rm	-4280
imi	-4281
▁stro	-4282
elcome	-4283
▁spear	-4284
▁lemonade	-4285
▁magazine	-4286
ety	-4287
ito	-4288
was	-4289
washer	-4290
ium	-4291
Timmy	-4292
▁bury	-4293
▁wigg	-4294
▁wipe	-4295
vision	-4296
▁therm	-4297
▁mustache	-4298
▁dishwasher	-4299
▁Mimi	-4300
▁seas	-4301
▁suff	-4302
▁shrugged	-4303
atie	-4304
▁spade	-4305
▁swamp	-4306
oh	-4307
▁dear	-4308
▁Spike	-4309
▁agree	-4310
▁refre	-4311
▁serve	-4312
▁caring	-4313
▁choice	-4314
▁throws	-4315
▁squirrels	-4316
▁thermomet	-4317
fortunately	-4318
sit	-4319
▁Co	-4320
drobe	-4321
▁cared	-4322
▁rooms	-4323
▁greedy	-4324
▁wardrobe	-4325
▁aeroplane	-4326
▁television	-4327
aces	-4328
ents	-4329
▁God	-4330
right	-4331
▁Miss	-4332
▁stud	-4333
▁attach	-4334
▁quietly	-4335
hic	-4336
▁Sad	-4337
▁requ	-4338
▁appro	-4339
▁fought	-4340
▁crossed	-4341
▁freezer	-4342
▁surprises	-4343
ups	-4344
▁file	-4345
▁thumb	-4346
▁vehic	-4347
▁whisper	-4348
▁complain	-4349
▁thermometer	-4350
mm	-4351
nger	-4352
▁junk	-4353
lier	-4354
▁fog	-4355
quito	-4356
▁squeezed	-4357
▁fireplace	-4358
tain	-4359
▁isn	-4360
▁raz	-4361
inked	-4362
▁Each	-4363
▁infant	-4364
mend	-4365
ores	-4366
▁pur	-4367
▁rail	-4368
▁cliff	-4369
▁poked	-4370
▁blackboard	-4371
▁mos	-4372
▁apart	-4373
▁weigh	-4374
▁bother	-4375
▁regret	-4376
▁beef	-4377
▁cell	-4378
▁wags	-4379
▁dresses	-4380
▁yoga	-4381
▁berry	-4382
▁insect	-4383
▁points	-4384
▁saving	-4385
▁Luck	-4386
▁pear	-4387
ommend	-4388
▁Penny	-4389
▁helper	-4390
▁safety	-4391
▁reaches	-4392
▁mosquito	-4393
aws	-4394
▁Me	-4395
asis	-4396
omob	-4397
ction	-4398
▁novel	-4399
▁cabinet	-4400
▁letting	-4401
▁request	-4402
▁recommend	-4403
▁scattered	-4404
▁experience	-4405
Wait	-4406
▁Joy	-4407
▁knob	-4408
Thanks	-4409
▁Steve	-4410
▁airpl	-4411
▁eaten	-4412
▁razor	-4413
▁waste	-4414
▁cherry	-4415
▁fallen	-4416
▁parent	-4417
▁tucked	-4418
▁automob	-4419
▁vac	-4420
adium	-4421
▁port	-4422
▁float	-4423
▁spots	-4424
▁stadium	-4425
ple	-4426
▁delay	-4427
▁oasis	-4428
▁trusted	-4429
▁wandered	-4430
▁mint	-4431
▁skills	-4432
▁blinked	-4433
▁castles	-4434
▁tug	-4435
raged	-4436
▁leak	-4437
▁Milly	-4438
▁drain	-4439
▁steak	-4440
▁laught	-4441
▁waffle	-4442
▁Luckily	-4443
▁fastest	-4444
▁follows	-4445
nam	-4446
amber	-4447
▁Help	-4448
▁prop	-4449
▁crash	-4450
▁dried	-4451
▁incre	-4452
▁easily	-4453
▁shrink	-4454
▁mailman	-4455
▁sparkle	-4456
▁bookcase	-4457
ival	-4458
ring	-4459
▁pit	-4460
▁item	-4461
▁rise	-4462
▁laughter	-4463
▁understanding	-4464
icing	-4465
▁muffin	-4466
▁teleph	-4467
▁earlier	-4468
▁reverse	-4469
▁sparkling	-4470
ives	-4471
ucture	-4472
▁praised	-4473
▁following	-4474
▁structure	-4475
Did	-4476
bor	-4477
oral	-4478
▁conf	-4479
▁palm	-4480
▁snap	-4481
▁squeeze	-4482
▁telephone	-4483
▁Who	-4484
▁unif	-4485
▁beans	-4486
▁kneel	-4487
▁ornam	-4488
▁pride	-4489
▁demand	-4490
▁strawberries	-4491
▁hills	-4492
▁beamed	-4493
▁supply	-4494
▁prepare	-4495
▁vanished	-4496
ls	-4497
omes	-4498
▁Liz	-4499
▁temple	-4500
▁apron	-4501
▁daisy	-4502
▁kisses	-4503
▁lumber	-4504
▁plates	-4505
▁bravely	-4506
▁musician	-4507
▁disappear	-4508
anna	-4509
▁flutter	-4510
▁moments	-4511
vet	-4512
▁oak	-4513
▁fest	-4514
▁hurting	-4515
▁uniform	-4516
▁spending	-4517
lend	-4518
▁instr	-4519
▁ticket	-4520
▁growled	-4521
€.	-4522
aped	-4523
▁jazz	-4524
▁chairs	-4525
▁harbor	-4526
▁remove	-4527
uch	-4528
osed	-4529
▁dire	-4530
▁jewelry	-4531
▁exercise	-4532
▁automobile	-4533
▁Luna	-4534
▁weap	-4535
lendar	-4536
▁model	-4537
▁yucky	-4538
▁yawned	-4539
▁keeping	-4540
▁calendar	-4541
▁shooting	-4542
▁Its	-4543
▁toes	-4544
▁destination	-4545
nce	-4546
ived	-4547
igail	-4548
xture	-4549
▁enter	-4550
▁signs	-4551
▁hardly	-4552
▁chamber	-4553
▁scooped	-4554
ib	-4555
▁simp	-4556
▁balan	-4557
▁buried	-4558
▁oranges	-4559
▁rabbits	-4560
▁immediately	-4561
sters	-4562
▁digg	-4563
▁alarm	-4564
▁panic	-4565
▁ignore	-4566
▁ribbon	-4567
▁candles	-4568
omeday	-4569
▁admir	-4570
▁calls	-4571
▁taller	-4572
▁warmth	-4573
▁digging	-4574
▁Chirp	-4575
▁video	-4576
▁Abigail	-4577
▁examine	-4578
▁floated	-4579
▁trade	-4580
▁myself	-4581
▁cuddled	-4582
▁measured	-4583
Sam	-4584
nies	-4585
▁ideas	-4586
▁includ	-4587
▁poison	-4588
▁Everyday	-4589
▁insisted	-4590
▁tut	-4591
▁patiently	-4592
▁raise	-4593
▁captain	-4594
▁matches	-4595
▁fuel	-4596
▁wine	-4597
▁bleed	-4598
▁remain	-4599
▁someday	-4600
▁vacation	-4601
▁blueberries	-4602
cakes	-4603
▁tong	-4604
iction	-4605
▁ringing	-4606
alley	-4607
▁coal	-4608
▁melted	-4609
▁puzzles	-4610
▁settled	-4611
ictionary	-4612
▁floating	-4613
And	-4614
ampoo	-4615
istol	-4616
▁shed	-4617
▁achie	-4618
▁vroom	-4619
▁worms	-4620
▁bumped	-4621
▁hearts	-4622
▁pistol	-4623
▁festival	-4624
▁ga	-4625
▁equ	-4626
▁sigh	-4627
▁burning	-4628
▁collecting	-4629
bey	-4630
Sara	-4631
osity	-4632
▁claws	-4633
▁crunch	-4634
▁paused	-4635
▁planes	-4636
▁dictionary	-4637
ah	-4638
▁Is	-4639
inky	-4640
▁res	-4641
▁hers	-4642
▁pages	-4643
▁plays	-4644
▁invite	-4645
▁lotion	-4646
▁missile	-4647
▁snapped	-4648
ission	-4649
▁licks	-4650
▁perfor	-4651
▁destroyed	-4652
▁permission	-4653
Is	-4654
▁beg	-4655
▁row	-4656
▁tore	-4657
▁valley	-4658
▁setting	-4659
▁supposed	-4660
▁sty	-4661
▁mall	-4662
ishing	-4663
▁battery	-4664
▁shampoo	-4665
▁upstairs	-4666
▁appreciate	-4667
nfortunately	-4668
emy	-4669
▁shot	-4670
▁whip	-4671
▁restore	-4672
antly	-4673
▁score	-4674
▁People	-4675
▁alright	-4676
▁airplane	-4677
▁thrilled	-4678
riger	-4679
▁none	-4680
▁mention	-4681
rigerator	-4682
▁refrigerator	-4683
fy	-4684
ops	-4685
TMre	-4686
Yuck	-4687
▁sub	-4688
▁mass	-4689
▁elephants	-4690
▁encouraged	-4691
These	-4692
▁invit	-4693
▁ranch	-4694
▁climbs	-4695
▁manage	-4696
▁vehicle	-4697
▁washing	-4698
▁Have	-4699
▁perfu	-4700
▁tornado	-4701
TMll	-4702
ging	-4703
iers	-4704
▁Nut	-4705
▁sew	-4706
▁hits	-4707
Welcome	-4708
▁begged	-4709
▁deeper	-4710
▁gust	-4711
▁quiz	-4712
▁Poppy	-4713
▁coats	-4714
▁parts	-4715
▁jewels	-4716
▁buzzing	-4717
▁approached	-4718
œNo	-4719
uture	-4720
▁dare	-4721
▁hesit	-4722
▁homes	-4723
emember	-4724
▁bricks	-4725
▁perfume	-4726
▁unite	-4727
▁future	-4728
▁stomach	-4729
▁whistling	-4730
▁sandcastle	-4731
▁Good	-4732
▁bang	-4733
▁lily	-4734
▁olive	-4735
▁provide	-4736
▁pulling	-4737
▁Anne	-4738
▁tide	-4739
▁gifts	-4740
▁sport	-4741
▁weeks	-4742
▁chores	-4743
▁sneeze	-4744
▁scratch	-4745
▁received	-4746
▁sparkles	-4747
▁Ad	-4748
▁Car	-4749
▁cub	-4750
izard	-4751
▁fasc	-4752
▁lick	-4753
▁label	-4754
▁warning	-4755
▁chirping	-4756
▁teaching	-4757
▁Fo	-4758
▁eff	-4759
▁brain	-4760
▁tutor	-4761
▁Chirpy	-4762
▁soldiers	-4763
sity	-4764
ities	-4765
umble	-4766
▁Beth	-4767
▁oper	-4768
uggage	-4769
▁pastel	-4770
▁tongue	-4771
▁blueberry	-4772
▁bathe	-4773
▁discuss	-4774
▁luggage	-4775
act	-4776
nie	-4777
▁Je	-4778
▁sits	-4779
▁comfy	-4780
▁stitch	-4781
▁believed	-4782
▁patterns	-4783
rise	-4784
▁bak	-4785
▁bill	-4786
▁gain	-4787
▁Frank	-4788
▁blouse	-4789
▁punish	-4790
▁bookshe	-4791
eady	-4792
▁Mat	-4793
▁awe	-4794
▁girls	-4795
▁solved	-4796
▁sausage	-4797
▁twisted	-4798
▁remained	-4799
▁difference	-4800
▁guy	-4801
▁laid	-4802
▁bites	-4803
▁nation	-4804
▁grinned	-4805
▁struggling	-4806
▁breathe	-4807
▁grocery	-4808
ari	-4809
asp	-4810
bers	-4811
mother	-4812
œThatâ	-4813
▁fascin	-4814
▁drinking	-4815
▁buildings	-4816
▁measuring	-4817
▁Suzy	-4818
▁gear	-4819
▁wizard	-4820
▁crashed	-4821
▁attached	-4822
shing	-4823
▁curled	-4824
▁repeat	-4825
▁weapon	-4826
▁discovery	-4827
▁By	-4828
▁sings	-4829
▁soared	-4830
▁suffer	-4831
▁turning	-4832
▁fireworks	-4833
allen	-4834
▁clearing	-4835
▁sunlight	-4836
▁bookshelf	-4837
xy	-4838
▁actually	-4839
▁university	-4840
▁neighborhood	-4841
!",	-4842
Not	-4843
▁An	-4844
▁Jam	-4845
▁rush	-4846
▁meowed	-4847
▁racing	-4848
▁challen	-4849
▁sunrise	-4850
▁refreshed	-4851
!'	-4852
eed	-4853
indy	-4854
oved	-4855
▁grey	-4856
▁Nutty	-4857
▁tease	-4858
▁prayed	-4859
▁replace	-4860
▁decision	-4861
▁collection	-4862
Ok	-4863
ude	-4864
œIâ	-4865
fied	-4866
▁sip	-4867
▁chir	-4868
▁oats	-4869
▁glowed	-4870
▁crunchy	-4871
▁wherever	-4872
ha	-4873
bbled	-4874
▁root	-4875
ipment	-4876
▁raised	-4877
▁chirped	-4878
▁observe	-4879
Mmm	-4880
▁Cat	-4881
▁glo	-4882
▁warn	-4883
▁brick	-4884
▁effort	-4885
▁watches	-4886
▁equipment	-4887
▁decorations	-4888
▁heat	-4889
▁grape	-4890
▁twigs	-4891
▁hurric	-4892
▁earthqu	-4893
▁agreement	-4894
cles	-4895
spap	-4896
▁wre	-4897
▁jail	-4898
▁pigs	-4899
▁sore	-4900
▁urge	-4901
▁doggy	-4902
▁price	-4903
▁strang	-4904
▁jogging	-4905
▁firefight	-4906
▁invitation	-4907
amb	-4908
▁scur	-4909
▁blood	-4910
▁cakes	-4911
▁appear	-4912
▁during	-4913
▁newspap	-4914
▁ordered	-4915
▁receive	-4916
▁skipping	-4917
▁Chl	-4918
▁Pip	-4919
▁bes	-4920
▁rhy	-4921
▁vel	-4922
▁lect	-4923
▁peered	-4924
▁simple	-4925
▁mineral	-4926
▁whistled	-4927
▁hurricane	-4928
len	-4929
walk	-4930
▁pupil	-4931
▁velvet	-4932
▁escaped	-4933
▁peanuts	-4934
Ouch	-4935
▁remem	-4936
▁worse	-4937
▁fixing	-4938
▁memory	-4939
▁lecture	-4940
▁massage	-4941
▁sliding	-4942
anny	-4943
▁Coco	-4944
▁spit	-4945
▁Chloe	-4946
▁lands	-4947
▁rested	-4948
▁contain	-4949
▁watered	-4950
▁possible	-4951
▁revealed	-4952
▁operation	-4953
▁remembers	-4954
cage	-4955
▁wid	-4956
▁navy	-4957
▁poppy	-4958
▁easier	-4959
▁birdcage	-4960
▁marching	-4961
▁strangers	-4962
",	-4963
son	-4964
thm	-4965
▁Ol	-4966
▁fed	-4967
▁emer	-4968
▁obey	-4969
▁event	-4970
▁snail	-4971
▁tremb	-4972
▁chewed	-4973
▁safari	-4974
▁company	-4975
▁fashion	-4976
▁planted	-4977
▁cartoons	-4978
▁continue	-4979
▁sprinkles	-4980
▁slip	-4981
▁works	-4982
▁paints	-4983
▁spaces	-4984
▁weight	-4985
▁marbles	-4986
seek	-4987
▁Fro	-4988
oming	-4989
aspoon	-4990
▁flood	-4991
▁beside	-4992
▁zipped	-4993
▁sidewalk	-4994
▁teaspoon	-4995
▁toe	-4996
allow	-4997
▁Adam	-4998
▁ours	-4999
▁rust	-5000
▁satis	-5001
▁villag	-5002
▁respons	-5003
▁problems	-5004
▁recognized	-5005
▁surrounded	-5006
cc	-5007
▁Not	-5008
htray	-5009
▁Josh	-5010
▁pitch	-5011
▁mouths	-5012
▁ashtray	-5013
▁onwards	-5014
▁mountains	-5015
enty	-5016
▁Betsy	-5017
▁Cindy	-5018
▁Moral	-5019
▁strip	-5020
▁selling	-5021
▁hate	-5022
▁padd	-5023
▁officer	-5024
▁perched	-5025
▁bringing	-5026
▁prepared	-5027
▁earthquake	-5028
zag	-5029
▁zero	-5030
▁crept	-5031
▁spill	-5032
▁keeper	-5033
▁tracks	-5034
▁wisdom	-5035
uing	-5036
▁beat	-5037
▁rhythm	-5038
▁answers	-5039
▁bathrobe	-5040
▁catching	-5041
▁happiest	-5042
▁scratched	-5043
▁practicing	-5044
▁neighbourhood	-5045
▁Big	-5046
▁items	-5047
▁style	-5048
▁rained	-5049
▁settle	-5050
▁wanting	-5051
do	-5052
nday	-5053
▁lic	-5054
▁six	-5055
▁bowed	-5056
▁Sunday	-5057
▁circus	-5058
▁mister	-5059
▁mitten	-5060
▁admiring	-5061
▁monsters	-5062
▁disagreed	-5063
aded	-5064
▁Sadly	-5065
▁buckle	-5066
▁hanger	-5067
▁kindly	-5068
▁Chr	-5069
▁Sure	-5070
▁activ	-5071
▁folded	-5072
▁newspaper	-5073
▁villagers	-5074
Ha	-5075
ases	-5076
cious	-5077
eally	-5078
▁Julie	-5079
▁Lucky	-5080
▁knelt	-5081
▁slice	-5082
▁socks	-5083
▁swims	-5084
▁gotten	-5085
▁Someone	-5086
▁dinosaurs	-5087
ided	-5088
▁zig	-5089
▁beds	-5090
▁seats	-5091
▁weren	-5092
▁brings	-5093
▁reminder	-5094
▁apologize	-5095
Would	-5096
▁billboard	-5097
▁hated	-5098
anta	-5099
▁cal	-5100
▁meow	-5101
▁rang	-5102
▁muddy	-5103
▁license	-5104
▁pinched	-5105
Sp	-5106
atch	-5107
hest	-5108
▁For	-5109
▁flav	-5110
▁menu	-5111
▁brand	-5112
▁argued	-5113
▁lemons	-5114
▁secrets	-5115
▁sneezed	-5116
œWe	-5117
llie	-5118
▁bun	-5119
neath	-5120
▁bene	-5121
▁lung	-5122
▁visiting	-5123
▁lets	-5124
terday	-5125
▁rides	-5126
▁waits	-5127
▁comple	-5128
▁permit	-5129
▁cutting	-5130
▁firemen	-5131
▁soaring	-5132
▁trapped	-5133
▁zooming	-5134
▁tomatoes	-5135
Will	-5136
ncle	-5137
▁bare	-5138
œThank	-5139
▁sting	-5140
▁drinks	-5141
▁beneath	-5142
▁everyday	-5143
kins	-5144
▁Jan	-5145
▁Letâ	-5146
▁flap	-5147
▁pupp	-5148
▁Santa	-5149
looking	-5150
▁anytime	-5151
▁examined	-5152
▁shopping	-5153
▁fascinated	-5154
▁grandmother	-5155
Yum	-5156
izing	-5157
riage	-5158
▁famil	-5159
▁talent	-5160
▁hurried	-5161
▁waffles	-5162
▁bleeding	-5163
To	-5164
rs	-5165
▁x	-5166
ides	-5167
▁Jamie	-5168
▁subway	-5169
▁struggled	-5170
mble	-5171
annah	-5172
▁guns	-5173
▁Hoppy	-5174
▁Sunny	-5175
▁petted	-5176
▁served	-5177
▁Sharing	-5178
▁bunnies	-5179
▁guessed	-5180
▁spiders	-5181
▁introduc	-5182
▁stealing	-5183
▁bones	-5184
▁creation	-5185
▁comforted	-5186
▁Gr	-5187
etch	-5188
▁Mil	-5189
joyed	-5190
▁area	-5191
▁exact	-5192
▁spoons	-5193
▁printer	-5194
▁sadness	-5195
▁curiosity	-5196
▁overjoyed	-5197
▁succeeded	-5198
▁pedal	-5199
▁prune	-5200
▁copper	-5201
▁glitter	-5202
▁costumes	-5203
▁precious	-5204
▁whatever	-5205
▁Itâ	-5206
isten	-5207
▁begin	-5208
▁screams	-5209
▁spaceship	-5210
rin	-5211
xygen	-5212
▁pets	-5213
▁tune	-5214
▁scoop	-5215
▁acorns	-5216
▁ornament	-5217
▁downstairs	-5218
▁tip	-5219
▁brid	-5220
▁wond	-5221
▁pillows	-5222
▁tremble	-5223
▁twirling	-5224
▁Mad	-5225
tiest	-5226
▁eagle	-5227
▁pears	-5228
▁wreck	-5229
▁Hannah	-5230
▁leather	-5231
▁prettiest	-5232
Sh	-5233
uke	-5234
tory	-5235
laire	-5236
▁lips	-5237
▁lines	-5238
▁waist	-5239
▁parked	-5240
▁history	-5241
▁Nina	-5242
▁Tiny	-5243
▁drift	-5244
▁freeze	-5245
▁ripped	-5246
▁Am	-5247
▁Out	-5248
▁wooden	-5249
▁brushed	-5250
▁realize	-5251
▁travell	-5252
▁recognize	-5253
▁underneath	-5254
ffic	-5255
œDon	-5256
▁peel	-5257
▁situ	-5258
▁Tilly	-5259
▁image	-5260
▁vowed	-5261
▁gained	-5262
▁tugged	-5263
▁Bubbles	-5264
▁traffic	-5265
▁pancakes	-5266
▁Ollie	-5267
▁Claire	-5268
▁oxygen	-5269
▁bridges	-5270
▁weighed	-5271
▁universe	-5272
▁encourage	-5273
▁underground	-5274
ears	-5275
mare	-5276
▁pearl	-5277
▁studied	-5278
▁yelling	-5279
▁instruct	-5280
▁potatoes	-5281
▁decorated	-5282
▁Afterwards	-5283
▁owned	-5284
▁writes	-5285
▁decides	-5286
ales	-5287
▁chef	-5288
▁accom	-5289
▁piles	-5290
▁zigzag	-5291
▁exactly	-5292
▁Something	-5293
▁died	-5294
▁outdo	-5295
▁gloves	-5296
▁rocked	-5297
▁contest	-5298
▁mission	-5299
▁unlocked	-5300
▁nightmare	-5301
ding	-5302
▁ago	-5303
▁Jeff	-5304
▁caut	-5305
▁barely	-5306
▁contro	-5307
▁jogged	-5308
▁olives	-5309
▁Yes	-5310
▁bend	-5311
▁mice	-5312
▁Spark	-5313
▁keeps	-5314
▁bloomed	-5315
ien	-5316
gers	-5317
▁Jon	-5318
▁Jenna	-5319
▁texture	-5320
▁snowball	-5321
▁gathering	-5322
▁protected	-5323
She	-5324
ica	-5325
œLook	-5326
▁dent	-5327
▁horns	-5328
▁cuddle	-5329
▁accompl	-5330
▁shadows	-5331
▁tickets	-5332
▁touching	-5333
▁accidents	-5334
▁shoulders	-5335
Joh	-5336
die	-5337
▁Dav	-5338
▁pies	-5339
▁tour	-5340
▁vent	-5341
▁Susan	-5342
▁landsc	-5343
▁loving	-5344
▁powers	-5345
▁struck	-5346
▁tastes	-5347
▁voices	-5348
▁muscles	-5349
▁wonders	-5350
▁properly	-5351
▁completed	-5352
▁mentioned	-5353
aster	-5354
▁exit	-5355
▁inch	-5356
▁These	-5357
▁ranger	-5358
▁sights	-5359
▁bottles	-5360
▁mittens	-5361
▁slapped	-5362
ays	-5363
▁beha	-5364
▁nicer	-5365
▁solut	-5366
▁doctors	-5367
▁markers	-5368
▁stripes	-5369
rr	-5370
over	-5371
œCan	-5372
▁bye	-5373
▁dam	-5374
icorn	-5375
▁Carl	-5376
▁winner	-5377
▁unicorn	-5378
▁introduced	-5379
▁instructions	-5380
ley	-5381
ora	-5382
ashed	-5383
ledge	-5384
▁Nick	-5385
▁bank	-5386
▁honk	-5387
▁rele	-5388
▁suitc	-5389
▁included	-5390
▁supplies	-5391
▁challenge	-5392
▁wondering	-5393
imy	-5394
zie	-5395
▁ruin	-5396
▁soak	-5397
▁cones	-5398
▁crumb	-5399
▁eight	-5400
uctantly	-5401
▁printed	-5402
▁disturbed	-5403
▁introduce	-5404
▁knowledge	-5405
▁landscape	-5406
▁satisfied	-5407
ux	-5408
uxu	-5409
▁Gre	-5410
▁Slow	-5411
▁vict	-5412
though	-5413
▁Lizzy	-5414
▁buckets	-5415
▁tonight	-5416
▁breaking	-5417
▁neighbors	-5418
Or	-5419
▁Bir	-5420
▁ann	-5421
▁bouncy	-5422
▁planned	-5423
▁sisters	-5424
▁winning	-5425
▁outdoors	-5426
▁stirring	-5427
lee	-5428
oed	-5429
cers	-5430
▁luxu	-5431
▁west	-5432
▁loaded	-5433
▁silence	-5434
▁wagging	-5435
▁expected	-5436
One	-5437
avi	-5438
uly	-5439
▁Did	-5440
Daddy	-5441
▁beard	-5442
▁loose	-5443
▁pastels	-5444
▁scurried	-5445
œThis	-5446
▁eats	-5447
▁letâ	-5448
▁David	-5449
▁sides	-5450
▁dragged	-5451
▁peaches	-5452
▁pouring	-5453
▁teasing	-5454
omas	-5455
ateri	-5456
thank	-5457
▁keys	-5458
uesday	-5459
▁Betty	-5460
▁budge	-5461
▁steel	-5462
▁materi	-5463
▁control	-5464
▁machines	-5465
▁twinkling	-5466
va	-5467
▁ladyb	-5468
▁nails	-5469
▁stole	-5470
▁Slowly	-5471
▁burrow	-5472
▁prints	-5473
▁Tuesday	-5474
▁roaring	-5475
▁stretching	-5476
▁competition	-5477
▁reluctantly	-5478
bies	-5479
bric	-5480
▁ruler	-5481
▁urged	-5482
▁fabric	-5483
▁purred	-5484
▁pockets	-5485
▁increase	-5486
▁marriage	-5487
▁sausages	-5488
▁discovering	-5489
.'	-5490
bbing	-5491
ishes	-5492
▁Like	-5493
▁Always	-5494
▁Floppy	-5495
▁Thomas	-5496
▁babies	-5497
▁mixing	-5498
▁figured	-5499
▁strings	-5500
▁rainbows	-5501
▁shivered	-5502
▁spraying	-5503
▁responsible	-5504
iggy	-5505
zing	-5506
▁web	-5507
▁lied	-5508
▁claps	-5509
▁brushes	-5510
▁sorting	-5511
▁crackers	-5512
bert	-5513
▁Hop	-5514
▁Milo	-5515
▁chat	-5516
▁foods	-5517
▁entire	-5518
▁stamps	-5519
▁muffins	-5520
▁planets	-5521
▁rubbing	-5522
▁sneaked	-5523
▁east	-5524
lowers	-5525
▁Suzie	-5526
▁acted	-5527
▁grant	-5528
▁stare	-5529
▁youth	-5530
▁punished	-5531
zen	-5532
▁si	-5533
ults	-5534
▁Els	-5535
▁bunch	-5536
▁tickle	-5537
▁pebbles	-5538
▁surface	-5539
▁confident	-5540
Mia	-5541
Spot	-5542
▁wed	-5543
œDonâ	-5544
œHello	-5545
▁allow	-5546
▁click	-5547
▁Jessie	-5548
▁dentist	-5549
▁emergen	-5550
▁written	-5551
▁matching	-5552
▁pastries	-5553
John	-5554
ayla	-5555
rance	-5556
▁crowd	-5557
▁steep	-5558
▁truly	-5559
▁prunes	-5560
▁storekeeper	-5561
ulu	-5562
▁Both	-5563
▁Jacky	-5564
▁dusty	-5565
▁shock	-5566
▁movies	-5567
▁relief	-5568
▁season	-5569
▁singer	-5570
▁sorted	-5571
▁passing	-5572
▁giggling	-5573
▁interest	-5574
▁released	-5575
▁applauded	-5576
▁Y	-5577
▁Fu	-5578
ivery	-5579
▁fart	-5580
▁broom	-5581
▁soaked	-5582
▁Johnson	-5583
▁frosting	-5584
▁penguins	-5585
▁paintings	-5586
▁policeman	-5587
▁situation	-5588
fit	-5589
nes	-5590
alph	-5591
izzie	-5592
▁Pipp	-5593
▁Stop	-5594
▁guest	-5595
▁marker	-5596
▁cautious	-5597
▁cheering	-5598
Ex	-5599
ira	-5600
irm	-5601
▁Lulu	-5602
▁draws	-5603
▁forgi	-5604
▁stair	-5605
Goodbye	-5606
▁frozen	-5607
▁kicking	-5608
▁project	-5609
▁direction	-5610
ason	-5611
▁Wed	-5612
Mummy	-5613
▁opin	-5614
nesday	-5615
▁Lizzie	-5616
▁plenty	-5617
▁result	-5618
▁theirs	-5619
▁hugging	-5620
▁becoming	-5621
▁solution	-5622
▁screaming	-5623
▁trembling	-5624
▁countryside	-5625
ik	-5626
exp	-5627
▁Momo	-5628
▁guys	-5629
▁deser	-5630
▁luxury	-5631
▁Wednesday	-5632
▁Mon	-5633
abbit	-5634
▁Matt	-5635
▁cash	-5636
▁lamb	-5637
▁spike	-5638
▁outfit	-5639
▁prayer	-5640
expected	-5641
▁achieve	-5642
▁staring	-5643
▁creating	-5644
▁delivery	-5645
ody	-5646
œOh	-5647
œWhy	-5648
Happy	-5649
oline	-5650
▁Lind	-5651
▁canâ	-5652
▁greet	-5653
▁vanish	-5654
▁quacked	-5655
▁rocking	-5656
▁wedding	-5657
▁disagree	-5658
▁sweeties	-5659
▁completely	-5660
▁unexpected	-5661
go	-5662
...	-5663
Mama	-5664
▁sway	-5665
▁fault	-5666
▁fetch	-5667
▁gazed	-5668
▁goals	-5669
▁snugg	-5670
▁chases	-5671
▁expect	-5672
▁owners	-5673
▁towels	-5674
▁bravery	-5675
▁dragons	-5676
▁matched	-5677
▁demanded	-5678
▁balancing	-5679
▁ourselves	-5680
▁polishing	-5681
▁activities	-5682
Ye	-5683
▁Luke	-5684
▁scra	-5685
▁Julia	-5686
▁wound	-5687
▁healed	-5688
▁partic	-5689
▁poking	-5690
▁camping	-5691
▁entrance	-5692
▁goodnight	-5693
▁librarian	-5694
▁wandering	-5695
▁Ju	-5696
▁ti	-5697
hins	-5698
vers	-5699
▁Abby	-5700
▁Linda	-5701
▁freed	-5702
▁seesaw	-5703
▁polished	-5704
▁recorded	-5705
▁repeated	-5706
▁studying	-5707
▁suitcase	-5708
▁importance	-5709
iar	-5710
usted	-5711
▁boom	-5712
▁firm	-5713
▁Buzzy	-5714
▁Jones	-5715
▁slimy	-5716
▁patience	-5717
▁struggle	-5718
ern	-5719
jam	-5720
▁Ex	-5721
▁tim	-5722
▁Emmy	-5723
▁cent	-5724
▁pout	-5725
▁Happy	-5726
▁leader	-5727
▁chewing	-5728
▁kneeled	-5729
▁ladybug	-5730
▁emergency	-5731
eep	-5732
int	-5733
une	-5734
you	-5735
Somet	-5736
▁bead	-5737
▁baked	-5738
▁curly	-5739
▁siren	-5740
▁wasnâ	-5741
▁victory	-5742
▁ventured	-5743
▁firefighters	-5744
▁da	-5745
Yeah	-5746
roat	-5747
▁herbs	-5748
▁roads	-5749
▁drives	-5750
▁throat	-5751
▁shelves	-5752
▁worries	-5753
▁reaching	-5754
▁squealed	-5755
▁particular	-5756
hog	-5757
▁Nan	-5758
▁slap	-5759
▁single	-5760
▁sweets	-5761
▁united	-5762
▁highest	-5763
▁include	-5764
▁blooming	-5765
▁dolphins	-5766
▁somebody	-5767
Ah	-5768
acob	-5769
cuse	-5770
opes	-5771
itely	-5772
▁Bess	-5773
▁Maya	-5774
▁Tess	-5775
▁fara	-5776
▁scru	-5777
▁youâ	-5778
▁trips	-5779
▁flames	-5780
▁motion	-5781
▁patted	-5782
▁snakes	-5783
▁faraway	-5784
▁network	-5785
▁shivering	-5786
▁zookeeper	-5787
agull	-5788
esome	-5789
▁exha	-5790
▁rolls	-5791
▁usual	-5792
▁waiter	-5793
▁however	-5794
▁removed	-5795
▁curtains	-5796
irts	-5797
▁Aunt	-5798
▁cape	-5799
▁heel	-5800
▁shined	-5801
▁Jessica	-5802
▁coloured	-5803
▁homework	-5804
▁restored	-5805
Mum	-5806
vin	-5807
ords	-5808
▁ast	-5809
▁ripe	-5810
Excuse	-5811
▁Jacob	-5812
▁seems	-5813
▁Follow	-5814
▁paddle	-5815
▁peeking	-5816
▁release	-5817
▁weeping	-5818
▁sticking	-5819
▁sandcastles	-5820
hell	-5821
pite	-5822
▁Bye	-5823
▁Pam	-5824
▁comm	-5825
œMommy	-5826
▁itchy	-5827
▁arguing	-5828
▁paddled	-5829
▁seagull	-5830
▁startled	-5831
njoy	-5832
▁Jay	-5833
▁Larry	-5834
▁arrive	-5835
▁crumbs	-5836
▁desert	-5837
▁scales	-5838
▁awesome	-5839
▁cashier	-5840
▁rescued	-5841
▁exhausted	-5842
▁regretted	-5843
Al	-5844
aced	-5845
▁Two	-5846
angled	-5847
▁beads	-5848
▁roots	-5849
▁caused	-5850
▁farther	-5851
▁knights	-5852
▁observed	-5853
dies	-5854
ppers	-5855
▁Mira	-5856
▁glee	-5857
▁lined	-5858
▁buying	-5859
▁reveal	-5860
▁smiley	-5861
▁worker	-5862
▁Che	-5863
rious	-5864
▁Todd	-5865
▁cuts	-5866
▁Abbie	-5867
▁blink	-5868
▁crabs	-5869
▁adding	-5870
▁direct	-5871
▁photos	-5872
▁stolen	-5873
▁opening	-5874
▁ribbons	-5875
▁hedgehog	-5876
▁yesterday	-5877
When	-5878
coat	-5879
▁Lou	-5880
jamas	-5881
▁leap	-5882
▁bumpy	-5883
▁sighs	-5884
▁Christ	-5885
▁dancers	-5886
▁staying	-5887
▁wiggled	-5888
▁balanced	-5889
▁growling	-5890
▁raincoat	-5891
▁interested	-5892
▁organizing	-5893
aky	-5894
asm	-5895
▁Far	-5896
ently	-5897
▁wink	-5898
▁growl	-5899
▁threat	-5900
▁catches	-5901
umm	-5902
abel	-5903
ctar	-5904
uick	-5905
immer	-5906
▁Mick	-5907
▁flat	-5908
▁stem	-5909
œWhatâ	-5910
▁chips	-5911
▁faced	-5912
▁nectar	-5913
▁melting	-5914
▁resting	-5915
Gra	-5916
mas	-5917
▁El	-5918
▁Ma	-5919
▁Mel	-5920
▁aff	-5921
▁heav	-5922
▁Earth	-5923
▁dared	-5924
▁fuzzy	-5925
▁marks	-5926
▁swirl	-5927
▁learns	-5928
▁strike	-5929
▁hallway	-5930
▁usually	-5931
Sometimes	-5932
▁forehead	-5933
boy	-5934
indr	-5935
affes	-5936
ences	-5937
▁risk	-5938
▁snat	-5939
▁raindr	-5940
▁actions	-5941
▁swooped	-5942
▁teaches	-5943
▁traveled	-5944
▁groceries	-5945
▁celebration	-5946
quid	-5947
▁boo	-5948
▁wow	-5949
▁baker	-5950
▁belly	-5951
▁covers	-5952
▁liquid	-5953
▁valued	-5954
▁filling	-5955
▁magnets	-5956
▁giraffes	-5957
▁inviting	-5958
▁replaced	-5959
▁Christmas	-5960
▁Everybody	-5961
igi	-5962
▁ty	-5963
▁Many	-5964
▁cott	-5965
arling	-5966
▁Dolly	-5967
▁Leave	-5968
▁bumps	-5969
▁chuck	-5970
▁cough	-5971
▁tasks	-5972
▁rumble	-5973
▁winked	-5974
▁tallest	-5975
▁speaking	-5976
▁protecting	-5977
▁Pl	-5978
▁lap	-5979
▁opp	-5980
lings	-5981
▁Bird	-5982
▁Gigi	-5983
▁mane	-5984
▁artist	-5985
▁Without	-5986
▁cracked	-5987
▁pajamas	-5988
▁improved	-5989
▁Ow	-5990
aren	-5991
boat	-5992
obby	-5993
▁Put	-5994
▁gaze	-5995
▁awake	-5996
▁safer	-5997
▁Friend	-5998
▁misses	-5999
▁pencils	-6000
▁raindrops	-6001
▁princesses	-6002
eke	-6003
▁hi	-6004
ners	-6005
ddled	-6006
hello	-6007
▁pots	-6008
▁robb	-6009
▁uses	-6010
▁Doggy	-6011
▁cause	-6012
▁miles	-6013
▁fairies	-6014
▁tickled	-6015
▁families	-6016
Just	-6017
cope	-6018
hile	-6019
▁Ang	-6020
▁Ash	-6021
▁den	-6022
▁cans	-6023
▁reply	-6024
▁wires	-6025
▁bakery	-6026
▁cowboy	-6027
▁hissed	-6028
▁leading	-6029
▁workers	-6030
hee	-6031
▁Cu	-6032
Fine	-6033
bbly	-6034
▁unf	-6035
iding	-6036
obbie	-6037
▁piggy	-6038
▁roses	-6039
▁snuck	-6040
▁agrees	-6041
▁marked	-6042
▁stroll	-6043
▁wasted	-6044
▁listens	-6045
▁packing	-6046
▁squares	-6047
▁explorers	-6048
▁cautiously	-6049
▁determination	-6050
▁Exc	-6051
▁rubs	-6052
▁stern	-6053
▁wrist	-6054
▁Sophia	-6055
▁backed	-6056
▁dipped	-6057
▁secure	-6058
▁signed	-6059
▁sneaky	-6060
▁glasses	-6061
▁darkness	-6062
▁directions	-6063
▁Mo	-6064
▁Water	-6065
▁flags	-6066
▁pedals	-6067
▁bedtime	-6068
▁snatched	-6069
▁splashes	-6070
▁accomplish	-6071
fl	-6072
▁Po	-6073
▁rip	-6074
▁bars	-6075
▁Pinky	-6076
▁refle	-6077
▁seven	-6078
▁arrows	-6079
▁Excited	-6080
▁parties	-6081
▁pleasure	-6082
▁radishes	-6083
▁unpacked	-6084
▁everybody	-6085
▁recording	-6086
wk	-6087
?",	-6088
▁mes	-6089
▁Amel	-6090
▁Prin	-6091
▁conn	-6092
▁hawk	-6093
▁naps	-6094
▁twin	-6095
▁knees	-6096
▁creamy	-6097
▁dreamt	-6098
▁mesmer	-6099
▁sobbed	-6100
▁temper	-6101
▁widened	-6102
▁treehouse	-6103
Then	-6104
iles	-6105
▁chop	-6106
▁Being	-6107
▁pause	-6108
▁timer	-6109
▁colored	-6110
▁opinion	-6111
▁rockets	-6112
▁beginning	-6113
ths	-6114
igers	-6115
▁Jazz	-6116
▁aren	-6117
▁choo	-6118
▁cust	-6119
▁Binky	-6120
▁Enjoy	-6121
▁rusty	-6122
▁sense	-6123
▁behavi	-6124
▁closes	-6125
▁rivers	-6126
▁scarves	-6127
▁coloring	-6128
▁discussed	-6129
Bun	-6130
aty	-6131
eal	-6132
▁Squ	-6133
▁cous	-6134
▁impo	-6135
▁insp	-6136
itches	-6137
▁Along	-6138
▁Mabel	-6139
▁noses	-6140
▁wears	-6141
▁calmed	-6142
▁custom	-6143
▁tricky	-6144
▁twinkle	-6145
▁achieved	-6146
▁chuckled	-6147
▁delivered	-6148
▁fluttered	-6149
▁impossible	-6150
▁celebrating	-6151
zes	-6152
▁Sc	-6153
yond	-6154
▁Get	-6155
obert	-6156
▁noon	-6157
▁tipt	-6158
▁masks	-6159
▁reads	-6160
▁Amelia	-6161
▁Farmer	-6162
▁beyond	-6163
▁cheeks	-6164
▁darker	-6165
▁diving	-6166
▁losing	-6167
▁rising	-6168
▁darling	-6169
▁drifted	-6170
▁provided	-6171
▁sailboat	-6172
▁snowballs	-6173
jo	-6174
▁mi	-6175
band	-6176
reat	-6177
urry	-6178
▁def	-6179
ument	-6180
▁todd	-6181
▁blows	-6182
▁fever	-6183
▁horiz	-6184
▁stays	-6185
▁During	-6186
▁muscle	-6187
▁folding	-6188
▁objects	-6189
▁tricked	-6190
▁performan	-6191
▁travelled	-6192
vest	-6193
▁aud	-6194
ments	-6195
▁chip	-6196
▁Green	-6197
▁Mouse	-6198
▁drawn	-6199
▁steer	-6200
▁attack	-6201
▁joking	-6202
▁slices	-6203
▁horizon	-6204
▁jackets	-6205
▁mixture	-6206
▁wouldnâ	-6207
▁Although	-6208
▁experien	-6209
▁minerals	-6210
▁rewarded	-6211
▁neighbours	-6212
▁recommended	-6213
▁temperature	-6214
iki	-6215
▁Days	-6216
▁fact	-6217
▁refu	-6218
igning	-6219
▁Bluey	-6220
▁Olive	-6221
▁peppers	-6222
▁pretends	-6223
▁talented	-6224
▁hesitated	-6225
▁materials	-6226
?'	-6227
ans	-6228
ept	-6229
oey	-6230
oni	-6231
Jack	-6232
œWow	-6233
Tommy	-6234
ekend	-6235
▁Tara	-6236
▁slam	-6237
▁badge	-6238
▁froze	-6239
▁limes	-6240
▁swept	-6241
▁wipes	-6242
▁onions	-6243
▁remote	-6244
▁hitting	-6245
▁weekend	-6246
▁younger	-6247
▁ornaments	-6248
▁gracefully	-6249
ids	-6250
atul	-6251
▁sib	-6252
arter	-6253
isies	-6254
▁annoy	-6255
▁meals	-6256
▁yells	-6257
▁afford	-6258
▁indeed	-6259
▁Nothing	-6260
▁choices	-6261
▁daisies	-6262
▁helmets	-6263
▁smarter	-6264
▁Princess	-6265
▁scrubbed	-6266
▁lollipops	-6267
▁yourselves	-6268
no	-6269
boo	-6270
uack	-6271
▁Judy	-6272
▁copy	-6273
▁dots	-6274
▁Pandy	-6275
▁kites	-6276
▁lower	-6277
▁third	-6278
▁Bessie	-6279
▁grandp	-6280
▁pouted	-6281
▁gobbled	-6282
▁hearing	-6283
▁scaring	-6284
▁tangled	-6285
▁tractor	-6286
▁seashell	-6287
▁dollhouse	-6288
▁performance	-6289
eds	-6290
iel	-6291
oar	-6292
▁Spl	-6293
brush	-6294
ility	-6295
▁Fuzzy	-6296
▁bowls	-6297
▁tempt	-6298
▁knocks	-6299
▁needles	-6300
▁separated	-6301
rig	-6302
ados	-6303
opsy	-6304
▁Lau	-6305
icked	-6306
itted	-6307
▁bows	-6308
▁coup	-6309
▁deal	-6310
▁gems	-6311
▁logs	-6312
uggles	-6313
usband	-6314
▁Wally	-6315
▁kicks	-6316
▁reass	-6317
▁Sparky	-6318
▁grassy	-6319
▁health	-6320
▁videos	-6321
▁snowmen	-6322
▁willing	-6323
▁Snuggles	-6324
▁audience	-6325
▁avocados	-6326
▁handsome	-6327
▁backwards	-6328
▁grandpare	-6329
iece	-6330
ishy	-6331
▁ech	-6332
aired	-6333
arrow	-6334
▁nood	-6335
▁pans	-6336
▁Sorry	-6337
▁adult	-6338
▁burst	-6339
▁Thanks	-6340
▁couple	-6341
▁flavor	-6342
▁shirts	-6343
▁tigers	-6344
▁lighter	-6345
▁planning	-6346
▁repaired	-6347
▁shrinking	-6348
tle	-6349
▁Jax	-6350
▁Owl	-6351
▁arr	-6352
▁Mikey	-6353
▁drums	-6354
▁windy	-6355
▁wraps	-6356
umbling	-6357
▁paying	-6358
▁candies	-6359
▁husband	-6360
▁players	-6361
▁stomped	-6362
▁stroked	-6363
▁flapping	-6364
▁wrapping	-6365
▁requested	-6366
œDo	-6367
fall	-6368
iled	-6369
▁Cra	-6370
▁uns	-6371
▁Gina	-6372
▁Watch	-6373
▁feast	-6374
▁forks	-6375
▁rings	-6376
▁seeker	-6377
▁behaved	-6378
▁heading	-6379
▁leaning	-6380
▁tiptoed	-6381
▁hesitant	-6382
▁starfish	-6383
▁embarrass	-6384
▁including	-6385
▁forgetting	-6386
yan	-6387
▁Li	-6388
ades	-6389
weet	-6390
itched	-6391
▁ropes	-6392
▁recipe	-6393
▁source	-6394
▁wiggle	-6395
▁Goodbye	-6396
▁pumpkins	-6397
▁afterwards	-6398
▁fluttering	-6399
Bad	-6400
icky	-6401
ntil	-6402
ccoon	-6403
▁beam	-6404
ronaut	-6405
▁avoid	-6406
▁tails	-6407
▁beloved	-6408
▁granted	-6409
▁raccoon	-6410
▁toddler	-6411
▁astronaut	-6412
▁Since	-6413
▁among	-6414
▁hider	-6415
▁plans	-6416
▁salty	-6417
▁Flopsy	-6418
▁passen	-6419
▁pointy	-6420
▁teased	-6421
▁napkins	-6422
▁plucked	-6423
▁printing	-6424
▁warnings	-6425
▁creations	-6426
atur	-6427
bell	-6428
emma	-6429
endy	-6430
ongr	-6431
osen	-6432
sequ	-6433
tuce	-6434
inger	-6435
▁cond	-6436
▁mast	-6437
▁rule	-6438
▁worn	-6439
▁fears	-6440
▁gross	-6441
▁merry	-6442
▁Daniel	-6443
▁Granny	-6444
▁chosen	-6445
▁concer	-6446
▁snowfl	-6447
▁lettuce	-6448
▁puppies	-6449
▁seconds	-6450
▁snuggle	-6451
▁wishing	-6452
▁designed	-6453
▁grabbing	-6454
▁sprinkled	-6455
▁surroundings	-6456
Ew	-6457
Shh	-6458
▁Dr	-6459
ouch	-6460
▁mer	-6461
arshm	-6462
ivity	-6463
obody	-6464
œCome	-6465
▁Elly	-6466
▁Hoot	-6467
rigued	-6468
▁Maddy	-6469
▁Wendy	-6470
▁genie	-6471
▁least	-6472
▁lungs	-6473
▁spong	-6474
▁clowns	-6475
ongratul	-6476
▁consequ	-6477
▁deserve	-6478
▁handful	-6479
▁helpers	-6480
▁forgiven	-6481
▁siblings	-6482
arshmallow	-6483
aa	-6484
cus	-6485
ded	-6486
ena	-6487
aker	-6488
step	-6489
▁Sim	-6490
Those	-6491
▁June	-6492
▁center	-6493
▁growls	-6494
▁potion	-6495
▁screws	-6496
▁spices	-6497
▁dollars	-6498
▁neither	-6499
▁Squirrel	-6500
▁basement	-6501
▁blocking	-6502
▁borrowed	-6503
▁spoonful	-6504
▁swimsuit	-6505
▁imagining	-6506
▁peacefully	-6507
ido	-6508
Meow	-6509
aven	-6510
iley	-6511
weed	-6512
▁cor	-6513
œYouâ	-6514
▁Boun	-6515
▁flas	-6516
▁hour	-6517
▁wins	-6518
unched	-6519
▁Laura	-6520
▁stool	-6521
▁thorn	-6522
▁silent	-6523
▁express	-6524
▁complained	-6525
▁complaining	-6526
▁firefighter	-6527
Ch	-6528
ael	-6529
the	-6530
ably	-6531
▁det	-6532
▁die	-6533
▁san	-6534
ichael	-6535
▁stung	-6536
▁warri	-6537
▁buzzed	-6538
▁flight	-6539
▁Curious	-6540
▁greeted	-6541
▁zipping	-6542
▁spreading	-6543
▁creativity	-6544
▁consequences	-6545
yes	-6546
▁occ	-6547
itude	-6548
▁Joan	-6549
▁wonâ	-6550
ertain	-6551
▁Davey	-6552
▁bully	-6553
▁hides	-6554
▁paths	-6555
▁tramp	-6556
▁Mickey	-6557
▁Stella	-6558
▁Stitch	-6559
▁pecked	-6560
▁sponge	-6561
▁Michael	-6562
▁convers	-6563
▁seaweed	-6564
▁scratches	-6565
rip	-6566
œHi	-6567
Whee	-6568
▁Bee	-6569
▁cau	-6570
artha	-6571
retty	-6572
▁Gary	-6573
▁sale	-6574
▁Angel	-6575
▁chefs	-6576
▁Ginger	-6577
▁Martha	-6578
▁damage	-6579
▁honked	-6580
▁neatly	-6581
▁hopeful	-6582
▁noodles	-6583
▁resisted	-6584
▁mushrooms	-6585
▁trampoline	-6586
▁Im	-6587
▁age	-6588
▁Back	-6589
▁Fido	-6590
▁touc	-6591
▁twice	-6592
▁joyful	-6593
▁drawers	-6594
▁praying	-6595
▁dropping	-6596
▁decorating	-6597
▁delivering	-6598
▁accomplishment	-6599
Jo	-6600
uzz	-6601
œMy	-6602
Next	-6603
ongo	-6604
tier	-6605
Today	-6606
▁focu	-6607
▁gasp	-6608
▁Listen	-6609
▁dances	-6610
immering	-6611
▁healing	-6612
▁heavier	-6613
▁matters	-6614
▁yielded	-6615
▁prettier	-6616
▁sunflowers	-6617
Time	-6618
▁Sun	-6619
Great	-6620
iment	-6621
▁sank	-6622
shions	-6623
▁Bongo	-6624
▁Chris	-6625
▁flown	-6626
▁swall	-6627
▁wrink	-6628
▁bodies	-6629
▁cousin	-6630
▁baskets	-6631
▁respond	-6632
▁tunnels	-6633
▁encourag	-6634
▁respected	-6635
▁strongest	-6636
▁swallowed	-6637
▁superheroes	-6638
Have	-6639
llen	-6640
œNow	-6641
Yummy	-6642
years	-6643
▁Well	-6644
▁dads	-6645
▁Sadie	-6646
▁neare	-6647
▁roars	-6648
▁cuddly	-6649
▁master	-6650
▁unsure	-6651
▁corners	-6652
▁focused	-6653
▁insects	-6654
▁ruining	-6655
▁toaster	-6656
▁vanilla	-6657
▁breathed	-6658
▁intrigued	-6659
ky	-6660
anes	-6661
lves	-6662
▁Fox	-6663
aying	-6664
river	-6665
▁thud	-6666
anging	-6667
▁edges	-6668
▁races	-6669
▁shops	-6670
▁swords	-6671
▁Friends	-6672
▁stacked	-6673
▁cupcakes	-6674
▁familiar	-6675
▁curiously	-6676
▁increased	-6677
▁refreshing	-6678
▁ge	-6679
ueen	-6680
▁Jojo	-6681
▁crew	-6682
▁nine	-6683
▁sadd	-6684
▁Janey	-6685
▁stain	-6686
▁Pippin	-6687
▁daring	-6688
▁nearly	-6689
▁shaped	-6690
▁forgets	-6691
▁freedom	-6692
▁joining	-6693
▁sailors	-6694
▁scraped	-6695
▁crossing	-6696
▁grandparents	-6697
Boo	-6698
abby	-6699
oger	-6700
▁Ali	-6701
▁Meg	-6702
œWell	-6703
▁Lena	-6704
▁ache	-6705
▁rout	-6706
▁Elsie	-6707
▁Helen	-6708
▁blast	-6709
▁prove	-6710
▁Froggy	-6711
▁Nobody	-6712
▁adults	-6713
▁heroes	-6714
▁zebras	-6715
▁enthusi	-6716
▁presses	-6717
▁symbols	-6718
▁wobbled	-6719
▁gardener	-6720
▁rustling	-6721
▁examining	-6722
▁mesmerized	-6723
▁reflection	-6724
▁throughout	-6725
▁remembering	-6726
▁Pr	-6727
ippy	-6728
rian	-6729
▁Our	-6730
▁Smo	-6731
▁Elsa	-6732
▁Finn	-6733
▁Tuna	-6734
▁hops	-6735
▁poss	-6736
▁Birdy	-6737
▁geese	-6738
▁munch	-6739
▁sails	-6740
▁slips	-6741
▁teles	-6742
ientist	-6743
▁Splash	-6744
▁amount	-6745
▁proper	-6746
▁seller	-6747
▁softer	-6748
▁firefly	-6749
▁licking	-6750
▁squishy	-6751
▁magician	-6752
▁scientist	-6753
▁telescope	-6754
▁enthusiasm	-6755
cake	-6756
idey	-6757
▁Pau	-6758
roken	-6759
▁Frog	-6760
▁defe	-6761
▁nibb	-6762
▁peck	-6763
▁aimed	-6764
▁coral	-6765
▁plain	-6766
▁poems	-6767
▁scamp	-6768
▁shown	-6769
▁Spidey	-6770
▁action	-6771
▁onward	-6772
▁pupils	-6773
▁scored	-6774
▁tested	-6775
▁twisty	-6776
▁wiping	-6777
▁wobbly	-6778
▁certain	-6779
▁feeding	-6780
▁napping	-6781
▁results	-6782
▁waddled	-6783
▁promises	-6784
▁marshmallow	-6785
Le	-6786
vil	-6787
▁Abi	-6788
▁Win	-6789
▁coc	-6790
stick	-6791
▁Love	-6792
▁scen	-6793
▁Those	-6794
▁antic	-6795
▁defin	-6796
▁glued	-6797
▁wider	-6798
▁acting	-6799
▁colder	-6800
▁sports	-6801
▁chopped	-6802
▁dresser	-6803
▁touches	-6804
▁behaving	-6805
▁playroom	-6806
▁playtime	-6807
cl	-6808
Our	-6809
fia	-6810
Lila	-6811
athan	-6812
while	-6813
▁gest	-6814
▁trot	-6815
▁Honey	-6816
▁Jonny	-6817
▁Momma	-6818
▁Paula	-6819
▁baths	-6820
▁final	-6821
▁occas	-6822
▁talks	-6823
▁Mother	-6824
▁firmly	-6825
▁guests	-6826
▁humans	-6827
▁spikes	-6828
▁thrown	-6829
▁designs	-6830
▁rushing	-6831
▁warrior	-6832
▁Birthday	-6833
▁stitches	-6834
▁batteries	-6835
▁finishing	-6836
▁performed	-6837
▁surfboard	-6838
▁waterfall	-6839
▁passengers	-6840
▁encouraging	-6841
cky	-6842
oys	-6843
▁oh	-6844
Woof	-6845
choo	-6846
▁ais	-6847
ition	-6848
unity	-6849
▁Nora	-6850
▁Stay	-6851
▁tuck	-6852
▁Still	-6853
▁cubes	-6854
▁dived	-6855
▁poster	-6856
▁puppet	-6857
▁steady	-6858
▁streets	-6859
▁ignoring	-6860
▁smallest	-6861
▁suffered	-6862
▁triangles	-6863
▁definitely	-6864
▁appreciated	-6865
▁appreciation	-6866
sty	-6867
whe	-6868
fire	-6869
onse	-6870
sers	-6871
œMom	-6872
▁dip	-6873
▁Mean	-6874
▁ease	-6875
▁evil	-6876
▁fant	-6877
▁fits	-6878
▁reun	-6879
▁sled	-6880
▁wept	-6881
ection	-6882
▁Sofia	-6883
▁Thatâ	-6884
▁bells	-6885
▁lifts	-6886
▁notes	-6887
▁Pretty	-6888
▁braver	-6889
▁mailed	-6890
▁causing	-6891
▁cobwebs	-6892
▁slammed	-6893
▁arranged	-6894
▁crashing	-6895
▁cushions	-6896
▁explorer	-6897
▁response	-6898
▁trembled	-6899
▁congratul	-6900
▁fantastic	-6901
▁scampered	-6902
▁whispering	-6903
Lucy	-6904
iona	-6905
▁Des	-6906
▁bru	-6907
▁moo	-6908
utter	-6909
veral	-6910
▁Pippa	-6911
▁belts	-6912
▁confl	-6913
▁merma	-6914
▁fishes	-6915
▁reason	-6916
▁slower	-6917
▁wobble	-6918
▁Freddie	-6919
▁pigeons	-6920
▁several	-6921
▁surfing	-6922
▁reversed	-6923
▁sweetest	-6924
▁connected	-6925
▁punishment	-6926
▁travelling	-6927
▁marshmallows	-6928
hew	-6929
rie	-6930
▁sy	-6931
worm	-6932
▁dod	-6933
▁gap	-6934
▁inj	-6935
▁tar	-6936
ening	-6937
otten	-6938
ushed	-6939
▁Mart	-6940
▁mate	-6941
▁pens	-6942
▁puff	-6943
▁Fiona	-6944
▁Simon	-6945
▁Start	-6946
▁wrigg	-6947
Grandma	-6948
▁Maddie	-6949
▁cloudy	-6950
▁robber	-6951
▁screwd	-6952
▁stands	-6953
▁artwork	-6954
▁lifting	-6955
▁pennies	-6956
▁postman	-6957
▁behavior	-6958
▁overcome	-6959
▁stopping	-6960
▁twinkled	-6961
--	-6962
Fo	-6963
rey	-6964
▁Fe	-6965
▁Pu	-6966
Oops	-6967
arac	-6968
onna	-6969
▁aim	-6970
child	-6971
mered	-6972
▁Take	-6973
▁cosy	-6974
▁pays	-6975
broken	-6976
▁Brian	-6977
▁aside	-6978
▁explo	-6979
▁faded	-6980
▁offic	-6981
▁skunk	-6982
attered	-6983
▁charge	-6984
▁echoed	-6985
▁grandd	-6986
▁months	-6987
▁rotten	-6988
▁warmer	-6989
▁Despite	-6990
▁anticip	-6991
▁drivers	-6992
▁kittens	-6993
▁puzzled	-6994
▁sneezing	-6995
▁Yesterday	-6996
▁insisting	-6997
▁nervously	-6998
▁grandchild	-6999
▁performing	-7000
▁screwdriver	-7001
Like	-7002
▁Eva	-7003
▁nuzz	-7004
▁Megan	-7005
▁gonna	-7006
▁leapt	-7007
▁rains	-7008
▁rainy	-7009
▁thatâ	-7010
▁Ashley	-7011
▁toward	-7012
▁damaged	-7013
▁frowning	-7014
▁planting	-7015
▁necklaces	-7016
▁preparing	-7017
▁streamers	-7018
▁quarreling	-7019
▁beautifully	-7020
▁congratulated	-7021
rrr	-7022
▁Sl	-7023
bird	-7024
eedy	-7025
▁Any	-7026
▁Cle	-7027
▁awo	-7028
▁lent	-7029
▁Peggy	-7030
▁alien	-7031
▁leads	-7032
▁scram	-7033
▁snort	-7034
▁vines	-7035
▁whose	-7036
aracter	-7037
urprise	-7038
▁Seeing	-7039
▁Speedy	-7040
▁collap	-7041
▁laying	-7042
▁tables	-7043
▁tablet	-7044
▁target	-7045
▁tossed	-7046
▁bravest	-7047
▁forests	-7048
▁lessons	-7049
▁diamonds	-7050
▁Meanwhile	-7051
▁character	-7052
▁reassured	-7053
▁admiration	-7054
▁discussing	-7055
▁surrendered	-7056
▁anticipation	-7057
?!"	-7058
lph	-7059
str	-7060
cher	-7061
found	-7062
▁Izzy	-7063
▁Nana	-7064
▁Sque	-7065
▁earn	-7066
▁prob	-7067
ounced	-7068
▁flips	-7069
▁gears	-7070
▁risks	-7071
▁sewed	-7072
▁calmly	-7073
▁spells	-7074
▁squeak	-7075
▁address	-7076
▁flavors	-7077
▁loading	-7078
▁mermaid	-7079
▁sending	-7080
▁soaking	-7081
▁driveway	-7082
▁probably	-7083
▁students	-7084
acy	-7085
Some	-7086
munk	-7087
œBut	-7088
œThe	-7089
▁Stan	-7090
▁bits	-7091
Little	-7092
ooking	-7093
▁girlâ	-7094
▁swans	-7095
▁goodby	-7096
▁height	-7097
▁refuse	-7098
▁sparks	-7099
▁tapped	-7100
▁tidied	-7101
▁twenty	-7102
▁Frankie	-7103
▁annoyed	-7104
▁blocked	-7105
▁efforts	-7106
▁changing	-7107
▁reunited	-7108
▁twisting	-7109
▁watering	-7110
▁birdhouse	-7111
▁repeating	-7112
▁suggestion	-7113
▁heartbroken	-7114
▁conversation	-7115
sm	-7116
fus	-7117
ammy	-7118
meal	-7119
rect	-7120
▁elf	-7121
▁hen	-7122
manda	-7123
onies	-7124
ppies	-7125
Listen	-7126
illiam	-7127
▁Becky	-7128
▁Holly	-7129
▁Janie	-7130
▁flock	-7131
▁polar	-7132
▁spins	-7133
▁untie	-7134
▁Because	-7135
▁Outside	-7136
▁correct	-7137
▁oatmeal	-7138
▁campfire	-7139
▁goodbyes	-7140
▁panicked	-7141
▁permitted	-7142
▁surprising	-7143
▁experienced	-7144
oc	-7145
pit	-7146
upt	-7147
crow	-7148
lets	-7149
▁dot	-7150
▁nur	-7151
▁sou	-7152
acles	-7153
ading	-7154
inkle	-7155
uctor	-7156
▁shoo	-7157
▁woof	-7158
Follow	-7159
▁awoke	-7160
▁manag	-7161
▁shall	-7162
▁suits	-7163
▁wakes	-7164
▁Amanda	-7165
▁Bobbie	-7166
▁except	-7167
▁lasers	-7168
▁sniffs	-7169
▁burying	-7170
▁despite	-7171
▁handing	-7172
▁although	-7173
▁distract	-7174
▁thoughts	-7175
▁worrying	-7176
▁passports	-7177
▁scrambled	-7178
▁apologised	-7179
▁snowflakes	-7180
Sue	-7181
mies	-7182
ooky	-7183
reen	-7184
rier	-7185
œHey	-7186
▁jud	-7187
onnie	-7188
▁Fire	-7189
▁Snap	-7190
▁fins	-7191
▁Patty	-7192
▁conqu	-7193
▁oppos	-7194
▁pound	-7195
▁Oliver	-7196
▁battle	-7197
▁desper	-7198
▁ponies	-7199
▁Snowman	-7200
▁William	-7201
▁cleaner	-7202
▁gesture	-7203
▁masterp	-7204
▁prayers	-7205
▁travels	-7206
▁visitor	-7207
▁business	-7208
▁grandson	-7209
▁newfound	-7210
▁scooters	-7211
▁whispers	-7212
▁conductor	-7213
▁reminding	-7214
▁belongings	-7215
pr	-7216
rew	-7217
ugs	-7218
œOf	-7219
wise	-7220
▁Ava	-7221
elvet	-7222
œOkay	-7223
▁Ever	-7224
▁Only	-7225
▁pops	-7226
▁rays	-7227
▁sill	-7228
▁tiss	-7229
father	-7230
ighing	-7231
▁Barry	-7232
▁Maisy	-7233
▁craft	-7234
▁grows	-7235
▁loops	-7236
▁shady	-7237
▁trans	-7238
oration	-7239
▁Joanna	-7240
▁counts	-7241
▁scurry	-7242
▁spooky	-7243
▁wiggly	-7244
▁concert	-7245
▁cottage	-7246
▁delayed	-7247
▁emerged	-7248
▁humming	-7249
▁lending	-7250
▁oysters	-7251
▁covering	-7252
▁officers	-7253
▁politely	-7254
▁wrinkled	-7255
€,	-7256
Bob	-7257
oss	-7258
cent	-7259
▁Ber	-7260
antha	-7261
eling	-7262
mbers	-7263
steps	-7264
▁Doug	-7265
▁mood	-7266
▁type	-7267
isions	-7268
▁Marie	-7269
▁Tessa	-7270
▁pours	-7271
▁quilt	-7272
▁reapp	-7273
▁tweet	-7274
▁cotton	-7275
▁stroke	-7276
▁cuddles	-7277
▁members	-7278
▁poppies	-7279
▁tighter	-7280
▁Samantha	-7281
▁chipmunk	-7282
▁opposite	-7283
▁squeaked	-7284
▁believing	-7285
▁breathing	-7286
▁exercises	-7287
▁understands	-7288
▁accomplished	-7289
TMd	-7290
but	-7291
line	-7292
▁Ana	-7293
▁qui	-7294
Watch	-7295
dding	-7296
mates	-7297
orter	-7298
▁Aila	-7299
▁Alan	-7300
▁Hope	-7301
▁Gemma	-7302
▁fills	-7303
▁tying	-7304
▁weeds	-7305
▁Crabby	-7306
▁Taking	-7307
▁cheers	-7308
▁images	-7309
▁rather	-7310
▁sewing	-7311
▁shrunk	-7312
Surprise	-7313
▁luckily	-7314
▁quieter	-7315
▁rotting	-7316
▁conflict	-7317
▁guessing	-7318
▁inchworm	-7319
▁material	-7320
▁smelling	-7321
▁sniffing	-7322
▁Excitedly	-7323
▁forgiving	-7324
▁presented	-7325
▁responsib	-7326
▁seashells	-7327
▁generosity	-7328
lut	-7329
rup	-7330
▁Sk	-7331
▁Sw	-7332
..."	-7333
Mine	-7334
bage	-7335
vant	-7336
what	-7337
▁Lia	-7338
▁Man	-7339
▁swo	-7340
▁und	-7341
▁yel	-7342
azing	-7343
dress	-7344
ggies	-7345
▁Jean	-7346
▁purr	-7347
▁ramp	-7348
bbling	-7349
idence	-7350
œWhere	-7351
▁anger	-7352
▁force	-7353
▁posit	-7354
▁syrup	-7355
▁Frosty	-7356
▁Louise	-7357
▁Shelly	-7358
▁otters	-7359
▁warmly	-7360
▁wisely	-7361
▁beating	-7362
▁cleared	-7363
▁garbage	-7364
▁honking	-7365
▁nearest	-7366
▁nuzzled	-7367
▁slither	-7368
▁stumble	-7369
▁swollen	-7370
▁trotted	-7371
▁veggies	-7372
▁bandages	-7373
▁duckling	-7374
▁decisions	-7375
▁footsteps	-7376
▁hairdress	-7377
▁increasing	-7378
▁discoveries	-7379
▁grandfather	-7380
ppa	-7381
œIf	-7382
ider	-7383
▁Dog	-7384
▁Luc	-7385
▁Ally	-7386
▁Peep	-7387
▁flip	-7388
▁self	-7389
▁spat	-7390
▁surv	-7391
▁ties	-7392
▁Libby	-7393
▁marve	-7394
▁squir	-7395
▁stomp	-7396
ighting	-7397
▁biting	-7398
▁convin	-7399
▁heaven	-7400
▁magnif	-7401
▁spills	-7402
▁thorns	-7403
▁tipped	-7404
▁within	-7405
▁yelped	-7406
▁doorway	-7407
▁figures	-7408
▁goodies	-7409
▁manners	-7410
▁pedaled	-7411
▁pleaded	-7412
▁treated	-7413
▁wasting	-7414
▁Caroline	-7415
▁activity	-7416
▁blinking	-7417
▁brushing	-7418
▁inspired	-7419
▁packages	-7420
▁thanking	-7421
▁customers	-7422
▁hairdresser	-7423
▁masterpiece	-7424
erm	-7425
▁Ed	-7426
asty	-7427
gain	-7428
issa	-7429
œSee	-7430
▁Bra	-7431
▁unw	-7432
ilted	-7433
▁fond	-7434
▁Other	-7435
▁blond	-7436
▁maker	-7437
▁mints	-7438
▁stall	-7439
▁Bonnie	-7440
▁peeled	-7441
▁transf	-7442
ordinary	-7443
▁meowing	-7444
▁speeding	-7445
▁uniforms	-7446
▁vehicles	-7447
▁responded	-7448
▁suffering	-7449
udo	-7450
▁Ly	-7451
▁ni	-7452
ances	-7453
order	-7454
▁JoJo	-7455
▁Lion	-7456
▁Sand	-7457
▁beeh	-7458
▁coug	-7459
▁darl	-7460
▁decl	-7461
▁jugg	-7462
Always	-7463
please	-7464
udolph	-7465
uments	-7466
▁drown	-7467
▁focus	-7468
▁foxes	-7469
▁knots	-7470
▁Joanne	-7471
▁cocoon	-7472
▁opport	-7473
▁simply	-7474
▁dangers	-7475
▁nibbled	-7476
▁sandpit	-7477
▁smashed	-7478
▁solving	-7479
▁statues	-7480
▁darlings	-7481
▁dripping	-7482
▁trusting	-7483
▁bracelets	-7484
▁chocolates	-7485
▁comforting	-7486
▁paintbrush	-7487
▁extraordinary	-7488
▁unfortunately	-7489
Fl	-7490
Wh	-7491
ats	-7492
ita	-7493
its	-7494
ulp	-7495
bank	-7496
hind	-7497
œWho	-7498
▁Flo	-7499
▁Har	-7500
Molly	-7501
▁Duck	-7502
▁Elle	-7503
▁Fort	-7504
▁Okay	-7505
▁Star	-7506
▁afar	-7507
▁germ	-7508
▁grat	-7509
▁sped	-7510
undred	-7511
▁Carla	-7512
▁Gabby	-7513
▁Terry	-7514
▁natur	-7515
▁nests	-7516
▁sculp	-7517
▁tubes	-7518
ilities	-7519
▁banged	-7520
▁frowns	-7521
▁gazing	-7522
▁novels	-7523
▁obeyed	-7524
▁shorts	-7525
▁swayed	-7526
▁tissue	-7527
▁untied	-7528
▁visits	-7529
▁Feeling	-7530
▁clearly	-7531
▁picnics	-7532
▁tasting	-7533
▁tumbled	-7534
▁Startled	-7535
▁paddling	-7536
▁relaxing	-7537
▁gratitude	-7538
▁squeezing	-7539
▁supported	-7540
▁decoration	-7541
Cl	-7542
bee	-7543
erk	-7544
▁Ho	-7545
Dear	-7546
ails	-7547
rily	-7548
▁Try	-7549
▁rin	-7550
storm	-7551
▁Wigg	-7552
▁form	-7553
▁jobs	-7554
▁Allie	-7555
▁Peppa	-7556
▁aisle	-7557
▁buddy	-7558
▁cares	-7559
▁nasty	-7560
▁purrs	-7561
▁scent	-7562
▁Behind	-7563
▁angels	-7564
▁expert	-7565
▁stored	-7566
▁storms	-7567
▁Looking	-7568
▁beehive	-7569
▁million	-7570
▁swaying	-7571
▁swimmer	-7572
▁flashing	-7573
▁occasion	-7574
▁tricycle	-7575
▁movements	-7576
▁confidence	-7577
▁instrument	-7578
▁Fortunately	-7579
▁exploration	-7580
▁granddaughter	-7581
So	-7582
da	-7583
pen	-7584
airy	-7585
athy	-7586
empt	-7587
▁dep	-7588
ctric	-7589
eople	-7590
getic	-7591
œGood	-7592
▁Cara	-7593
▁Eliz	-7594
▁Muff	-7595
▁Time	-7596
▁exch	-7597
▁soot	-7598
▁Finny	-7599
▁Johny	-7600
▁aware	-7601
▁coach	-7602
▁enemy	-7603
▁prick	-7604
▁robin	-7605
intment	-7606
ittered	-7607
▁Bounce	-7608
▁Pepper	-7609
▁chilly	-7610
▁floors	-7611
▁robots	-7612
▁sweaty	-7613
▁wealth	-7614
▁attempt	-7615
▁reminds	-7616
▁routine	-7617
▁tidying	-7618
▁Fighting	-7619
▁designing	-7620
▁displayed	-7621
▁languages	-7622
▁scarecrow	-7623
▁unpacking	-7624
▁astronauts	-7625
▁windowsill	-7626
▁forgiveness	-7627
bu	-7628
cie	-7629
hil	-7630
Letâ	-7631
Take	-7632
pril	-7633
rest	-7634
▁Min	-7635
▁caw	-7636
▁hoo	-7637
vroom	-7638
▁jars	-7639
▁ting	-7640
▁toss	-7641
▁Bruce	-7642
▁Nancy	-7643
▁awful	-7644
▁teams	-7645
▁vests	-7646
flowers	-7647
▁Alison	-7648
▁pizzas	-7649
ironment	-7650
▁encount	-7651
▁flashed	-7652
▁flipped	-7653
▁gardens	-7654
▁giggles	-7655
▁natural	-7656
▁singers	-7657
▁toolbox	-7658
▁whoever	-7659
▁winding	-7660
▁bothered	-7661
▁munching	-7662
▁slipping	-7663
▁squished	-7664
▁textures	-7665
▁troubles	-7666
▁imaginary	-7667
▁magazines	-7668
▁observing	-7669
▁expression	-7670
▁environment	-7671
▁encouragement	-7672
œA	-7673
omp	-7674
▁Ty	-7675
acle	-7676
aret	-7677
elie	-7678
immy	-7679
ouqu	-7680
▁bea	-7681
▁loc	-7682
▁yum	-7683
Every	-7684
ended	-7685
udged	-7686
▁Dory	-7687
▁Phil	-7688
▁cons	-7689
▁disc	-7690
▁diso	-7691
▁scri	-7692
Fluffy	-7693
romise	-7694
▁April	-7695
▁Grand	-7696
▁bouqu	-7697
▁elbow	-7698
▁flick	-7699
▁soapy	-7700
▁sweat	-7701
œPlease	-7702
▁Albert	-7703
▁cracks	-7704
▁parted	-7705
▁sadder	-7706
▁slowed	-7707
▁Another	-7708
▁beaming	-7709
▁cowboys	-7710
▁purpose	-7711
▁shorter	-7712
▁shovels	-7713
Goodnight	-7714
▁customer	-7715
▁declared	-7716
▁brightest	-7717
▁collapsed	-7718
▁riverbank	-7719
▁sculpture	-7720
▁scurrying	-7721
▁glittering	-7722
we	-7723
▁Ar	-7724
TMve	-7725
ipes	-7726
lied	-7727
Billy	-7728
anish	-7729
asant	-7730
œSure	-7731
▁Mina	-7732
▁Pink	-7733
▁dump	-7734
▁rely	-7735
▁vibr	-7736
▁yumm	-7737
asmine	-7738
▁Patch	-7739
▁clerk	-7740
▁fires	-7741
▁kings	-7742
▁rowed	-7743
▁taped	-7744
immered	-7745
▁Bernie	-7746
▁Muffin	-7747
▁bitten	-7748
▁cooper	-7749
▁crowns	-7750
▁nights	-7751
▁sharks	-7752
▁Twinkle	-7753
▁bouquet	-7754
▁cupcake	-7755
▁hundred	-7756
▁signing	-7757
▁tearing	-7758
▁electric	-7759
▁pinching	-7760
▁seagulls	-7761
▁convinced	-7762
▁energetic	-7763
aus	-7764
▁Gu	-7765
Bang	-7766
ilda	-7767
▁Fel	-7768
▁Mam	-7769
▁Pen	-7770
▁Sal	-7771
▁Tre	-7772
▁tin	-7773
Sally	-7774
▁Youâ	-7775
▁lies	-7776
▁snug	-7777
▁unlo	-7778
boards	-7779
ugging	-7780
▁Again	-7781
▁erase	-7782
▁wiser	-7783
▁Sandra	-7784
▁crawls	-7785
▁killed	-7786
▁sprays	-7787
▁sprout	-7788
▁waters	-7789
▁Jasmine	-7790
▁Melissa	-7791
▁Squeaky	-7792
▁Welcome	-7793
▁hardest	-7794
▁leaking	-7795
▁mommies	-7796
▁nodding	-7797
▁outfits	-7798
▁sternly	-7799
▁argument	-7800
▁checkout	-7801
▁explains	-7802
▁supplied	-7803
▁teachers	-7804
▁visitors	-7805
▁backpacks	-7806
▁bothering	-7807
▁traveling	-7808
▁cheerfully	-7809
▁encountered	-7810
▁instruments	-7811
▁wildflowers	-7812
po	-7813
lyn	-7814
▁''	-7815
▁hu	-7816
asha	-7817
evin	-7818
five	-7819
free	-7820
lers	-7821
otch	-7822
whel	-7823
▁Cro	-7824
▁Paw	-7825
▁fif	-7826
▁sav	-7827
▁spy	-7828
eline	-7829
▁momâ	-7830
▁pins	-7831
▁shin	-7832
▁Sasha	-7833
▁buses	-7834
▁camel	-7835
▁clues	-7836
▁films	-7837
▁sandy	-7838
▁skies	-7839
▁strum	-7840
▁sweep	-7841
▁whisk	-7842
adually	-7843
▁Birdie	-7844
▁Hallow	-7845
▁failed	-7846
▁nurses	-7847
▁wounds	-7848
▁changes	-7849
▁cheaper	-7850
▁robbers	-7851
▁attacked	-7852
▁checking	-7853
▁dressing	-7854
▁lipstick	-7855
▁steering	-7856
▁Halloween	-7857
▁correctly	-7858
▁prevented	-7859
▁stretches	-7860
▁applauding	-7861
▁scratching	-7862
Pl	-7863
Get	-7864
bba	-7865
val	-7866
œBe	-7867
apot	-7868
belt	-7869
ocky	-7870
oosh	-7871
▁	-7872
e	-7873
a	-7874
t	-7875
o	-7876
h	-7877
n	-7878
i	-7879
d	-7880
s	-7881
r	-7882
l	-7883
y	-7884
w	-7885
m	-7886
.	-7887
u	-7888
g	-7889
c	-7890
p	-7891
f	-7892
b	-7893
k	-7894
,	-7895
T	-7896
v	-7897
"	-7898
S	-7899
H	-7900
'	-7901
I	-7902
L	-7903
O	-7904
!	-7905
B	-7906
M	-7907
x	-7908
A	-7909
W	-7910
j	-7911
J	-7912
?	-7913
Y	-7914
z	-7915
â	-7916
€	-7917
D	-7918
E	-7919
F	-7920
q	-7921
C	-7922
N	-7923
P	-7924
G	-7925
-	-7926
œ	-7927
