<pad>	0
<unk>	0
<s>	0
</s>	0
<|system|>	0
<|user|>	0
<|assistant|>	0
<|end|>	0
<0x00>	0
<0x01>	0
<0x02>	0
<0x03>	0
<0x04>	0
<0x05>	0
<0x06>	0
<0x07>	0
<0x08>	0
<0x09>	0
<0x0A>	0
<0x0B>	0
<0x0C>	0
<0x0D>	0
<0x0E>	0
<0x0F>	0
<0x10>	0
<0x11>	0
<0x12>	0
<0x13>	0
<0x14>	0
<0x15>	0
<0x16>	0
<0x17>	0
<0x18>	0
<0x19>	0
<0x1A>	0
<0x1B>	0
<0x1C>	0
<0x1D>	0
<0x1E>	0
<0x1F>	0
<0x20>	0
<0x21>	0
<0x22>	0
<0x23>	0
<0x24>	0
<0x25>	0
<0x26>	0
<0x27>	0
<0x28>	0
<0x29>	0
<0x2A>	0
<0x2B>	0
<0x2C>	0
<0x2D>	0
<0x2E>	0
<0x2F>	0
<0x30>	0
<0x31>	0
<0x32>	0
<0x33>	0
<0x34>	0
<0x35>	0
<0x36>	0
<0x37>	0
<0x38>	0
<0x39>	0
<0x3A>	0
<0x3B>	0
<0x3C>	0
<0x3D>	0
<0x3E>	0
<0x3F>	0
<0x40>	0
<0x41>	0
<0x42>	0
<0x43>	0
<0x44>	0
<0x45>	0
<0x46>	0
<0x47>	0
<0x48>	0
<0x49>	0
<0x4A>	0
<0x4B>	0
<0x4C>	0
<0x4D>	0
<0x4E>	0
<0x4F>	0
<0x50>	0
<0x51>	0
<0x52>	0
<0x53>	0
<0x54>	0
<0x55>	0
<0x56>	0
<0x57>	0
<0x58>	0
<0x59>	0
<0x5A>	0
<0x5B>	0
<0x5C>	0
<0x5D>	0
<0x5E>	0
<0x5F>	0
<0x60>	0
<0x61>	0
<0x62>	0
<0x63>	0
<0x64>	0
<0x65>	0
<0x66>	0
<0x67>	0
<0x68>	0
<0x69>	0
<0x6A>	0
<0x6B>	0
<0x6C>	0
<0x6D>	0
<0x6E>	0
<0x6F>	0
<0x70>	0
<0x71>	0
<0x72>	0
<0x73>	0
<0x74>	0
<0x75>	0
<0x76>	0
<0x77>	0
<0x78>	0
<0x79>	0
<0x7A>	0
<0x7B>	0
<0x7C>	0
<0x7D>	0
<0x7E>	0
<0x7F>	0
<0x80>	0
<0x81>	0
<0x82>	0
<0x83>	0
<0x84>	0
<0x85>	0
<0x86>	0
<0x87>	0
<0x88>	0
<0x89>	0
<0x8A>	0
<0x8B>	0
<0x8C>	0
<0x8D>	0
<0x8E>	0
<0x8F>	0
<0x90>	0
<0x91>	0
<0x92>	0
<0x93>	0
<0x94>	0
<0x95>	0
<0x96>	0
<0x97>	0
<0x98>	0
<0x99>	0
<0x9A>	0
<0x9B>	0
<0x9C>	0
<0x9D>	0
<0x9E>	0
<0x9F>	0
<0xA0>	0
<0xA1>	0
<0xA2>	0
<0xA3>	0
<0xA4>	0
<0xA5>	0
<0xA6>	0
<0xA7>	0
<0xA8>	0
<0xA9>	0
<0xAA>	0
<0xAB>	0
<0xAC>	0
<0xAD>	0
<0xAE>	0
<0xAF>	0
<0xB0>	0
<0xB1>	0
<0xB2>	0
<0xB3>	0
<0xB4>	0
<0xB5>	0
<0xB6>	0
<0xB7>	0
<0xB8>	0
<0xB9>	0
<0xBA>	0
<0xBB>	0
<0xBC>	0
<0xBD>	0
<0xBE>	0
<0xBF>	0
<0xC0>	0
<0xC1>	0
<0xC2>	0
<0xC3>	0
<0xC4>	0
<0xC5>	0
<0xC6>	0
<0xC7>	0
<0xC8>	0
<0xC9>	0
<0xCA>	0
<0xCB>	0
<0xCC>	0
<0xCD>	0
<0xCE>	0
<0xCF>	0
<0xD0>	0
<0xD1>	0
<0xD2>	0
<0xD3>	0
<0xD4>	0
<0xD5>	0
<0xD6>	0
<0xD7>	0
<0xD8>	0
<0xD9>	0
<0xDA>	0
<0xDB>	0
<0xDC>	0
<0xDD>	0
<0xDE>	0
<0xDF>	0
<0xE0>	0
<0xE1>	0
<0xE2>	0
<0xE3>	0
<0xE4>	0
<0xE5>	0
<0xE6>	0
<0xE7>	0
<0xE8>	0
<0xE9>	0
<0xEA>	0
<0xEB>	0
<0xEC>	0
<0xED>	0
<0xEE>	0
<0xEF>	0
<0xF0>	0
<0xF1>	0
<0xF2>	0
<0xF3>	0
<0xF4>	0
<0xF5>	0
<0xF6>	0
<0xF7>	0
<0xF8>	0
<0xF9>	0
<0xFA>	0
<0xFB>	0
<0xFC>	0
<0xFD>	0
<0xFE>	0
<0xFF>	0
▁a	-0
▁t	-1
he	-2
▁s	-3
▁d	-4
nd	-5
▁e	-6
▁c	-7
as	-8
re	-9
▁p	-10
▁o	-11
▁w	-12
in	-13
▁m	-14
ra	-15
▁the	-16
▁f	-17
er	-18
ed	-19
▁b	-20
nt	-21
▁n	-22
it	-23
os	-24
qu	-25
ou	-26
ha	-27
▁to	-28
▁de	-29
▁and	-30
▁l	-31
ar	-32
om	-33
or	-34
is	-35
▁qu	-36
es	-37
ão	-38
ll	-39
▁que	-40
ia	-41
im	-42
id	-43
▁T	-44
▁he	-45
▁g	-46
▁was	-47
▁v	-48
ad	-49
▁u	-50
▁h	-51
on	-52
▁se	-53
ing	-54
ir	-55
en	-56
▁S	-57
ay	-58
al	-59
ut	-60
ent	-61
il	-62
am	-63
▁The	-64
▁ha	-65
se	-66
an	-67
st	-68
ic	-69
▁in	-70
▁sa	-71
ro	-72
le	-73
▁do	-74
ig	-75
em	-76
av	-77
▁um	-78
▁com	-79
el	-80
▁re	-81
et	-82
▁H	-83
▁it	-84
▁O	-85
at	-86
ce	-87
▁no	-88
▁her	-89
▁A	-90
ri	-91
ndo	-92
▁as	-93
▁so	-94
▁He	-95
ant	-96
▁pa	-97
▁não	-98
▁She	-99
ld	-100
pp	-101
▁be	-102
▁E	-103
▁da	-104
▁lo	-105
▁she	-106
ho	-107
hat	-108
to	-109
ac	-110
um	-111
ve	-112
▁M	-113
▁On	-114
ery	-115
▁of	-116
un	-117
ul	-118
ked	-119
▁co	-120
te	-121
▁L	-122
▁his	-123
▁al	-124
ava	-125
▁"	-126
▁D	-127
ith	-128
▁es	-129
▁day	-130
▁with	-131
▁me	-132
▁ma	-133
▁os	-134
▁They	-135
▁j	-136
ke	-137
us	-138
▁I	-139
▁C	-140
▁B	-141
▁pl	-142
▁on	-143
▁em	-144
▁st	-145
▁for	-146
▁out	-147
io	-148
▁est	-149
▁said	-150
▁up	-151
rou	-152
res	-153
▁su	-154
▁y	-155
ime	-156
▁ex	-157
▁that	-158
ade	-159
▁por	-160
▁had	-161
pe	-162
ente	-163
itt	-164
ta	-165
▁ca	-166
▁bo	-167
▁go	-168
▁an	-169
po	-170
ould	-171
▁J	-172
od	-173
iv	-174
ily	-175
ere	-176
▁uma	-177
▁para	-178
inha	-179
ud	-180
her	-181
end	-182
▁P	-183
▁th	-184
▁play	-185
ção	-186
ca	-187
▁ne	-188
▁they	-189
ittle	-190
▁N	-191
▁little	-192
ado	-193
..	-194
▁mom	-195
ind	-196
▁r	-197
▁era	-198
▁happ	-199
all	-200
ow	-201
ran	-202
▁time	-203
▁there	-204
iz	-205
ol	-206
ter	-207
▁very	-208
ando	-209
▁you	-210
my	-211
cia	-212
▁ell	-213
▁des	-214
▁á	-215
▁at	-216
▁Lily	-217
que	-218
ug	-219
▁con	-220
--	-221
▁é	-222
▁am	-223
ly	-224
ver	-225
ue	-226
ome	-227
▁want	-228
▁ao	-229
ide	-230
▁le	-231
▁big	-232
▁fo	-233
▁na	-234
ht	-235
ito	-236
co	-237
me	-238
▁k	-239
▁One	-240
▁happy	-241
sa	-242
▁but	-243
ada	-244
▁mu	-245
▁fri	-246
▁Once	-247
art	-248
ça	-249
▁mo	-250
▁mas	-251
ill	-252
ack	-253
ira	-254
▁saw	-255
go	-256
ur	-257
ch	-258
▁fe	-259
▁friend	-260
ard	-261
▁li	-262
▁sm	-263
irl	-264
ok	-265
▁not	-266
red	-267
so	-268
▁girl	-269
▁ou	-270
▁Q	-271
lhe	-272
▁upon	-273
▁en	-274
▁pr	-275
▁R	-276
▁ac	-277
▁F	-278
▁all	-279
▁were	-280
▁It	-281
▁Tim	-282
▁him	-283
va	-284
ido	-285
▁per	-286
if	-287
round	-288
▁mais	-289
▁is	-290
▁wanted	-291
hen	-292
▁ab	-293
▁ent	-294
ara	-295
gu	-296
ry	-297
▁could	-298
▁dis	-299
pl	-300
▁ar	-301
▁lhe	-302
nde	-303
▁como	-304
▁cas	-305
▁gra	-306
est	-307
ma	-308
▁cont	-309
do	-310
▁cl	-311
way	-312
ved	-313
hing	-314
▁ra	-315
ix	-316
▁went	-317
ras	-318
very	-319
▁man	-320
az	-321
ag	-322
mo	-323
ura	-324
▁pro	-325
ias	-326
ida	-327
hos	-328
▁sem	-329
▁im	-330
▁nam	-331
hed	-332
▁ro	-333
ong	-334
▁eu	-335
iu	-336
▁po	-337
▁som	-338
ous	-339
one	-340
ck	-341
▁smil	-342
rom	-343
▁V	-344
▁dos	-345
▁fel	-346
▁pre	-347
▁around	-348
."	-349
▁pe	-350
▁ser	-351
▁them	-352
▁car	-353
▁tem	-354
▁friends	-355
▁ve	-356
...	-357
de	-358
▁elle	-359
ust	-360
▁hel	-361
be	-362
▁alg	-363
iro	-364
▁ag	-365
▁ol	-366
ento	-367
▁par	-368
ight	-369
▁back	-370
▁ter	-371
▁exc	-372
idade	-373
▁tre	-374
▁te	-375
▁pas	-376
▁help	-377
▁did	-378
▁their	-379
ame	-380
ost	-381
▁W	-382
▁So	-383
▁De	-384
▁kn	-385
▁--	-386
▁start	-387
▁boy	-388
ist	-389
wn	-390
▁named	-391
lla	-392
▁would	-393
side	-394
ther	-395
▁fun	-396
▁mes	-397
▁But	-398
oked	-399
▁loved	-400
▁tod	-401
ens	-402
▁nos	-403
▁looked	-404
▁can	-405
▁ver	-406
ie	-407
ub	-408
ram	-409
▁Não	-410
▁felt	-411
▁ta	-412
▁tinha	-413
▁somet	-414
get	-415
▁Que	-416
out	-417
▁tra	-418
▁Timmy	-419
ião	-420
fe	-421
aria	-422
▁started	-423
ited	-424
▁cor	-425
ros	-426
▁mor	-427
▁have	-428
na	-429
ria	-430
▁ad	-431
▁ho	-432
ound	-433
han	-434
▁res	-435
ios	-436
▁fl	-437
▁smiled	-438
!"	-439
ite	-440
igo	-441
ess	-442
▁seu	-443
▁pel	-444
ct	-445
ain	-446
▁la	-447
▁das	-448
gether	-449
anto	-450
▁something	-451
▁sh	-452
▁sua	-453
ird	-454
ões	-455
▁che	-456
cid	-457
lle	-458
ice	-459
ful	-460
udo	-461
ure	-462
▁pod	-463
▁wor	-464
▁diz	-465
▁toy	-466
ço	-467
▁Tom	-468
▁some	-469
▁ap	-470
amente	-471
nte	-472
▁Ben	-473
ina	-474
oug	-475
▁mar	-476
▁together	-477
▁bird	-478
bre	-479
▁esp	-480
▁are	-481
▁ran	-482
ings	-483
pped	-484
▁excited	-485
▁too	-486
▁ella	-487
▁asked	-488
▁foi	-489
ast	-490
▁wat	-491
▁made	-492
▁nem	-493
▁esc	-494
▁when	-495
za	-496
esse	-497
▁wal	-498
ica	-499
sim	-500
▁away	-501
no	-502
▁algum	-503
▁like	-504
▁new	-505
pois	-506
▁imp	-507
▁comp	-508
▁minha	-509
▁then	-510
▁found	-511
mente	-512
ave	-513
ick	-514
▁who	-515
▁home	-516
▁hom	-517
▁dia	-518
▁park	-519
▁G	-520
ore	-521
▁sen	-522
bra	-523
▁Qu	-524
▁pare	-525
ge	-526
▁sho	-527
▁vo	-528
▁olhos	-529
▁see	-530
▁vez	-531
▁what	-532
▁As	-533
ally	-534
asse	-535
▁só	-536
▁bra	-537
▁from	-538
inda	-539
▁af	-540
ita	-541
▁every	-542
ive	-543
ua	-544
den	-545
bo	-546
▁faz	-547
ci	-548
▁ch	-549
▁decid	-550
▁we	-551
▁put	-552
▁tão	-553
▁again	-554
▁Jo	-555
▁casa	-556
vent	-557
▁liv	-558
jo	-559
▁get	-560
ber	-561
ris	-562
▁cu	-563
▁decided	-564
▁make	-565
▁playing	-566
▁pass	-567
ru	-568
king	-569
▁men	-570
▁spe	-571
▁expl	-572
▁other	-573
ep	-574
ach	-575
are	-576
▁got	-577
▁long	-578
▁pal	-579
▁quando	-580
via	-581
cial	-582
nder	-583
▁já	-584
▁one	-585
da	-586
▁things	-587
▁sent	-588
▁rec	-589
lo	-590
▁look	-591
▁mã	-592
▁pou	-593
▁depois	-594
ane	-595
▁fam	-596
ried	-597
▁wh	-598
▁Every	-599
avam	-600
▁sad	-601
▁than	-602
▁meu	-603
▁down	-604
▁tudo	-605
▁cou	-606
ados	-607
pt	-608
ouse	-609
pit	-610
▁find	-611
▁sto	-612
▁came	-613
▁tempo	-614
ny	-615
▁tree	-616
ph	-617
▁cha	-618
cer	-619
▁un	-620
ble	-621
ven	-622
▁old	-623
ace	-624
▁Ma	-625
▁muito	-626
▁lot	-627
▁hug	-628
▁tal	-629
▁ir	-630
hor	-631
▁good	-632
vo	-633
▁ke	-634
ire	-635
▁feel	-636
mos	-637
▁disse	-638
You	-639
▁fil	-640
th	-641
nos	-642
▁thoug	-643
▁special	-644
ort	-645
▁When	-646
▁ob	-647
▁ainda	-648
encia	-649
▁or	-650
▁vis	-651
▁espe	-652
▁du	-653
ways	-654
▁deix	-655
denly	-656
ico	-657
▁kne	-658
pre	-659
▁ant	-660
▁cre	-661
ante	-662
▁br	-663
arn	-664
▁Rub	-665
▁liked	-666
lled	-667
▁Rubião	-668
▁didn	-669
▁always	-670
▁took	-671
?"	-672
▁Jack	-673
▁about	-674
▁outro	-675
ima	-676
ion	-677
amb	-678
▁prime	-679
har	-680
ump	-681
ções	-682
▁seus	-683
▁estava	-684
lly	-685
▁sp	-686
bb	-687
▁jo	-688
▁sca	-689
▁ia	-690
qui	-691
has	-692
▁Com	-693
▁porque	-694
▁cat	-695
▁sor	-696
ged	-697
dade	-698
▁sw	-699
▁Mas	-700
▁knew	-701
▁thought	-702
ers	-703
▁cer	-704
▁off	-705
▁nada	-706
▁vida	-707
▁scared	-708
ilia	-709
▁fin	-710
▁op	-711
ened	-712
▁just	-713
▁vel	-714
▁mesmo	-715
,--	-716
▁outside	-717
ja	-718
▁sun	-719
▁take	-720
▁couldn	-721
indo	-722
▁dog	-723
▁more	-724
▁outra	-725
▁how	-726
▁care	-727
▁sal	-728
▁come	-729
▁segu	-730
▁U	-731
▁ba	-732
ei	-733
uc	-734
▁anim	-735
▁ped	-736
▁dad	-737
▁Sud	-738
▁Suddenly	-739
▁min	-740
▁laug	-741
▁bl	-742
int	-743
▁fu	-744
▁ouv	-745
inho	-746
▁entre	-747
oso	-748
▁cam	-749
by	-750
▁any	-751
rio	-752
▁homem	-753
gora	-754
▁into	-755
ress	-756
▁aos	-757
▁assim	-758
▁Bo	-759
▁Her	-760
▁pos	-761
uz	-762
▁sk	-763
▁tw	-764
▁sha	-765
▁fic	-766
eu	-767
per	-768
sel	-769
▁conf	-770
▁fal	-771
▁Mom	-772
▁say	-773
▁much	-774
▁pic	-775
▁palav	-776
▁lev	-777
▁learn	-778
▁wo	-779
rar	-780
▁bem	-781
▁até	-782
▁del	-783
▁show	-784
▁podia	-785
▁sobre	-786
ile	-787
▁Em	-788
▁my	-789
▁app	-790
ração	-791
gar	-792
use	-793
roud	-794
▁proud	-795
▁You	-796
▁pouco	-797
▁Ca	-798
nna	-799
▁gu	-800
▁sc	-801
▁rep	-802
▁cousa	-803
▁mommy	-804
▁told	-805
▁house	-806
gan	-807
▁cabe	-808
▁grande	-809
▁over	-810
▁heard	-811
▁never	-812
▁tor	-813
▁if	-814
▁ide	-815
▁dest	-816
▁toys	-817
uns	-818
▁dar	-819
▁ball	-820
ceu	-821
iff	-822
▁part	-823
▁mul	-824
▁todos	-825
▁Max	-826
▁clos	-827
▁quer	-828
cc	-829
nda	-830
▁ye	-831
▁hor	-832
▁pra	-833
▁gave	-834
ise	-835
tt	-836
▁rem	-837
▁sur	-838
▁vol	-839
▁lots	-840
ças	-841
▁nas	-842
▁tamb	-843
▁Af	-844
▁mal	-845
here	-846
▁inside	-847
gue	-848
adas	-849
iros	-850
idos	-851
▁quem	-852
▁room	-853
▁pes	-854
▁ás	-855
▁ind	-856
cause	-857
aut	-858
▁your	-859
▁animal	-860
▁cal	-861
▁know	-862
ec	-863
▁Est	-864
▁este	-865
▁fall	-866
▁small	-867
▁water	-868
▁wa	-869
itos	-870
iga	-871
ning	-872
▁mim	-873
▁Then	-874
▁Maria	-875
arm	-876
▁gre	-877
▁From	-878
▁verdade	-879
imento	-880
ze	-881
ched	-882
▁because	-883
ba	-884
▁Se	-885
etter	-886
▁si	-887
▁His	-888
iam	-889
▁Da	-890
▁Os	-891
osse	-892
ára	-893
hn	-894
▁sol	-895
▁hand	-896
ém	-897
▁beaut	-898
▁tried	-899
ple	-900
▁bu	-901
▁lou	-902
▁played	-903
la	-904
ulo	-905
ição	-906
▁Sam	-907
▁sub	-908
▁Era	-909
▁John	-910
▁Sara	-911
▁annos	-912
ered	-913
ild	-914
▁pela	-915
▁run	-916
ree	-917
▁Por	-918
ish	-919
▁thanked	-920
▁pu	-921
▁even	-922
▁esta	-923
▁gard	-924
▁prop	-925
cl	-926
▁_	-927
▁notic	-928
pa	-929
ano	-930
vel	-931
▁No	-932
▁agora	-933
ntil	-934
phia	-935
▁bear	-936
▁garden	-937
▁eat	-938
▁real	-939
▁terra	-940
▁by	-941
▁way	-942
▁And	-943
▁mel	-944
▁box	-945
▁dizer	-946
▁diff	-947
▁this	-948
▁onde	-949
▁mãe	-950
▁will	-951
▁mat	-952
▁fosse	-953
▁beautif	-954
▁until	-955
▁beautiful	-956
endo	-957
entos	-958
▁menos	-959
self	-960
▁har	-961
▁cons	-962
▁eram	-963
itas	-964
our	-965
▁â	-966
▁Al	-967
osto	-968
▁called	-969
ady	-970
llo	-971
anc	-972
▁amor	-973
▁us	-974
▁flow	-975
hora	-976
▁rece	-977
▁rest	-978
rim	-979
▁best	-980
inu	-981
▁many	-982
▁lem	-983
ft	-984
ga	-985
▁logo	-986
▁alguns	-987
▁então	-988
▁mod	-989
▁mão	-990
▁tambem	-991
bar	-992
▁pé	-993
▁Mar	-994
▁gl	-995
ino	-996
roug	-997
▁col	-998
▁gente	-999
▁grand	-1000
▁lived	-1001
▁After	-1002
▁Capit	-1003
ink	-1004
lew	-1005
▁ju	-1006
▁sl	-1007
▁Luc	-1008
▁met	-1009
▁outros	-1010
▁alguma	-1011
ars	-1012
▁hugged	-1013
▁need	-1014
▁pelo	-1015
▁shin	-1016
▁don	-1017
▁pres	-1018
▁nat	-1019
ate	-1020
▁bro	-1021
▁kept	-1022
▁Lucy	-1023
▁tr	-1024
▁bus	-1025
▁fer	-1026
▁try	-1027
▁pens	-1028
enc	-1029
rava	-1030
▁cheg	-1031
▁each	-1032
cre	-1033
▁med	-1034
▁sky	-1035
rong	-1036
▁contra	-1037
▁prin	-1038
▁stay	-1039
▁most	-1040
ped	-1041
▁Jane	-1042
▁aque	-1043
▁There	-1044
▁animals	-1045
▁laughed	-1046
▁two	-1047
▁val	-1048
▁jump	-1049
▁Co	-1050
▁aca	-1051
▁pae	-1052
ior	-1053
▁«	-1054
nto	-1055
pot	-1056
llow	-1057
▁fro	-1058
▁Sophia	-1059
▁better	-1060
ff	-1061
osa	-1062
▁lá	-1063
unca	-1064
▁cle	-1065
▁noite	-1066
▁feeling	-1067
▁tom	-1068
▁Deus	-1069
▁advent	-1070
▁ti	-1071
aram	-1072
rest	-1073
▁bat	-1074
ós	-1075
▁red	-1076
▁Anna	-1077
▁continu	-1078
▁explore	-1079
▁inf	-1080
▁inte	-1081
▁learned	-1082
ral	-1083
▁kind	-1084
▁mulher	-1085
igh	-1086
orm	-1087
oria	-1088
▁dous	-1089
hi	-1090
▁tur	-1091
and	-1092
ves	-1093
▁prom	-1094
▁soon	-1095
cis	-1096
hum	-1097
▁ass	-1098
▁inst	-1099
tas	-1100
▁isto	-1101
pris	-1102
▁comm	-1103
▁brave	-1104
▁cabeça	-1105
▁surpris	-1106
dy	-1107
▁Sim	-1108
▁sab	-1109
▁morte	-1110
ine	-1111
rad	-1112
▁rel	-1113
▁In	-1114
▁walked	-1115
▁pen	-1116
▁ret	-1117
▁inter	-1118
llas	-1119
▁its	-1120
▁flew	-1121
▁antes	-1122
▁family	-1123
▁walking	-1124
cas	-1125
▁end	-1126
▁let	-1127
iss	-1128
ude	-1129
ços	-1130
▁fez	-1131
▁ref	-1132
▁hard	-1133
ving	-1134
▁amigo	-1135
▁vezes	-1136
▁Capitú	-1137
ass	-1138
▁Es	-1139
anha	-1140
▁está	-1141
▁coração	-1142
fu	-1143
fore	-1144
▁toda	-1145
▁pesso	-1146
alha	-1147
▁tanto	-1148
enhum	-1149
tos	-1150
▁dias	-1151
▁loud	-1152
▁both	-1153
▁mesma	-1154
▁under	-1155
TM	-1156
mas	-1157
▁mag	-1158
ama	-1159
▁ri	-1160
▁ale	-1161
▁rua	-1162
▁duas	-1163
▁torn	-1164
ies	-1165
ople	-1166
▁sim	-1167
▁differe	-1168
▁pat	-1169
▁senhor	-1170
ord	-1171
tim	-1172
ivel	-1173
▁pergu	-1174
▁aqui	-1175
▁desc	-1176
▁imag	-1177
▁ground	-1178
▁stopped	-1179
▁mundo	-1180
▁porta	-1181
▁before	-1182
ign	-1183
igos	-1184
▁noticed	-1185
▁palavras	-1186
quer	-1187
▁suas	-1188
ôr	-1189
ete	-1190
ished	-1191
range	-1192
▁nice	-1193
▁todas	-1194
▁Quando	-1195
▁sempre	-1196
gem	-1197
▁din	-1198
▁são	-1199
▁cous	-1200
▁going	-1201
gry	-1202
les	-1203
ummy	-1204
▁fly	-1205
thing	-1206
▁curi	-1207
▁list	-1208
ab	-1209
je	-1210
▁conhe	-1211
ons	-1212
▁Do	-1213
esta	-1214
rado	-1215
entes	-1216
▁outras	-1217
▁exp	-1218
▁pol	-1219
▁people	-1220
che	-1221
▁att	-1222
▁perd	-1223
▁still	-1224
,"	-1225
▁va	-1226
▁Bob	-1227
▁hum	-1228
▁qual	-1229
▁Eu	-1230
▁esse	-1231
▁nome	-1232
▁Re	-1233
isse	-1234
▁bec	-1235
▁Pery	-1236
▁alma	-1237
▁havia	-1238
▁sorry	-1239
▁cousas	-1240
ás	-1241
nta	-1242
inte	-1243
▁todo	-1244
ot	-1245
ger	-1246
zes	-1247
▁Um	-1248
▁ph	-1249
▁bel	-1250
▁filha	-1251
row	-1252
▁cost	-1253
▁careful	-1254
irt	-1255
led	-1256
▁dist	-1257
▁safe	-1258
▁says	-1259
▁nunca	-1260
cip	-1261
sos	-1262
▁dra	-1263
▁while	-1264
▁senhora	-1265
aro	-1266
▁bed	-1267
▁viv	-1268
▁three	-1269
▁amaz	-1270
▁face	-1271
▁traz	-1272
▁tres	-1273
ntes	-1274
▁div	-1275
▁dese	-1276
ne	-1277
isy	-1278
▁ey	-1279
ster	-1280
amento	-1281
▁parte	-1282
▁primeiro	-1283
▁tu	-1284
▁shiny	-1285
iras	-1286
xt	-1287
ana	-1288
joy	-1289
ario	-1290
▁keep	-1291
▁respo	-1292
urt	-1293
▁meio	-1294
▁tran	-1295
▁ul	-1296
bbit	-1297
antes	-1298
▁fazer	-1299
pos	-1300
ular	-1301
▁deu	-1302
▁ele	-1303
▁conv	-1304
▁Simão	-1305
▁delic	-1306
▁essa	-1307
▁quick	-1308
▁Mo	-1309
ious	-1310
▁bre	-1311
▁fast	-1312
ingu	-1313
▁Ent	-1314
▁place	-1315
▁melhor	-1316
▁opened	-1317
▁marido	-1318
▁precis	-1319
▁walk	-1320
▁enjoy	-1321
▁nenhum	-1322
tou	-1323
▁fav	-1324
▁fim	-1325
▁clean	-1326
▁everyone	-1327
▁bar	-1328
▁viu	-1329
▁book	-1330
▁filho	-1331
▁remem	-1332
▁forest	-1333
▁pó	-1334
▁vi	-1335
enta	-1336
▁enf	-1337
▁san	-1338
▁rabbit	-1339
▁Everyone	-1340
eet	-1341
▁cra	-1342
▁tou	-1343
▁watch	-1344
car	-1345
▁adm	-1346
▁cham	-1347
gre	-1348
vez	-1349
▁fi	-1350
amos	-1351
▁fir	-1352
▁ever	-1353
▁idea	-1354
▁supp	-1355
▁looking	-1356
cha	-1357
idas	-1358
ures	-1359
▁acha	-1360
▁corre	-1361
▁noise	-1362
ance	-1363
rança	-1364
▁food	-1365
▁mãos	-1366
bye	-1367
rem	-1368
▁mus	-1369
rough	-1370
▁dire	-1371
▁dizia	-1372
ivo	-1373
rel	-1374
inco	-1375
heiro	-1376
▁picked	-1377
gra	-1378
illy	-1379
▁fac	-1380
▁clim	-1381
▁isso	-1382
▁strong	-1383
▁quickly	-1384
ak	-1385
rass	-1386
▁near	-1387
▁began	-1388
▁smile	-1389
ndeu	-1390
▁fiz	-1391
▁mil	-1392
▁eyes	-1393
▁mand	-1394
▁import	-1395
sas	-1396
ores	-1397
▁cry	-1398
▁ins	-1399
▁now	-1400
▁via	-1401
▁rock	-1402
▁certo	-1403
cê	-1404
▁We	-1405
esto	-1406
▁sah	-1407
▁climb	-1408
Não	-1409
iva	-1410
lles	-1411
ream	-1412
▁next	-1413
▁after	-1414
▁hands	-1415
ase	-1416
ades	-1417
atro	-1418
este	-1419
▁rap	-1420
▁ten	-1421
▁blue	-1422
▁child	-1423
cess	-1424
▁acab	-1425
▁showed	-1426
▁goodbye	-1427
▁pergunt	-1428
▁Vir	-1429
▁door	-1430
▁sala	-1431
▁Daisy	-1432
▁minut	-1433
▁morre	-1434
▁poder	-1435
omp	-1436
rão	-1437
▁homens	-1438
▁z	-1439
enas	-1440
▁ext	-1441
▁work	-1442
▁horas	-1443
▁flowers	-1444
tar	-1445
▁Ao	-1446
▁Já	-1447
▁mum	-1448
▁been	-1449
▁princip	-1450
▁def	-1451
▁tard	-1452
▁should	-1453
ied	-1454
▁fó	-1455
▁great	-1456
▁closer	-1457
▁ce	-1458
▁sat	-1459
▁sei	-1460
▁being	-1461
▁Jos	-1462
▁póde	-1463
▁store	-1464
▁where	-1465
▁bright	-1466
▁primeira	-1467
cos	-1468
▁fa	-1469
adre	-1470
▁Sue	-1471
▁alli	-1472
▁quiz	-1473
▁warm	-1474
▁vê	-1475
▁Rei	-1476
▁son	-1477
▁hurt	-1478
▁wait	-1479
▁color	-1480
orre	-1481
▁Dad	-1482
▁fish	-1483
▁sing	-1484
erra	-1485
▁tru	-1486
▁poss	-1487
▁turn	-1488
▁share	-1489
ação	-1490
▁parecia	-1491
eno	-1492
nts	-1493
▁At	-1494
▁Na	-1495
▁er	-1496
▁boat	-1497
▁natura	-1498
▁-	-1499
ren	-1500
▁Po	-1501
empl	-1502
itou	-1503
▁palavra	-1504
▁through	-1505
ixo	-1506
avel	-1507
▁sou	-1508
▁voz	-1509
▁Para	-1510
▁vinha	-1511
▁algumas	-1512
kes	-1513
▁bad	-1514
riste	-1515
▁truck	-1516
▁voice	-1517
▁became	-1518
▁butter	-1519
▁watched	-1520
tty	-1521
▁sn	-1522
▁Joe	-1523
▁wav	-1524
▁doll	-1525
▁pict	-1526
▁mouse	-1527
ely	-1528
pera	-1529
▁Mia	-1530
▁raz	-1531
▁Mommy	-1532
▁olhar	-1533
his	-1534
ket	-1535
dos	-1536
▁Fo	-1537
itar	-1538
▁tant	-1539
▁Molly	-1540
▁força	-1541
▁entend	-1542
▁curious	-1543
hou	-1544
▁id	-1545
fect	-1546
ward	-1547
▁ste	-1548
rando	-1549
▁fill	-1550
▁give	-1551
▁jane	-1552
▁night	-1553
▁nosso	-1554
▁having	-1555
hã	-1556
Let	-1557
rav	-1558
para	-1559
▁Virg	-1560
▁trab	-1561
almente	-1562
▁adventure	-1563
ip	-1564
wl	-1565
iar	-1566
nça	-1567
avão	-1568
ough	-1569
ught	-1570
▁bit	-1571
▁vos	-1572
▁gesto	-1573
▁longe	-1574
▁running	-1575
▁different	-1576
cto	-1577
usa	-1578
leep	-1579
▁inc	-1580
▁own	-1581
▁sus	-1582
▁love	-1583
quelle	-1584
▁capit	-1585
▁sound	-1586
ting	-1587
▁amb	-1588
▁carta	-1589
▁elles	-1590
▁esque	-1591
▁triste	-1592
▁Thereza	-1593
ança	-1594
icio	-1595
▁acc	-1596
▁also	-1597
▁game	-1598
▁high	-1599
▁stor	-1600
gua	-1601
hia	-1602
▁Lo	-1603
▁gr	-1604
▁avent	-1605
▁velho	-1606
▁grandes	-1607
▁parents	-1608
▁K	-1609
hes	-1610
ached	-1611
▁prov	-1612
▁sure	-1613
▁Sarah	-1614
▁right	-1615
▁world	-1616
▁pretty	-1617
ized	-1618
▁modo	-1619
▁angry	-1620
▁cinco	-1621
▁espir	-1622
▁grass	-1623
▁follow	-1624
br	-1625
pé	-1626
▁squ	-1627
▁Spot	-1628
▁meus	-1629
▁seen	-1630
▁devia	-1631
▁hopped	-1632
ppy	-1633
▁nod	-1634
▁occ	-1635
quella	-1636
cio	-1637
▁lar	-1638
▁ready	-1639
▁Virgilia	-1640
cido	-1641
▁far	-1642
▁José	-1643
▁porém	-1644
anç	-1645
inas	-1646
▁aff	-1647
antar	-1648
▁creat	-1649
▁della	-1650
▁prete	-1651
bbed	-1652
imes	-1653
▁tired	-1654
▁helped	-1655
▁queria	-1656
▁wonder	-1657
ded	-1658
era	-1659
▁wood	-1660
▁corpo	-1661
▁compan	-1662
▁jumped	-1663
▁happened	-1664
uma	-1665
▁tri	-1666
▁caso	-1667
▁cast	-1668
▁farm	-1669
▁hora	-1670
▁rain	-1671
▁listen	-1672
▁grabbed	-1673
▁(	-1674
uck	-1675
ume	-1676
▁pequ	-1677
▁birds	-1678
▁dress	-1679
▁first	-1680
▁nossa	-1681
more	-1682
▁int	-1683
▁use	-1684
▁cria	-1685
▁lado	-1686
▁really	-1687
▁butterf	-1688
for	-1689
vol	-1690
▁fóra	-1691
▁começ	-1692
▁delle	-1693
▁estre	-1694
▁menina	-1695
▁surprise	-1696
bu	-1697
gado	-1698
ilha	-1699
▁cuid	-1700
▁important	-1701
ner	-1702
elho	-1703
hank	-1704
ista	-1705
ntro	-1706
▁Ant	-1707
▁mon	-1708
where	-1709
▁open	-1710
▁seria	-1711
▁years	-1712
▁natural	-1713
▁hon	-1714
▁tro	-1715
▁sand	-1716
▁rosto	-1717
▁familia	-1718
app	-1719
gou	-1720
cios	-1721
cket	-1722
▁luz	-1723
fully	-1724
▁dava	-1725
ivesse	-1726
▁favor	-1727
▁himself	-1728
ym	-1729
lic	-1730
onio	-1731
▁cho	-1732
▁fid	-1733
▁fug	-1734
▁idé	-1735
▁ven	-1736
ea	-1737
up	-1738
▁à	-1739
ual	-1740
▁cr	-1741
rada	-1742
▁Gra	-1743
▁enc	-1744
▁kid	-1745
ancia	-1746
▁slow	-1747
▁Sally	-1748
▁guard	-1749
▁magic	-1750
▁apenas	-1751
Yes	-1752
lex	-1753
ndia	-1754
▁Jim	-1755
▁fix	-1756
▁sac	-1757
▁vest	-1758
▁escre	-1759
▁fazia	-1760
▁tarde	-1761
▁filled	-1762
▁pessoa	-1763
▁reached	-1764
uro	-1765
inal	-1766
unny	-1767
▁bon	-1768
▁name	-1769
ula	-1770
eria	-1771
essa	-1772
▁bei	-1773
▁mem	-1774
▁mud	-1775
▁Como	-1776
▁cook	-1777
▁ultim	-1778
▁enjoyed	-1779
TMs	-1780
tor	-1781
uras	-1782
▁Fin	-1783
▁bug	-1784
▁enco	-1785
rei	-1786
ique	-1787
ised	-1788
▁Cec	-1789
▁gen	-1790
▁bran	-1791
▁respe	-1792
▁saber	-1793
▁Cecilia	-1794
▁anymore	-1795
asi	-1796
▁bom	-1797
▁why	-1798
tando	-1799
▁pick	-1800
▁catch	-1801
▁desco	-1802
▁quatro	-1803
▁espirito	-1804
▁butterfly	-1805
rig	-1806
emos	-1807
▁dro	-1808
▁gent	-1809
▁leav	-1810
▁repl	-1811
▁sabe	-1812
▁ficou	-1813
▁stick	-1814
▁lembra	-1815
ds	-1816
los	-1817
chou	-1818
▁arm	-1819
▁ded	-1820
▁fol	-1821
▁fra	-1822
▁ris	-1823
feito	-1824
▁tell	-1825
▁wonderful	-1826
".	-1827
▁É	-1828
irou	-1829
▁fui	-1830
▁inim	-1831
▁lady	-1832
▁move	-1833
quanto	-1834
▁trees	-1835
▁waved	-1836
▁conver	-1837
▁worked	-1838
raz	-1839
▁fig	-1840
▁uns	-1841
▁tall	-1842
▁appare	-1843
▁momento	-1844
ng	-1845
ces	-1846
erv	-1847
kay	-1848
ult	-1849
llos	-1850
unha	-1851
▁Con	-1852
▁Foi	-1853
▁dep	-1854
▁dez	-1855
▁head	-1856
▁quar	-1857
inguem	-1858
▁estar	-1859
▁razão	-1860
▁trabal	-1861
ined	-1862
▁fire	-1863
▁olha	-1864
▁pers	-1865
▁used	-1866
▁herself	-1867
imo	-1868
riu	-1869
iano	-1870
rias	-1871
▁lag	-1872
▁top	-1873
▁vir	-1874
▁preciso	-1875
It	-1876
ap	-1877
zy	-1878
zas	-1879
▁Ou	-1880
iram	-1881
▁fur	-1882
▁dura	-1883
▁lemb	-1884
▁moça	-1885
▁acomp	-1886
▁strange	-1887
ede	-1888
What	-1889
ross	-1890
▁Bor	-1891
▁nov	-1892
▁padre	-1893
▁secre	-1894
▁flower	-1895
▁nodded	-1896
eta	-1897
itc	-1898
▁Uma	-1899
▁cir	-1900
▁lon	-1901
bered	-1902
▁able	-1903
▁arri	-1904
▁desde	-1905
▁think	-1906
▁remembered	-1907
▁ate	-1908
▁nós	-1909
▁sil	-1910
▁full	-1911
▁paint	-1912
ela	-1913
gon	-1914
ila	-1915
uff	-1916
▁dan	-1917
▁fell	-1918
▁serv	-1919
▁soft	-1920
▁dream	-1921
▁shout	-1922
▁muitas	-1923
▁happily	-1924
▁morning	-1925
▁finished	-1926
▁carefully	-1927
ero	-1928
▁cé	-1929
▁Tod	-1930
▁has	-1931
▁done	-1932
▁kitc	-1933
▁parece	-1934
▁kitchen	-1935
ary	-1936
ena	-1937
▁ben	-1938
▁sel	-1939
▁spo	-1940
quill	-1941
▁cada	-1942
▁cara	-1943
▁ideia	-1944
▁worry	-1945
▁sangue	-1946
▁commigo	-1947
▁minutos	-1948
▁children	-1949
ulos	-1950
▁Nem	-1951
▁ali	-1952
▁tin	-1953
▁pond	-1954
▁wind	-1955
▁fidal	-1956
▁forte	-1957
▁coming	-1958
▁dentro	-1959
▁janella	-1960
▁Marianna	-1961
ys	-1962
ert	-1963
ins	-1964
▁av	-1965
▁yes	-1966
▁vista	-1967
▁making	-1968
▁Antonio	-1969
age	-1970
zar	-1971
ença	-1972
▁Des	-1973
▁apo	-1974
▁blo	-1975
▁cap	-1976
▁few	-1977
▁pie	-1978
▁Dias	-1979
▁Quin	-1980
▁here	-1981
▁kids	-1982
▁Palha	-1983
▁peito	-1984
▁sleep	-1985
▁thing	-1986
▁yummy	-1987
▁braços	-1988
▁necess	-1989
▁talvez	-1990
▁finally	-1991
cks	-1992
ador	-1993
cked	-1994
ndas	-1995
▁flo	-1996
▁irm	-1997
▁qui	-1998
▁draw	-1999
▁only	-2000
▁Assim	-2001
▁sabia	-2002
▁aquella	-2003
▁arrived	-2004
▁perfect	-2005
▁je	-2006
itor	-2007
▁Just	-2008
▁cand	-2009
▁swim	-2010
▁vont	-2011
▁touch	-2012
▁passar	-2013
▁Finally	-2014
▁getting	-2015
▁ef	-2016
▁ig	-2017
▁Car	-2018
▁pap	-2019
▁left	-2020
▁read	-2021
▁Borba	-2022
▁bunny	-2023
▁carro	-2024
▁simpl	-2025
▁enough	-2026
itu	-2027
▁hid	-2028
▁hair	-2029
▁less	-2030
▁sail	-2031
▁green	-2032
▁mezes	-2033
▁Quincas	-2034
▁underst	-2035
II	-2036
ater	-2037
ncia	-2038
▁Cam	-2039
Thank	-2040
rimas	-2041
▁aleg	-2042
▁held	-2043
▁plan	-2044
▁repet	-2045
▁sweet	-2046
▁pretend	-2047
▁realized	-2048
oo	-2049
▁To	-2050
▁ru	-2051
room	-2052
▁num	-2053
ually	-2054
▁Jill	-2055
▁manhã	-2056
▁explic	-2057
▁anything	-2058
ib	-2059
Don	-2060
ich	-2061
oss	-2062
vam	-2063
osas	-2064
▁ord	-2065
oring	-2066
▁dark	-2067
▁esca	-2068
▁glad	-2069
▁song	-2070
▁passa	-2071
▁woods	-2072
pes	-2073
ted	-2074
ush	-2075
▁All	-2076
▁mov	-2077
▁reg	-2078
▁set	-2079
▁frog	-2080
▁Tinha	-2081
▁quanto	-2082
▁yellow	-2083
▁amazing	-2084
▁ninguem	-2085
▁vontade	-2086
▁followed	-2087
.»	-2088
das	-2089
lha	-2090
▁cá	-2091
▁fas	-2092
▁fox	-2093
▁sme	-2094
itava	-2095
▁music	-2096
▁needed	-2097
orn	-2098
▁dri	-2099
▁mis	-2100
▁tua	-2101
▁cond	-2102
▁proc	-2103
▁sear	-2104
▁trou	-2105
▁delicious	-2106
hei	-2107
That	-2108
reed	-2109
▁air	-2110
▁ano	-2111
▁ceu	-2112
▁cut	-2113
▁fort	-2114
▁Benny	-2115
▁foram	-2116
▁maior	-2117
▁ponto	-2118
▁trans	-2119
▁cidade	-2120
▁leaves	-2121
▁simples	-2122
▁dinheiro	-2123
anta	-2124
ctor	-2125
hind	-2126
ific	-2127
rios	-2128
tava	-2129
▁cur	-2130
ather	-2131
irrel	-2132
▁veiu	-2133
▁prima	-2134
▁white	-2135
▁friendly	-2136
▁surprised	-2137
ps	-2138
:--	-2139
log	-2140
▁bas	-2141
▁vão	-2142
rador	-2143
▁That	-2144
▁idéa	-2145
▁seja	-2146
▁wear	-2147
rought	-2148
▁excit	-2149
▁puppy	-2150
▁entrou	-2151
▁farmer	-2152
▁tinham	-2153
▁brought	-2154
▁fidalgo	-2155
▁pessoas	-2156
He	-2157
_,	-2158
ken	-2159
ses	-2160
iver	-2161
▁hou	-2162
▁teu	-2163
▁arre	-2164
▁cold	-2165
▁teve	-2166
▁behind	-2167
▁trying	-2168
▁aventure	-2169
▁squirrel	-2170
▁respondeu	-2171
ash	-2172
fim	-2173
▁aj	-2174
ient	-2175
inar	-2176
▁ard	-2177
▁pur	-2178
▁sit	-2179
▁digo	-2180
▁disc	-2181
▁laugh	-2182
imentos	-2183
▁deixou	-2184
ose	-2185
ella	-2186
pira	-2187
▁dom	-2188
▁joy	-2189
▁pud	-2190
indow	-2191
wards	-2192
▁arran	-2193
▁causa	-2194
▁funny	-2195
▁quasi	-2196
▁receb	-2197
▁thank	-2198
▁stayed	-2199
▁trazia	-2200
▁window	-2201
▁continued	-2202
▁principio	-2203
▁ed	-2204
eira	-2205
▁Tal	-2206
▁buy	-2207
▁pet	-2208
▁deep	-2209
▁concl	-2210
▁moral	-2211
▁muita	-2212
▁story	-2213
▁visit	-2214
▁amigos	-2215
▁brother	-2216
▁seguinte	-2217
gg	-2218
ark	-2219
▁el	-2220
▁Now	-2221
▁boa	-2222
▁cla	-2223
▁ple	-2224
▁fiel	-2225
▁gone	-2226
▁hole	-2227
▁lion	-2228
▁mess	-2229
emente	-2230
ressão	-2231
▁passo	-2232
▁myster	-2233
▁another	-2234
icy	-2235
isa	-2236
nas	-2237
▁ge	-2238
▁vá	-2239
▁sud	-2240
iloso	-2241
▁Soon	-2242
▁cool	-2243
▁hill	-2244
▁lost	-2245
▁okay	-2246
▁tast	-2247
▁Tommy	-2248
▁close	-2249
▁light	-2250
▁quiet	-2251
icidade	-2252
▁quarto	-2253
▁dizendo	-2254
▁proprio	-2255
▁esperança	-2256
We	-2257
XX	-2258
vid	-2259
▁fre	-2260
▁imm	-2261
inhos	-2262
▁bast	-2263
▁succ	-2264
▁beach	-2265
▁plant	-2266
▁pobre	-2267
▁admira	-2268
▁chegou	-2269
▁caminho	-2270
ung	-2271
tima	-2272
▁Out	-2273
▁Tudo	-2274
▁cava	-2275
▁eter	-2276
▁sign	-2277
▁você	-2278
▁feito	-2279
▁tight	-2280
ciencia	-2281
▁estend	-2282
▁partic	-2283
ike	-2284
ilo	-2285
▁bag	-2286
▁ban	-2287
▁lic	-2288
▁ora	-2289
▁hear	-2290
▁pelos	-2291
▁spark	-2292
▁amazed	-2293
▁slowly	-2294
▁shouted	-2295
▁dr	-2296
anas	-2297
ouro	-2298
▁Bot	-2299
▁ace	-2300
▁cav	-2301
▁ill	-2302
▁lab	-2303
▁dorm	-2304
▁nego	-2305
▁Jimmy	-2306
▁amiga	-2307
▁ballo	-2308
▁livro	-2309
▁bigger	-2310
▁levant	-2311
▁nenhuma	-2312
ventually	-2313
amas	-2314
igas	-2315
osos	-2316
rade	-2317
assem	-2318
▁cake	-2319
▁cart	-2320
▁braço	-2321
▁indio	-2322
▁senão	-2323
▁slide	-2324
▁lesson	-2325
▁wished	-2326
▁philoso	-2327
▁lagrimas	-2328
No	-2329
nc	-2330
una	-2331
ixão	-2332
rist	-2333
▁ced	-2334
▁gal	-2335
▁ice	-2336
▁sin	-2337
tanto	-2338
ureza	-2339
▁almo	-2340
▁seem	-2341
▁colle	-2342
▁papel	-2343
▁agreed	-2344
▁everything	-2345
ions	-2346
▁Pois	-2347
▁alto	-2348
▁cele	-2349
▁form	-2350
▁vinte	-2351
▁Depois	-2352
▁exempl	-2353
▁tivesse	-2354
iol	-2355
idão	-2356
ling	-2357
term	-2358
▁bal	-2359
▁vai	-2360
ressa	-2361
▁Billy	-2362
▁profu	-2363
▁desped	-2364
▁resist	-2365
▁secret	-2366
▁segundo	-2367
▁someone	-2368
omm	-2369
▁fr	-2370
erna	-2371
▁vie	-2372
▁Cont	-2373
▁gost	-2374
▁saud	-2375
▁tira	-2376
idades	-2377
▁engan	-2378
▁haver	-2379
▁wrong	-2380
▁morrer	-2381
▁Botelho	-2382
▁aquelle	-2383
▁magical	-2384
hy	-2385
pto	-2386
guas	-2387
icia	-2388
illa	-2389
▁Jen	-2390
ister	-2391
▁aper	-2392
▁Entre	-2393
▁forgo	-2394
▁diante	-2395
▁guerra	-2396
▁shared	-2397
▁confess	-2398
rm	-2399
ence	-2400
ever	-2401
resc	-2402
uffy	-2403
▁ahi	-2404
▁obs	-2405
▁This	-2406
▁teac	-2407
▁ficar	-2408
▁passe	-2409
▁pelas	-2410
▁super	-2411
▁table	-2412
▁tenho	-2413
▁confus	-2414
▁entrar	-2415
▁stepped	-2416
onia	-2417
▁rom	-2418
▁spl	-2419
▁acce	-2420
▁medo	-2421
▁stop	-2422
espera	-2423
▁black	-2424
▁books	-2425
▁suspe	-2426
▁dinner	-2427
▁capitulo	-2428
ek	-2429
ês	-2430
iça	-2431
guei	-2432
iosa	-2433
ismo	-2434
▁dig	-2435
▁nar	-2436
▁vag	-2437
encio	-2438
pping	-2439
▁Esco	-2440
▁circ	-2441
▁novo	-2442
▁empre	-2443
▁estas	-2444
▁polit	-2445
▁across	-2446
▁mother	-2447
▁replied	-2448
▁pictures	-2449
és	-2450
ric	-2451
ubb	-2452
edic	-2453
inta	-2454
ução	-2455
▁cah	-2456
▁pag	-2457
▁lake	-2458
▁mean	-2459
▁plac	-2460
▁pode	-2461
▁along	-2462
▁embar	-2463
▁nobre	-2464
▁resol	-2465
cimento	-2466
▁desejo	-2467
▁moment	-2468
▁Á	-2469
amp	-2470
ieve	-2471
isto	-2472
▁tio	-2473
▁dois	-2474
▁trem	-2475
▁resto	-2476
▁Carlos	-2477
▁encont	-2478
▁jantar	-2479
▁orange	-2480
▁sentia	-2481
▁separa	-2482
▁favorite	-2483
bel	-2484
bro	-2485
ola	-2486
uto	-2487
zer	-2488
▁dá	-2489
▁pô	-2490
cida	-2491
icos	-2492
weet	-2493
▁Amy	-2494
▁pub	-2495
▁pés	-2496
asure	-2497
gando	-2498
inted	-2499
ência	-2500
▁baby	-2501
▁cima	-2502
▁dirt	-2503
inação	-2504
▁determ	-2505
▁sentimento	-2506
rir	-2507
▁Fl	-2508
iant	-2509
imos	-2510
pend	-2511
árão	-2512
▁Sen	-2513
▁cru	-2514
▁emp	-2515
sação	-2516
▁stre	-2517
▁virt	-2518
inario	-2519
▁claro	-2520
▁fecha	-2521
▁selva	-2522
▁deixar	-2523
▁waited	-2524
▁Escobar	-2525
▁effeito	-2526
▁passado	-2527
▁suddenly	-2528
day	-2529
ames	-2530
cção	-2531
eram	-2532
ámos	-2533
▁bor	-2534
▁dev	-2535
▁dir	-2536
▁clou	-2537
▁fair	-2538
▁ambos	-2539
▁ouvir	-2540
▁compre	-2541
▁forgot	-2542
▁costume	-2543
▁picture	-2544
▁continuou	-2545
▁sometimes	-2546
af	-2547
ef	-2548
ern	-2549
hão	-2550
umb	-2551
cado	-2552
hool	-2553
ivos	-2554
urou	-2555
▁fru	-2556
▁hot	-2557
entar	-2558
toria	-2559
▁conc	-2560
▁danc	-2561
▁diss	-2562
▁irmã	-2563
▁lanç	-2564
▁pois	-2565
▁ride	-2566
▁viol	-2567
▁wasn	-2568
▁achou	-2569
▁desej	-2570
▁descon	-2571
▁flying	-2572
▁minhas	-2573
▁recebe	-2574
▁celebra	-2575
▁acompanha	-2576
▁exploring	-2577
▁understand	-2578
Mom	-2579
TMt	-2580
bor	-2581
rew	-2582
uta	-2583
▁Le	-2584
icas	-2585
itty	-2586
osta	-2587
ower	-2588
▁ask	-2589
▁hab	-2590
▁sea	-2591
▁Onde	-2592
▁dout	-2593
▁test	-2594
▁volta	-2595
▁passou	-2596
▁clapped	-2597
▁depressa	-2598
▁perguntou	-2599
▁felicidade	-2600
vos	-2601
bora	-2602
ieved	-2603
▁Este	-2604
▁Lila	-2605
▁fran	-2606
▁incl	-2607
▁ment	-2608
▁nova	-2609
▁subl	-2610
edicta	-2611
▁Agora	-2612
▁Tweet	-2613
▁caval	-2614
▁escri	-2615
▁occas	-2616
▁perde	-2617
▁velha	-2618
▁alegre	-2619
▁estavam	-2620
▁promised	-2621
▁remember	-2622
▁Benedicta	-2623
pha	-2624
▁Ch	-2625
elle	-2626
erem	-2627
enção	-2628
▁Mary	-2629
▁meia	-2630
▁opin	-2631
▁side	-2632
▁year	-2633
▁const	-2634
▁feliz	-2635
▁swing	-2636
▁fallar	-2637
▁turned	-2638
▁towards	-2639
▁natureza	-2640
dle	-2641
▁Pa	-2642
▁má	-2643
!...	-2644
ória	-2645
▁Let	-2646
▁ado	-2647
▁hun	-2648
▁inv	-2649
▁sec	-2650
▁miss	-2651
▁shar	-2652
▁talk	-2653
▁tive	-2654
▁conclu	-2655
▁muitos	-2656
▁reflex	-2657
▁school	-2658
▁seemed	-2659
▁balloon	-2660
Lo	-2661
eda	-2662
unt	-2663
uzz	-2664
cava	-2665
eter	-2666
▁fut	-2667
inava	-2668
▁igno	-2669
▁must	-2670
icação	-2671
▁build	-2672
▁deste	-2673
▁extra	-2674
ilidade	-2675
▁hungry	-2676
▁tornou	-2677
ivamente	-2678
▁alegria	-2679
▁climbed	-2680
▁teacher	-2681
▁adventures	-2682
.--	-2683
ora	-2684
▁Sa	-2685
▁il	-2686
lhes	-2687
omes	-2688
oney	-2689
▁iam	-2690
eared	-2691
ushed	-2692
vered	-2693
▁Elle	-2694
▁Quem	-2695
▁acud	-2696
▁esco	-2697
▁grow	-2698
▁such	-2699
▁ving	-2700
▁wall	-2701
▁fundo	-2702
▁neigh	-2703
▁living	-2704
▁durante	-2705
▁listened	-2706
ans	-2707
sto	-2708
uca	-2709
çar	-2710
▁Ha	-2711
▁hat	-2712
▁neg	-2713
▁pot	-2714
estre	-2715
▁amar	-2716
▁blan	-2717
▁doce	-2718
▁prof	-2719
▁vent	-2720
▁certa	-2721
▁exper	-2722
▁colors	-2723
▁longer	-2724
▁noticia	-2725
▁everywhere	-2726
▁particular	-2727
aes	-2728
aço	-2729
cou	-2730
gas	-2731
oro	-2732
pat	-2733
ror	-2734
▁az	-2735
▁wr	-2736
agem	-2737
aybe	-2738
gred	-2739
segu	-2740
umes	-2741
▁Che	-2742
▁owl	-2743
Hello	-2744
conte	-2745
issim	-2746
▁alta	-2747
▁cars	-2748
▁chão	-2749
▁Mariz	-2750
▁count	-2751
▁doing	-2752
▁gosto	-2753
▁obrig	-2754
▁river	-2755
▁vendo	-2756
▁Inside	-2757
▁Porque	-2758
▁broken	-2759
▁faster	-2760
▁pocket	-2761
▁ultimo	-2762
▁blanket	-2763
▁helping	-2764
▁occasião	-2765
▁aventureiros	-2766
ney	-2767
vas	-2768
▁Mr	-2769
Look	-2770
ject	-2771
quei	-2772
▁job	-2773
▁lig	-2774
▁rou	-2775
▁vul	-2776
▁wet	-2777
entou	-2778
▁Ella	-2779
▁João	-2780
▁does	-2781
▁hold	-2782
▁Grand	-2783
▁creio	-2784
▁pediu	-2785
▁caught	-2786
▁imposs	-2787
▁labios	-2788
▁ultima	-2789
▁believe	-2790
▁vespera	-2791
▁worried	-2792
▁comprehe	-2793
▁qualquer	-2794
▁silencio	-2795
▁trabalho	-2796
sh	-2797
ais	-2798
ham	-2799
tei	-2800
thy	-2801
ount	-2802
▁fit	-2803
▁rum	-2804
inhas	-2805
▁arte	-2806
▁beij	-2807
▁else	-2808
▁mere	-2809
▁spot	-2810
▁bella	-2811
▁estou	-2812
▁graça	-2813
▁moved	-2814
▁perto	-2815
▁achava	-2816
▁cartas	-2817
▁leitor	-2818
▁prazer	-2819
▁cheered	-2820
▁contempl	-2821
▁Ne	-2822
pell	-2823
tivo	-2824
▁ade	-2825
▁cab	-2826
▁ing	-2827
▁rio	-2828
▁comb	-2829
▁exam	-2830
▁moço	-2831
▁ouro	-2832
▁alone	-2833
▁armas	-2834
▁chapé	-2835
▁esfor	-2836
▁leito	-2837
▁might	-2838
▁pared	-2839
▁diffic	-2840
▁eating	-2841
▁others	-2842
▁poucos	-2843
▁pulled	-2844
urn	-2845
ased	-2846
orme	-2847
▁Lus	-2848
▁alc	-2849
▁pai	-2850
▁ted	-2851
▁var	-2852
▁won	-2853
resse	-2854
▁anno	-2855
▁fica	-2856
▁hide	-2857
▁tail	-2858
encias	-2859
▁falta	-2860
▁floor	-2861
▁ouviu	-2862
▁scary	-2863
▁treat	-2864
▁viver	-2865
▁aconte	-2866
▁blocks	-2867
▁bucket	-2868
▁comple	-2869
▁lonely	-2870
▁paixão	-2871
▁present	-2872
ob	-2873
sw	-2874
cho	-2875
▁Pl	-2876
enho	-2877
gens	-2878
ioso	-2879
yard	-2880
▁bou	-2881
▁gab	-2882
▁leg	-2883
▁pri	-2884
ation	-2885
▁cump	-2886
▁cust	-2887
▁days	-2888
▁heal	-2889
▁heav	-2890
▁jour	-2891
▁pink	-2892
▁town	-2893
▁venc	-2894
quillo	-2895
▁achar	-2896
▁achei	-2897
▁estud	-2898
▁field	-2899
▁intim	-2900
▁aborre	-2901
▁castle	-2902
▁danger	-2903
▁embora	-2904
▁happen	-2905
▁nearby	-2906
▁record	-2907
▁esperava	-2908
▁relieved	-2909
gos	-2910
rif	-2911
set	-2912
sta	-2913
tes	-2914
bres	-2915
usão	-2916
▁Nos	-2917
▁boc	-2918
▁sum	-2919
▁affe	-2920
▁answ	-2921
▁cant	-2922
▁cray	-2923
▁disp	-2924
▁free	-2925
▁join	-2926
▁obra	-2927
▁perf	-2928
▁sair	-2929
▁shop	-2930
▁break	-2931
▁dolls	-2932
▁vento	-2933
▁though	-2934
▁começou	-2935
▁contrario	-2936
▁primeiros	-2937
xe	-2938
var	-2939
vão	-2940
▁Be	-2941
bras	-2942
eiro	-2943
tado	-2944
varo	-2945
▁ang	-2946
▁ape	-2947
heres	-2948
inete	-2949
ipped	-2950
ições	-2951
posta	-2952
rindo	-2953
▁Port	-2954
▁cave	-2955
▁fogo	-2956
▁junt	-2957
▁namo	-2958
▁path	-2959
▁snow	-2960
▁party	-2961
▁posso	-2962
▁quere	-2963
▁rapaz	-2964
▁closed	-2965
▁doctor	-2966
▁cookies	-2967
▁inteira	-2968
▁procura	-2969
▁backyard	-2970
act	-2971
alo	-2972
key	-2973
und	-2974
acho	-2975
ches	-2976
gava	-2977
çado	-2978
▁Can	-2979
▁Mum	-2980
▁eng	-2981
▁our	-2982
▁excl	-2983
heiros	-2984
ndered	-2985
▁Então	-2986
▁daddy	-2987
▁desta	-2988
▁diabo	-2989
▁organ	-2990
▁pedir	-2991
▁smart	-2992
▁sunny	-2993
▁contar	-2994
▁dragon	-2995
▁elepha	-2996
▁estran	-2997
▁gentle	-2998
▁livros	-2999
▁perder	-3000
▁smiles	-3001
▁exemplo	-3002
▁colorful	-3003
fa	-3004
ood	-3005
elha	-3006
lico	-3007
▁bee	-3008
▁mix	-3009
▁vós	-3010
ement	-3011
inado	-3012
othes	-3013
rados	-3014
▁Esta	-3015
▁crer	-3016
▁fora	-3017
▁race	-3018
▁seio	-3019
▁tiny	-3020
iencia	-3021
▁Ferna	-3022
▁essas	-3023
▁levar	-3024
▁quest	-3025
▁retra	-3026
▁satis	-3027
▁young	-3028
▁Alvaro	-3029
▁contos	-3030
▁desgra	-3031
▁disapp	-3032
▁clothes	-3033
▁propria	-3034
▁touched	-3035
▁mulheres	-3036
▁instantes	-3037
▁seminario	-3038
▁necessidade	-3039
ala	-3040
ata	-3041
edia	-3042
ours	-3043
rown	-3044
▁gem	-3045
cendo	-3046
▁baix	-3047
▁desp	-3048
▁fing	-3049
▁povo	-3050
▁campo	-3051
▁ellas	-3052
▁ergue	-3053
▁falar	-3054
▁leave	-3055
▁quero	-3056
▁words	-3057
ountain	-3058
▁Portug	-3059
▁agrade	-3060
▁defend	-3061
▁perigo	-3062
▁passava	-3063
▁without	-3064
▁exciting	-3065
▁historia	-3066
▁possivel	-3067
▁naturalmente	-3068
ís	-3069
Mas	-3070
cem	-3071
veu	-3072
This	-3073
guem	-3074
utor	-3075
▁Dos	-3076
▁Sem	-3077
▁der	-3078
▁pig	-3079
greja	-3080
itten	-3081
vesse	-3082
▁Tamb	-3083
▁With	-3084
▁bott	-3085
▁dama	-3086
▁kiss	-3087
▁rela	-3088
▁umas	-3089
▁vend	-3090
▁emfim	-3091
▁horse	-3092
▁train	-3093
▁sacrif	-3094
▁também	-3095
▁monster	-3096
▁nothing	-3097
▁opinião	-3098
▁pensamento	-3099
êm	-3100
ake	-3101
bby	-3102
erc	-3103
jam	-3104
lem	-3105
val	-3106
▁nut	-3107
▁opp	-3108
▁cade	-3109
▁fama	-3110
▁ital	-3111
▁same	-3112
▁seis	-3113
▁thin	-3114
▁baixo	-3115
▁bocca	-3116
▁esper	-3117
▁gener	-3118
▁heavy	-3119
▁largo	-3120
▁logar	-3121
▁looks	-3122
▁terri	-3123
▁confia	-3124
▁delles	-3125
▁ouvido	-3126
▁pieces	-3127
▁purple	-3128
▁sombra	-3129
▁memoria	-3130
▁Fernanda	-3131
▁gabinete	-3132
▁interrom	-3133
▁expressão	-3134
▁eventually	-3135
aso	-3136
eto	-3137
gia	-3138
mer	-3139
▁ré	-3140
cara	-3141
ites	-3142
ming	-3143
ribu	-3144
▁Ton	-3145
▁cup	-3146
▁hig	-3147
▁jul	-3148
▁amea	-3149
▁bath	-3150
▁bike	-3151
▁call	-3152
▁leve	-3153
▁sees	-3154
▁será	-3155
▁woke	-3156
▁desse	-3157
▁fight	-3158
▁orden	-3159
▁pract	-3160
▁reach	-3161
▁recol	-3162
▁stand	-3163
▁acabar	-3164
▁figura	-3165
▁naught	-3166
▁proble	-3167
▁trinta	-3168
▁inimigo	-3169
▁elephant	-3170
▁emquanto	-3171
lh	-3172
dio	-3173
jec	-3174
▁Ar	-3175
▁Cre	-3176
▁Diz	-3177
▁dem	-3178
▁hes	-3179
▁lit	-3180
▁mol	-3181
▁oce	-3182
▁vem	-3183
▁wag	-3184
teful	-3185
▁lhes	-3186
▁mett	-3187
▁pude	-3188
▁sido	-3189
ranças	-3190
redano	-3191
▁cried	-3192
▁disco	-3193
▁obede	-3194
▁prest	-3195
▁Estava	-3196
▁Quanto	-3197
▁Talvez	-3198
▁basket	-3199
▁person	-3200
▁please	-3201
▁voltou	-3202
▁pareceu	-3203
▁Loredano	-3204
▁instante	-3205
▁respeito	-3206
▁dangerous	-3207
iou	-3208
man	-3209
▁Te	-3210
inou	-3211
ries	-3212
tted	-3213
unch	-3214
▁dou	-3215
▁nap	-3216
▁Emma	-3217
▁bowl	-3218
▁bush	-3219
▁cora	-3220
▁devo	-3221
▁kite	-3222
▁sang	-3223
▁sort	-3224
▁Reino	-3225
▁andar	-3226
▁drove	-3227
▁paper	-3228
▁posto	-3229
▁recon	-3230
▁silly	-3231
▁snack	-3232
▁sober	-3233
▁egreja	-3234
▁ficava	-3235
▁forças	-3236
▁humana	-3237
▁viagem	-3238
▁delight	-3239
▁journey	-3240
▁grateful	-3241
▁swimming	-3242
▁watching	-3243
xo	-3244
ipp	-3245
ues	-3246
adem	-3247
aste	-3248
esso	-3249
ider	-3250
▁abs	-3251
▁cad	-3252
▁gif	-3253
▁sym	-3254
▁vae	-3255
cando	-3256
▁Deix	-3257
▁Mama	-3258
▁aber	-3259
▁cama	-3260
▁cuja	-3261
▁dado	-3262
▁duck	-3263
▁frio	-3264
▁jard	-3265
▁pôde	-3266
▁wild	-3267
▁Lusit	-3268
▁apple	-3269
▁canto	-3270
▁chora	-3271
▁likes	-3272
▁ondas	-3273
▁praia	-3274
▁stuck	-3275
▁Fluffy	-3276
▁alguem	-3277
▁promet	-3278
▁sorris	-3279
▁ardente	-3280
▁direito	-3281
▁explain	-3282
▁naughty	-3283
▁pequeno	-3284
▁stories	-3285
▁Together	-3286
▁levantou	-3287
▁impossivel	-3288
.^	-3289
ty	-3290
gul	-3291
igg	-3292
teu	-3293
▁et	-3294
anho	-3295
anos	-3296
inos	-3297
vida	-3298
▁Per	-3299
▁Sab	-3300
▁ear	-3301
▁gat	-3302
▁hos	-3303
▁str	-3304
vação	-3305
▁Come	-3306
▁Pete	-3307
▁busy	-3308
▁dito	-3309
▁pain	-3310
▁quin	-3311
▁remo	-3312
▁wise	-3313
▁Daddy	-3314
▁candy	-3315
▁casar	-3316
▁dedos	-3317
▁deses	-3318
▁drink	-3319
▁exist	-3320
▁ferro	-3321
▁heart	-3322
▁money	-3323
▁ouvia	-3324
▁sendo	-3325
▁tasty	-3326
▁Tweety	-3327
▁academ	-3328
▁higher	-3329
▁grandma	-3330
▁escrever	-3331
▁italiano	-3332
▁resposta	-3333
▁verdadeira	-3334
▁ó	-3335
boa	-3336
cul	-3337
des	-3338
dia	-3339
olo	-3340
ron	-3341
uno	-3342
sequ	-3343
▁aba	-3344
▁act	-3345
▁dec	-3346
▁giv	-3347
▁sta	-3348
▁tam	-3349
▁vou	-3350
▁Aqui	-3351
▁obed	-3352
▁riso	-3353
ground	-3354
▁adver	-3355
▁class	-3356
▁esses	-3357
▁menor	-3358
▁prote	-3359
▁tanta	-3360
▁acabou	-3361
▁andava	-3362
▁buscar	-3363
▁desapp	-3364
▁gentes	-3365
▁invent	-3366
▁rolled	-3367
▁tantos	-3368
▁wouldn	-3369
▁andando	-3370
▁maneira	-3371
▁politica	-3372
Que	-3373
ath	-3374
cal	-3375
ced	-3376
cri	-3377
elo	-3378
par	-3379
ton	-3380
▁Pr	-3381
▁Só	-3382
bros	-3383
ises	-3384
▁cob	-3385
▁cul	-3386
▁gol	-3387
▁inj	-3388
ought	-3389
▁apro	-3390
▁brin	-3391
▁dema	-3392
▁desf	-3393
▁huge	-3394
▁apres	-3395
▁bring	-3396
▁dance	-3397
▁ilust	-3398
▁ocean	-3399
▁relig	-3400
▁tendo	-3401
▁teria	-3402
▁formos	-3403
▁ideias	-3404
▁minist	-3405
▁nossos	-3406
▁return	-3407
▁cavallo	-3408
▁lembrou	-3409
▁sublime	-3410
▁inimigos	-3411
▁laughing	-3412
▁searched	-3413
▁consciencia	-3414
ín	-3415
ear	-3416
tic	-3417
ensa	-3418
ooth	-3419
▁Das	-3420
▁Vol	-3421
▁côr	-3422
▁ler	-3423
▁lim	-3424
▁tig	-3425
essem	-3426
hores	-3427
shine	-3428
▁Cast	-3429
▁Pare	-3430
▁What	-3431
▁bite	-3432
▁cabo	-3433
▁cozy	-3434
▁decl	-3435
▁gest	-3436
▁mont	-3437
▁pied	-3438
▁yard	-3439
itando	-3440
▁atraz	-3441
▁dando	-3442
▁estão	-3443
▁hoped	-3444
▁junto	-3445
▁shoes	-3446
▁stars	-3447
▁upset	-3448
tamente	-3449
▁amores	-3450
▁bonita	-3451
▁folhas	-3452
▁mestre	-3453
▁search	-3454
▁segred	-3455
▁sister	-3456
▁smooth	-3457
▁street	-3458
▁terras	-3459
▁sunshine	-3460
zo	-3461
Est	-3462
cie	-3463
iço	-3464
ugh	-3465
▁En	-3466
teza	-3467
ucky	-3468
▁Viz	-3469
▁gas	-3470
▁win	-3471
acida	-3472
estas	-3473
vores	-3474
▁adiv	-3475
▁dele	-3476
▁deve	-3477
▁fres	-3478
▁land	-3479
▁life	-3480
▁meet	-3481
▁mira	-3482
▁pall	-3483
▁pena	-3484
▁pint	-3485
▁well	-3486
ughter	-3487
▁Jenny	-3488
▁amava	-3489
▁breve	-3490
▁enfim	-3491
▁front	-3492
▁missa	-3493
▁possu	-3494
▁Tambem	-3495
▁chegar	-3496
▁offere	-3497
▁passos	-3498
▁vinham	-3499
▁Placida	-3500
▁esforço	-3501
▁shining	-3502
▁treasure	-3503
át	-3504
▁X	-3505
Can	-3506
bil	-3507
irm	-3508
ocê	-3509
pia	-3510
▁fô	-3511
igna	-3512
llig	-3513
▁Alg	-3514
▁cow	-3515
▁céo	-3516
▁dry	-3517
▁emb	-3518
▁jar	-3519
▁sco	-3520
▁pura	-3521
▁soff	-3522
▁Kitty	-3523
▁Vizeu	-3524
▁commo	-3525
▁conta	-3526
▁dirty	-3527
▁escol	-3528
▁fruit	-3529
▁games	-3530
▁houve	-3531
▁longo	-3532
▁morto	-3533
▁phras	-3534
▁primo	-3535
▁danced	-3536
▁espant	-3537
▁espera	-3538
▁fossem	-3539
▁pernas	-3540
▁taking	-3541
▁sorriso	-3542
▁casamento	-3543
._	-3544
op	-3545
com	-3546
der	-3547
duz	-3548
▁Ve	-3549
iado	-3550
itch	-3551
less	-3552
lica	-3553
ment	-3554
pect	-3555
çada	-3556
▁--"	-3557
▁Sus	-3558
▁céu	-3559
▁fat	-3560
▁len	-3561
▁lug	-3562
▁mad	-3563
▁vic	-3564
cella	-3565
gedor	-3566
rever	-3567
▁chan	-3568
▁exce	-3569
▁hoje	-3570
▁iria	-3571
▁late	-3572
▁onto	-3573
▁pade	-3574
▁vill	-3575
▁fugir	-3576
▁juice	-3577
▁nesse	-3578
▁ponta	-3579
▁today	-3580
▁crying	-3581
▁destru	-3582
▁espaço	-3583
▁fiquei	-3584
▁jardim	-3585
▁levava	-3586
▁parede	-3587
▁places	-3588
▁tantas	-3589
▁Camacho	-3590
▁mostrar	-3591
▁negocio	-3592
▁pensava	-3593
▁singing	-3594
▁spotted	-3595
▁daquella	-3596
▁desappare	-3597
▁movimento	-3598
ahi	-3599
alt	-3600
ead	-3601
uda	-3602
enda	-3603
irão	-3604
▁Dia	-3605
▁bol	-3606
▁ens	-3607
▁lav	-3608
▁mãi	-3609
cidos	-3610
disse	-3611
uação	-3612
▁agua	-3613
▁bugs	-3614
▁clar	-3615
▁grav	-3616
▁oito	-3617
▁orig	-3618
▁abriu	-3619
▁faria	-3620
▁manda	-3621
▁power	-3622
▁sahiu	-3623
▁tomou	-3624
▁unico	-3625
▁pushed	-3626
▁quebra	-3627
▁sonhos	-3628
▁esperar	-3629
▁fazendo	-3630
▁forever	-3631
▁pequena	-3632
▁retrato	-3633
▁success	-3634
▁interior	-3635
▁playground	-3636
Hi	-3637
izo	-3638
jar	-3639
▁Am	-3640
lect	-3641
ness	-3642
onha	-3643
tudo	-3644
urso	-3645
ying	-3646
▁Rom	-3647
▁clo	-3648
▁sós	-3649
atura	-3650
itado	-3651
▁Jake	-3652
▁fôra	-3653
▁perm	-3654
▁port	-3655
▁prim	-3656
▁vive	-3657
▁Their	-3658
▁capaz	-3659
▁corte	-3660
▁cream	-3661
▁entra	-3662
▁estes	-3663
▁ordem	-3664
▁owner	-3665
▁sahir	-3666
▁spent	-3667
▁terce	-3668
▁wings	-3669
aquelle	-3670
▁Senhor	-3671
▁antigo	-3672
▁apezar	-3673
▁circum	-3674
▁clouds	-3675
▁ergueu	-3676
▁kitten	-3677
▁noises	-3678
▁consegu	-3679
▁fallava	-3680
▁justiça	-3681
▁repente	-3682
▁convento	-3683
▁distancia	-3684
▁tranquill	-3685
ex	-3686
gn	-3687
éu	-3688
▁'	-3689
ale	-3690
ceb	-3691
jou	-3692
nun	-3693
çou	-3694
êra	-3695
▁Lá	-3696
▁ur	-3697
idez	-3698
reno	-3699
vely	-3700
vido	-3701
ymor	-3702
▁Fal	-3703
▁Isa	-3704
▁ama	-3705
▁jog	-3706
▁ous	-3707
▁vêr	-3708
issão	-3709
jecto	-3710
queza	-3711
redor	-3712
íssim	-3713
▁Eram	-3714
▁Rita	-3715
▁gros	-3716
▁jura	-3717
▁nerv	-3718
▁rode	-3719
▁sack	-3720
▁susp	-3721
▁vira	-3722
inaria	-3723
▁Aymor	-3724
▁Nunca	-3725
▁despe	-3726
▁makes	-3727
▁medic	-3728
▁pedia	-3729
▁teddy	-3730
▁chamar	-3731
▁costas	-3732
▁esquer	-3733
▁propos	-3734
▁shapes	-3735
▁convers	-3736
▁pointed	-3737
▁prepara	-3738
▁semanas	-3739
▁virtude	-3740
▁cabellos	-3741
▁princess	-3742
!»	-3743
ez	-3744
ier	-3745
rat	-3746
▁Su	-3747
erio	-3748
irth	-3749
ivas	-3750
pero	-3751
riga	-3752
▁Cat	-3753
▁Pod	-3754
▁ach	-3755
▁alv	-3756
▁ber	-3757
▁bur	-3758
▁maj	-3759
▁rid	-3760
baixo	-3761
board	-3762
ungle	-3763
▁Mand	-3764
▁cere	-3765
▁inve	-3766
▁lamp	-3767
▁leva	-3768
▁magn	-3769
▁nave	-3770
▁pert	-3771
▁pont	-3772
▁pool	-3773
▁swam	-3774
▁tent	-3775
▁Mummy	-3776
▁coche	-3777
▁compl	-3778
▁desen	-3779
▁enter	-3780
▁fence	-3781
▁levou	-3782
▁nomes	-3783
▁pegou	-3784
▁rocks	-3785
▁smell	-3786
irthday	-3787
▁almoço	-3788
▁carrot	-3789
▁chapéo	-3790
▁corner	-3791
▁deante	-3792
▁descob	-3793
▁filhos	-3794
▁fronte	-3795
▁matter	-3796
▁morreu	-3797
▁motivo	-3798
▁Grandma	-3799
▁accresc	-3800
▁deixava	-3801
▁impress	-3802
▁wearing	-3803
▁conhecia	-3804
▁interest	-3805
▁provavel	-3806
of	-3807
ér	-3808
!--	-3809
ize	-3810
jos	-3811
ugg	-3812
▁Ia	-3813
iava	-3814
ndos	-3815
orda	-3816
pill	-3817
undo	-3818
▁Hum	-3819
▁Rio	-3820
▁cem	-3821
▁eag	-3822
▁gar	-3823
▁glo	-3824
▁hop	-3825
▁lua	-3826
ivers	-3827
ostos	-3828
ouros	-3829
▁Euro	-3830
▁cujo	-3831
▁demo	-3832
▁depe	-3833
▁dera	-3834
▁mesa	-3835
▁ouvi	-3836
▁pend	-3837
▁shel	-3838
▁suje	-3839
▁taes	-3840
itting	-3841
▁abrir	-3842
▁acção	-3843
▁beijo	-3844
▁brown	-3845
▁clara	-3846
▁damas	-3847
▁gover	-3848
▁pedra	-3849
▁revol	-3850
▁rumor	-3851
▁threw	-3852
▁twins	-3853
▁visto	-3854
▁whist	-3855
▁Isabel	-3856
▁antiga	-3857
▁bought	-3858
▁branch	-3859
▁flores	-3860
▁jungle	-3861
▁number	-3862
▁spider	-3863
▁acabava	-3864
▁acompan	-3865
▁collect	-3866
▁theatro	-3867
▁vestido	-3868
▁daquelle	-3869
▁daughter	-3870
▁ferrador	-3871
▁saudades	-3872
▁explained	-3873
▁interesse	-3874
▁proposito	-3875
Se	-3876
ui	-3877
xa	-3878
jas	-3879
▁Ás	-3880
anut	-3881
eliz	-3882
orta	-3883
▁Cos	-3884
▁Faz	-3885
▁bow	-3886
▁cão	-3887
▁dôr	-3888
▁egg	-3889
▁lad	-3890
▁pôr	-3891
▁têm	-3892
eiras	-3893
gante	-3894
iente	-3895
▁Isto	-3896
▁Olha	-3897
▁azul	-3898
▁bone	-3899
▁coin	-3900
▁ergu	-3901
▁foot	-3902
▁last	-3903
▁lift	-3904
▁mole	-3905
▁saiu	-3906
▁vale	-3907
▁Later	-3908
▁broke	-3909
▁carre	-3910
▁envol	-3911
▁escut	-3912
▁flore	-3913
▁inqui	-3914
▁longa	-3915
▁piece	-3916
▁round	-3917
▁sorte	-3918
▁tirou	-3919
▁tomar	-3920
▁unica	-3921
amentos	-3922
▁Europa	-3923
▁mandou	-3924
▁tempos	-3925
▁chacara	-3926
▁desconf	-3927
▁dropped	-3928
▁recebeu	-3929
▁birthday	-3930
▁extraord	-3931
▁houvesse	-3932
▁lembrança	-3933
▁esperanças	-3934
ôa	-3935
ang	-3936
fer	-3937
oph	-3938
ancy	-3939
arem	-3940
cera	-3941
elas	-3942
fish	-3943
ordo	-3944
outh	-3945
sigo	-3946
teve	-3947
▁alm	-3948
▁aus	-3949
▁lat	-3950
▁mui	-3951
▁pad	-3952
▁rub	-3953
▁Gama	-3954
▁Lobo	-3955
▁bell	-3956
▁cone	-3957
▁goat	-3958
▁grou	-3959
▁lett	-3960
▁phys	-3961
▁puro	-3962
buquer	-3963
▁Mouro	-3964
▁Neves	-3965
▁angel	-3966
▁chair	-3967
▁chest	-3968
▁defin	-3969
▁fairy	-3970
▁folha	-3971
▁lunch	-3972
▁motor	-3973
▁neste	-3974
▁novas	-3975
▁whole	-3976
▁águas	-3977
quelles	-3978
▁colour	-3979
▁contou	-3980
▁dellas	-3981
▁futuro	-3982
▁imagem	-3983
▁letter	-3984
▁nossas	-3985
▁Aymorés	-3986
▁comsigo	-3987
▁crayons	-3988
▁gostava	-3989
▁healthy	-3990
▁parecer	-3991
▁smiling	-3992
▁Marcella	-3993
▁appeared	-3994
▁janellas	-3995
▁neighbor	-3996
▁companhia	-3997
▁determined	-3998
Oh	-3999
we	-4000
bow	-4001
cle	-4002
ity	-4003
wel	-4004
▁Ab	-4005
▁Ad	-4006
▁Gl	-4007
▁Pe	-4008
▁nu	-4009
ible	-4010
ices	-4011
irei	-4012
isso	-4013
omia	-4014
orro	-4015
used	-4016
çava	-4017
▁Pro	-4018
▁etc	-4019
▁vex	-4020
▁vig	-4021
erior	-4022
ingua	-4023
▁Even	-4024
▁blew	-4025
▁boca	-4026
▁duro	-4027
▁esqu	-4028
▁fero	-4029
▁flor	-4030
▁fold	-4031
▁gift	-4032
▁pull	-4033
▁raio	-4034
▁warn	-4035
ophilo	-4036
▁Bobby	-4037
▁Emily	-4038
▁carry	-4039
▁dever	-4040
▁donde	-4041
▁escap	-4042
▁faces	-4043
▁liber	-4044
▁major	-4045
▁somno	-4046
▁soube	-4047
▁spicy	-4048
▁stone	-4049
▁asleep	-4050
▁driver	-4051
▁feitos	-4052
▁podiam	-4053
▁remind	-4054
▁sorriu	-4055
▁vieram	-4056
▁Capitão	-4057
▁carried	-4058
▁conserv	-4059
▁contava	-4060
▁content	-4061
▁problem	-4062
▁reflect	-4063
▁visinha	-4064
▁Albuquer	-4065
▁creatura	-4066
▁returned	-4067
▁situação	-4068
▁superior	-4069
▁vingança	-4070
▁realmente	-4071
▁selvagens	-4072
▁interesting	-4073
▁companheiros	-4074
Qu	-4075
rá	-4076
bot	-4077
cão	-4078
deu	-4079
far	-4080
ife	-4081
ipe	-4082
ndi	-4083
own	-4084
ten	-4085
ãos	-4086
▁Tu	-4087
▁ci	-4088
acia	-4089
adow	-4090
hile	-4091
itei	-4092
udes	-4093
veis	-4094
▁Dom	-4095
▁abo	-4096
▁art	-4097
▁dor	-4098
▁gan	-4099
▁kno	-4100
▁led	-4101
▁log	-4102
aring	-4103
elhos	-4104
gonha	-4105
hazar	-4106
radas	-4107
tidão	-4108
▁Mais	-4109
▁Quiz	-4110
▁abra	-4111
▁arms	-4112
▁guer	-4113
▁indo	-4114
▁mach	-4115
▁murm	-4116
▁pill	-4117
▁seat	-4118
▁sete	-4119
▁sust	-4120
▁teus	-4121
arenta	-4122
ittens	-4123
ndable	-4124
▁appro	-4125
▁group	-4126
▁hours	-4127
▁quaes	-4128
▁senti	-4129
▁songs	-4130
▁storm	-4131
▁visse	-4132
▁viuva	-4133
▁write	-4134
▁Nenhum	-4135
▁answer	-4136
▁become	-4137
▁meadow	-4138
▁partes	-4139
▁quinze	-4140
▁talked	-4141
idamente	-4142
▁cadeira	-4143
▁certeza	-4144
▁olhando	-4145
▁rainbow	-4146
▁sitting	-4147
▁talking	-4148
▁circumst	-4149
▁explicar	-4150
▁intellig	-4151
▁senhoras	-4152
▁sensação	-4153
▁wondered	-4154
▁estivesse	-4155
▁Entretanto	-4156
▁differença	-4157
▁finalmente	-4158
▁inteiramente	-4159
De	-4160
ai	-4161
lu	-4162
dem	-4163
jug	-4164
old	-4165
peu	-4166
▁Ex	-4167
▁há	-4168
▁mi	-4169
arou	-4170
cles	-4171
enso	-4172
rank	-4173
usto	-4174
▁Nas	-4175
▁dei	-4176
▁dil	-4177
▁enx	-4178
▁lei	-4179
forta	-4180
▁Balt	-4181
▁Qual	-4182
▁gara	-4183
▁mail	-4184
▁pris	-4185
▁puzz	-4186
▁sold	-4187
avamos	-4188
▁Susie	-4189
▁accid	-4190
▁atrav	-4191
▁collo	-4192
▁derra	-4193
▁dessa	-4194
▁enfer	-4195
▁extre	-4196
▁facil	-4197
▁firme	-4198
▁float	-4199
▁grave	-4200
▁hello	-4201
▁peace	-4202
▁recus	-4203
▁shirt	-4204
▁stood	-4205
▁wants	-4206
▁Gloria	-4207
▁afflic	-4208
▁belong	-4209
▁bottle	-4210
▁escada	-4211
▁fallou	-4212
▁humano	-4213
▁lingua	-4214
▁medico	-4215
▁obriga	-4216
▁pensar	-4217
▁portas	-4218
▁recomm	-4219
▁thinks	-4220
fortable	-4221
icamente	-4222
▁Justina	-4223
▁compara	-4224
▁consent	-4225
▁especie	-4226
▁forward	-4227
▁gracios	-4228
▁patient	-4229
▁restitu	-4230
▁mountain	-4231
▁naquella	-4232
▁Balthazar	-4233
▁estrellas	-4234
▁Everywhere	-4235
▁imaginação	-4236
▁Albuquerque	-4237
Wow	-4238
eth	-4239
ges	-4240
tal	-4241
▁ep	-4242
▁ja	-4243
arei	-4244
avia	-4245
brir	-4246
icou	-4247
ilhe	-4248
omet	-4249
pção	-4250
uros	-4251
▁Eze	-4252
▁Ora	-4253
▁Sol	-4254
▁rir	-4255
▁wel	-4256
Mommy	-4257
aculo	-4258
iando	-4259
iliar	-4260
ravam	-4261
▁Andy	-4262
▁Fred	-4263
▁além	-4264
▁aspe	-4265
▁clay	-4266
▁coll	-4267
▁cres	-4268
▁flut	-4269
▁nest	-4270
▁rele	-4271
▁roll	-4272
▁stir	-4273
▁wish	-4274
▁Creio	-4275
▁Human	-4276
▁Minha	-4277
▁Sammy	-4278
▁baile	-4279
▁belle	-4280
▁bounc	-4281
▁casas	-4282
▁deput	-4283
▁edade	-4284
▁linda	-4285
▁mummy	-4286
▁piano	-4287
▁plano	-4288
▁sandw	-4289
▁santa	-4290
▁shook	-4291
▁tiger	-4292
▁which	-4293
▁brilha	-4294
▁consel	-4295
▁criado	-4296
▁doente	-4297
▁figure	-4298
▁insist	-4299
▁numero	-4300
▁peanut	-4301
▁receio	-4302
▁scream	-4303
▁swings	-4304
▁tinhão	-4305
▁versos	-4306
▁bedroom	-4307
▁persist	-4308
▁receber	-4309
▁respect	-4310
▁ventura	-4311
▁confused	-4312
▁ministro	-4313
▁quarenta	-4314
▁whenever	-4315
),	-4316
fé	-4317
gy	-4318
lig	-4319
nic	-4320
rse	-4321
til	-4322
xim	-4323
▁Me	-4324
▁Ol	-4325
▁Ro	-4326
▁Un	-4327
▁Vi	-4328
▁hy	-4329
arte	-4330
enos	-4331
▁Cal	-4332
▁Céu	-4333
▁Meu	-4334
▁Tão	-4335
▁key	-4336
▁pin	-4337
▁shy	-4338
▁sna	-4339
ereis	-4340
logio	-4341
quiel	-4342
▁calm	-4343
▁eras	-4344
▁luta	-4345
▁naus	-4346
▁pecc	-4347
▁sett	-4348
adores	-4349
erpill	-4350
▁Cosme	-4351
▁Porto	-4352
▁giant	-4353
▁livre	-4354
▁mouth	-4355
▁nariz	-4356
▁olhou	-4357
▁perdo	-4358
▁prova	-4359
▁quant	-4360
▁remor	-4361
▁throw	-4362
▁trust	-4363
▁valor	-4364
▁vivia	-4365
▁Johnny	-4366
▁convid	-4367
▁deixei	-4368
▁despre	-4369
▁dissim	-4370
▁engano	-4371
▁garage	-4372
▁gestos	-4373
▁mandar	-4374
▁olhava	-4375
▁semana	-4376
▁servir	-4377
▁Janeiro	-4378
▁direita	-4379
▁entrada	-4380
▁fizesse	-4381
▁instead	-4382
▁interro	-4383
▁segunda	-4384
▁village	-4385
▁visitas	-4386
▁Ezequiel	-4387
▁promessa	-4388
▁sorrindo	-4389
▁suspeita	-4390
▁caterpill	-4391
ti	-4392
III	-4393
aca	-4394
ody	-4395
oom	-4396
çal	-4397
▁Cu	-4398
▁às	-4399
....	-4400
eles	-4401
isar	-4402
java	-4403
onho	-4404
orte	-4405
vado	-4406
▁Cru	-4407
▁Mat	-4408
▁ast	-4409
▁bri	-4410
▁eas	-4411
▁egu	-4412
▁ira	-4413
▁net	-4414
▁pop	-4415
▁sob	-4416
cação	-4417
iquei	-4418
light	-4419
rated	-4420
▁amiz	-4421
▁caus	-4422
▁cute	-4423
▁deco	-4424
▁diga	-4425
▁dono	-4426
▁feet	-4427
▁forg	-4428
▁mise	-4429
▁neck	-4430
▁obst	-4431
▁pile	-4432
▁recu	-4433
▁rope	-4434
▁sobe	-4435
▁soce	-4436
▁teim	-4437
▁volt	-4438
▁água	-4439
▁Alice	-4440
▁acaso	-4441
▁exerc	-4442
▁fancy	-4443
▁honra	-4444
▁infin	-4445
▁morta	-4446
▁obser	-4447
▁relia	-4448
▁robot	-4449
▁vagar	-4450
▁conven	-4451
▁correu	-4452
▁imagin	-4453
▁lovely	-4454
▁melanc	-4455
▁object	-4456
▁viesse	-4457
adamente	-4458
▁covered	-4459
▁destino	-4460
▁espanto	-4461
▁fizeram	-4462
▁jumping	-4463
▁respira	-4464
▁segredo	-4465
▁waiting	-4466
▁adivinha	-4467
▁concluiu	-4468
▁desgraça	-4469
▁entender	-4470
▁esquerda	-4471
▁philosop	-4472
▁presente	-4473
▁presença	-4474
▁standing	-4475
▁colourful	-4476
▁primeiras	-4477
▁corregedor	-4478
▁caterpillar	-4479
▁companheiro	-4480
Do	-4481
sy	-4482
uei	-4483
▁An	-4484
▁Dr	-4485
brou	-4486
ntei	-4487
owed	-4488
reen	-4489
rido	-4490
▁Bar	-4491
▁Lhe	-4492
▁Tem	-4493
▁sne	-4494
▁zoo	-4495
imbra	-4496
reiro	-4497
respo	-4498
vendo	-4499
▁alhe	-4500
▁bons	-4501
▁grab	-4502
▁grew	-4503
▁hero	-4504
▁ilha	-4505
▁muro	-4506
▁past	-4507
▁wave	-4508
cidade	-4509
entava	-4510
iffere	-4511
itação	-4512
▁aguas	-4513
▁apare	-4514
▁brush	-4515
▁drive	-4516
▁eager	-4517
▁lugar	-4518
▁resta	-4519
▁tirar	-4520
▁turns	-4521
▁abaixo	-4522
▁adorme	-4523
▁course	-4524
▁descer	-4525
▁espada	-4526
▁forget	-4527
▁fortes	-4528
▁obsequ	-4529
▁ouvira	-4530
▁phrase	-4531
▁picnic	-4532
▁tasted	-4533
▁trouxe	-4534
cimentos	-4535
▁materia	-4536
▁pudesse	-4537
▁sentido	-4538
▁tightly	-4539
▁accident	-4540
▁attenção	-4541
▁naquelle	-4542
▁relações	-4543
▁selvagem	-4544
▁confiança	-4545
▁dependable	-4546
;--	-4547
bas	-4548
emn	-4549
erá	-4550
gio	-4551
noc	-4552
poz	-4553
sei	-4554
ães	-4555
▁ev	-4556
▁és	-4557
come	-4558
ones	-4559
pare	-4560
tion	-4561
ubas	-4562
util	-4563
ôres	-4564
▁Tra	-4565
▁bac	-4566
▁dol	-4567
▁ras	-4568
▁ria	-4569
▁sep	-4570
alous	-4571
andon	-4572
ativa	-4573
estia	-4574
hered	-4575
istas	-4576
ortun	-4577
umpto	-4578
▁Alex	-4579
▁Bent	-4580
▁abat	-4581
▁aman	-4582
▁anjo	-4583
▁apos	-4584
▁blow	-4585
▁bull	-4586
▁cair	-4587
▁cedo	-4588
▁desv	-4589
▁fina	-4590
▁fria	-4591
▁gigg	-4592
▁tens	-4593
▁week	-4594
▁Today	-4595
▁While	-4596
▁autor	-4597
▁chain	-4598
▁irmão	-4599
▁large	-4600
▁loves	-4601
▁plane	-4602
▁sacud	-4603
▁splas	-4604
▁teach	-4605
perador	-4606
▁anyone	-4607
▁concer	-4608
▁estado	-4609
▁fizera	-4610
▁gently	-4611
▁hidden	-4612
▁incred	-4613
▁sentir	-4614
▁terror	-4615
▁Coimbra	-4616
▁abandon	-4617
▁belleza	-4618
▁feather	-4619
▁helpful	-4620
▁jealous	-4621
▁minutes	-4622
▁officio	-4623
▁recorda	-4624
▁skipped	-4625
▁Bentinho	-4626
▁affeição	-4627
▁assumpto	-4628
▁aventura	-4629
▁discurso	-4630
▁profundo	-4631
▁reliable	-4632
▁singular	-4633
▁embarrass	-4634
▁indiffere	-4635
▁justamente	-4636
▁mysterious	-4637
▁philosophia	-4638
Eu	-4639
áb	-4640
ór	-4641
ará	-4642
▁Im	-4643
acto	-4644
aver	-4645
ball	-4646
cada	-4647
ibus	-4648
idge	-4649
rise	-4650
umpy	-4651
▁Dan	-4652
▁Ped	-4653
▁Pou	-4654
▁Ted	-4655
▁Tha	-4656
▁fis	-4657
▁lay	-4658
▁nau	-4659
▁pát	-4660
anças	-4661
cient	-4662
orreu	-4663
prehe	-4664
rasse	-4665
teiro	-4666
uring	-4667
▁Olhe	-4668
▁Sanc	-4669
▁acto	-4670
▁apre	-4671
▁arma	-4672
▁atre	-4673
▁bald	-4674
▁band	-4675
▁chew	-4676
▁cruz	-4677
▁mine	-4678
▁nose	-4679
▁nove	-4680
▁pack	-4681
▁recl	-4682
▁resp	-4683
▁sobr	-4684
▁sque	-4685
▁stud	-4686
▁Peter	-4687
▁anima	-4688
▁attra	-4689
▁benef	-4690
▁cheer	-4691
▁impac	-4692
▁innoc	-4693
▁nesta	-4694
▁perfe	-4695
aquella	-4696
▁Mouros	-4697
▁Thadeu	-4698
▁camara	-4699
▁dormir	-4700
▁doutor	-4701
▁mesmos	-4702
▁noites	-4703
▁passed	-4704
▁pillow	-4705
▁plants	-4706
▁salvar	-4707
▁satisf	-4708
▁sleepy	-4709
▁splash	-4710
▁sympat	-4711
▁aspecto	-4712
▁coragem	-4713
▁estreme	-4714
▁hopping	-4715
▁immedia	-4716
▁piedade	-4717
▁poderia	-4718
▁ultimos	-4719
▁atravess	-4720
▁difficil	-4721
▁floresta	-4722
▁maneiras	-4723
▁Theophilo	-4724
▁realidade	-4725
▁resolução	-4726
▁excitement	-4727
Po	-4728
õe	-4729
cta	-4730
lli	-4731
nce	-4732
nia	-4733
pas	-4734
rum	-4735
são	-4736
xto	-4737
▁Ge	-4738
▁sy	-4739
ator	-4740
cano	-4741
hose	-4742
ione	-4743
orge	-4744
port	-4745
raid	-4746
vant	-4747
▁Lem	-4748
▁aqu	-4749
▁emo	-4750
▁mid	-4751
▁nuv	-4752
▁rei	-4753
▁tit	-4754
▁vit	-4755
actus	-4756
ariam	-4757
creto	-4758
orrow	-4759
▁Some	-4760
▁azas	-4761
▁cach	-4762
▁dahi	-4763
▁fork	-4764
▁prox	-4765
▁reco	-4766
▁ring	-4767
▁seek	-4768
▁sour	-4769
▁spin	-4770
▁trib	-4771
▁weak	-4772
▁Diabo	-4773
▁appre	-4774
▁bilhe	-4775
▁cheio	-4776
▁cross	-4777
▁deser	-4778
▁final	-4779
▁frust	-4780
▁idéas	-4781
▁vinho	-4782
▁acudiu	-4783
▁afinal	-4784
▁afraid	-4785
▁armada	-4786
▁corria	-4787
▁esposa	-4788
▁eterna	-4789
▁excell	-4790
▁expect	-4791
▁guarda	-4792
▁sentar	-4793
▁sentiu	-4794
▁arvores	-4795
▁conside	-4796
▁ouvindo	-4797
▁univers	-4798
▁começava	-4799
▁esquecer	-4800
▁quizesse	-4801
▁happening	-4802
▁recommend	-4803
▁trabalhos	-4804
▁Eventually	-4805
▁entretanto	-4806
▁existencia	-4807
fo	-4808
?".	-4809
Why	-4810
col	-4811
gal	-4812
las	-4813
por	-4814
ray	-4815
uas	-4816
▁Mu	-4817
▁fé	-4818
ciam	-4819
edio	-4820
esar	-4821
ntem	-4822
utos	-4823
▁Cas	-4824
▁Fui	-4825
▁Ouv	-4826
▁cos	-4827
▁det	-4828
▁las	-4829
▁leu	-4830
▁mer	-4831
▁paw	-4832
▁saí	-4833
▁vas	-4834
ceram	-4835
deiro	-4836
essas	-4837
isboa	-4838
mento	-4839
▁Braz	-4840
▁ante	-4841
▁apag	-4842
▁card	-4843
▁caut	-4844
▁cent	-4845
▁cort	-4846
▁drum	-4847
▁kick	-4848
▁king	-4849
▁maze	-4850
▁road	-4851
▁roof	-4852
▁true	-4853
ristão	-4854
▁Santa	-4855
▁assom	-4856
▁comer	-4857
▁costa	-4858
▁curta	-4859
▁fazel	-4860
▁geral	-4861
▁golpe	-4862
▁grace	-4863
▁later	-4864
▁metal	-4865
▁nelle	-4866
▁nessa	-4867
▁orgul	-4868
▁preci	-4869
▁revel	-4870
▁subst	-4871
▁trist	-4872
▁Falcão	-4873
▁Little	-4874
▁Sabina	-4875
▁cactus	-4876
▁compet	-4877
▁correr	-4878
▁doming	-4879
▁hiding	-4880
▁ladder	-4881
▁middle	-4882
▁misera	-4883
▁vencer	-4884
▁amizade	-4885
▁chegava	-4886
▁condemn	-4887
▁ilustre	-4888
▁nervous	-4889
▁reconhe	-4890
▁somente	-4891
▁anterior	-4892
▁aquelles	-4893
▁creature	-4894
▁gathered	-4895
▁interess	-4896
▁pergunta	-4897
▁admiração	-4898
▁pretended	-4899
▁cavalheiro	-4900
▁understood	-4901
XXX	-4902
cel	-4903
gly	-4904
hus	-4905
oma	-4906
çam	-4907
▁Ap	-4908
▁Pó	-4909
▁lh	-4910
▁lu	-4911
ache	-4912
andy	-4913
body	-4914
culo	-4915
erno	-4916
sage	-4917
trim	-4918
urry	-4919
▁Mag	-4920
▁Rem	-4921
▁agu	-4922
▁alt	-4923
▁cri	-4924
▁duz	-4925
▁nav	-4926
▁pul	-4927
▁saf	-4928
▁uso	-4929
▁vêm	-4930
berto	-4931
elhan	-4932
ommod	-4933
urous	-4934
▁Segu	-4935
▁Sent	-4936
▁Você	-4937
▁ener	-4938
▁exec	-4939
▁exig	-4940
▁fasc	-4941
▁flôr	-4942
▁gold	-4943
▁hipp	-4944
▁knee	-4945
▁leis	-4946
▁rico	-4947
▁rubb	-4948
▁seed	-4949
▁ugly	-4950
▁zoom	-4951
issima	-4952
ourite	-4953
umbled	-4954
▁Cubas	-4955
▁Disse	-4956
▁Somet	-4957
▁aliás	-4958
▁amare	-4959
▁basta	-4960
▁board	-4961
▁cheia	-4962
▁comet	-4963
▁cruel	-4964
▁idade	-4965
▁larga	-4966
▁lemon	-4967
▁lingu	-4968
▁parou	-4969
▁preto	-4970
▁rindo	-4971
▁twirl	-4972
▁valia	-4973
▁veget	-4974
▁Cotrim	-4975
▁Lisboa	-4976
▁alvoro	-4977
▁chamou	-4978
▁eraser	-4979
▁ignora	-4980
▁inveja	-4981
▁market	-4982
▁moving	-4983
▁pensou	-4984
▁signal	-4985
▁tornar	-4986
▁treats	-4987
▁venced	-4988
▁voltar	-4989
itamente	-4990
▁Camilla	-4991
▁attribu	-4992
▁cerebro	-4993
▁compass	-4994
▁importa	-4995
▁knowing	-4996
▁relogio	-4997
▁sparkly	-4998
▁sómente	-4999
▁cachorro	-5000
▁costumes	-5001
▁dissesse	-5002
▁estendeu	-5003
▁original	-5004
▁passando	-5005
▁trabalha	-5006
▁tristeza	-5007
▁favourite	-5008
▁principal	-5009
▁responder	-5010
▁continuava	-5011
▁sacrificio	-5012
▁adventurous	-5013
▁conversação	-5014
▁embarrassed	-5015
als	-5016
cei	-5017
pol	-5018
unk	-5019
...»	-5020
adua	-5021
alia	-5022
char	-5023
gada	-5024
gust	-5025
▁Bem	-5026
▁Mon	-5027
▁Nin	-5028
▁hei	-5029
▁hit	-5030
▁lia	-5031
▁mos	-5032
▁pil	-5033
▁pun	-5034
▁tum	-5035
cesse	-5036
inada	-5037
lease	-5038
ostas	-5039
▁Cruz	-5040
▁bees	-5041
▁camp	-5042
▁harm	-5043
▁hive	-5044
▁inde	-5045
▁nuts	-5046
▁orel	-5047
▁pira	-5048
▁poor	-5049
▁ruas	-5050
▁tele	-5051
▁trip	-5052
ulares	-5053
▁Conhe	-5054
▁Maybe	-5055
▁Padua	-5056
▁Polly	-5057
▁Villa	-5058
▁cloud	-5059
▁crime	-5060
▁deixa	-5061
▁desem	-5062
▁dirig	-5063
▁dizem	-5064
▁enche	-5065
▁feita	-5066
▁hippo	-5067
▁mande	-5068
▁often	-5069
▁opera	-5070
▁penet	-5071
▁saved	-5072
▁shore	-5073
▁solve	-5074
entando	-5075
▁alcanç	-5076
▁almost	-5077
▁bonito	-5078
▁chased	-5079
▁consol	-5080
▁deitou	-5081
▁distra	-5082
▁divina	-5083
▁duvida	-5084
▁mortos	-5085
▁neighb	-5086
▁presid	-5087
▁provin	-5088
▁smelly	-5089
▁univer	-5090
▁velhas	-5091
▁antigos	-5092
▁cadaver	-5093
▁capitão	-5094
▁criados	-5095
▁fortuna	-5096
▁holding	-5097
▁perdido	-5098
▁posição	-5099
▁recolhe	-5100
▁supplic	-5101
▁tornava	-5102
▁ausencia	-5103
▁contente	-5104
▁lembrava	-5105
▁melhores	-5106
▁parentes	-5107
▁thankful	-5108
▁desespero	-5109
▁liberdade	-5110
▁perguntar	-5111
▁discovered	-5112
▁frustrated	-5113
bl	-5114
Com	-5115
Por	-5116
The	-5117
con	-5118
irp	-5119
pta	-5120
rap	-5121
tti	-5122
▁Ru	-5123
▁Vá	-5124
Okay	-5125
bara	-5126
cura	-5127
edas	-5128
igar	-5129
rina	-5130
vava	-5131
year	-5132
▁Dem	-5133
▁Jul	-5134
▁ajo	-5135
▁arg	-5136
▁fór	-5137
▁law	-5138
▁piz	-5139
▁tag	-5140
▁tid	-5141
▁tun	-5142
▁vil	-5143
ighed	-5144
izard	-5145
osaur	-5146
tivos	-5147
▁Logo	-5148
▁anda	-5149
▁easy	-5150
▁fear	-5151
▁frag	-5152
▁hope	-5153
▁once	-5154
▁outr	-5155
▁quad	-5156
▁rich	-5157
▁vara	-5158
issimo	-5159
▁Antes	-5160
▁Grace	-5161
▁almas	-5162
▁arrow	-5163
▁batia	-5164
▁brand	-5165
▁chama	-5166
▁coisa	-5167
▁couch	-5168
▁direi	-5169
▁dizzy	-5170
▁egual	-5171
▁impro	-5172
▁lenço	-5173
▁lucky	-5174
▁pagar	-5175
▁prata	-5176
▁preço	-5177
▁sonho	-5178
▁sorts	-5179
▁sugar	-5180
▁tocar	-5181
alidade	-5182
▁George	-5183
▁acções	-5184
▁amante	-5185
▁assist	-5186
▁breath	-5187
▁destro	-5188
▁encost	-5189
▁esteve	-5190
▁exprim	-5191
▁fluffy	-5192
▁gloria	-5193
▁longos	-5194
▁metteu	-5195
▁mostra	-5196
▁musica	-5197
▁querer	-5198
▁seguro	-5199
▁ventos	-5200
osamente	-5201
▁Mittens	-5202
▁aquillo	-5203
▁cheguei	-5204
▁joelhos	-5205
▁perigos	-5206
▁regular	-5207
▁smelled	-5208
entamente	-5209
▁bastante	-5210
▁cocheiro	-5211
▁deixando	-5212
▁distance	-5213
▁generous	-5214
▁minister	-5215
▁mysterio	-5216
▁stronger	-5217
▁terceiro	-5218
▁tomorrow	-5219
▁Portugues	-5220
▁appareceu	-5221
▁confessou	-5222
▁delighted	-5223
▁esperando	-5224
▁persistent	-5225
▁disappeared	-5226
▁provavelmente	-5227
ks	-5228
».	-5229
œI	-5230
Hey	-5231
box	-5232
cce	-5233
eze	-5234
pet	-5235
rug	-5236
vou	-5237
▁Ay	-5238
▁Cl	-5239
▁Lu	-5240
▁TV	-5241
▁Vê	-5242
aqui	-5243
bral	-5244
ecdo	-5245
irar	-5246
iria	-5247
onso	-5248
ptor	-5249
umas	-5250
ured	-5251
vore	-5252
▁Ali	-5253
▁Dio	-5254
▁Rec	-5255
▁Ver	-5256
▁deb	-5257
▁laz	-5258
▁orn	-5259
▁pux	-5260
▁sof	-5261
▁tan	-5262
▁tas	-5263
▁tie	-5264
▁vac	-5265
acava	-5266
arias	-5267
enove	-5268
esses	-5269
ggest	-5270
icios	-5271
ndido	-5272
usual	-5273
▁Pela	-5274
▁advo	-5275
▁ajud	-5276
▁alco	-5277
▁boas	-5278
▁cher	-5279
▁coat	-5280
▁cura	-5281
▁juiz	-5282
▁loja	-5283
▁milk	-5284
▁ones	-5285
▁pepp	-5286
▁rica	-5287
▁roça	-5288
▁scoo	-5289
▁star	-5290
▁suff	-5291
ancias	-5292
husias	-5293
iterio	-5294
lmente	-5295
▁Desde	-5296
▁above	-5297
▁apert	-5298
▁casos	-5299
▁chose	-5300
▁culpa	-5301
▁daqui	-5302
▁davam	-5303
▁delir	-5304
▁facto	-5305
▁fazem	-5306
▁furry	-5307
▁grito	-5308
▁jelly	-5309
▁mista	-5310
▁modos	-5311
▁novos	-5312
▁phone	-5313
▁rapar	-5314
▁spend	-5315
redores	-5316
▁anecdo	-5317
▁assass	-5318
▁consul	-5319
▁desast	-5320
▁descul	-5321
▁dessas	-5322
▁escura	-5323
▁fechou	-5324
▁festas	-5325
▁hosped	-5326
▁perdeu	-5327
▁perdão	-5328
▁produz	-5329
▁public	-5330
▁sailor	-5331
▁snacks	-5332
▁sorria	-5333
▁sticks	-5334
▁Andrade	-5335
▁bilhete	-5336
▁cuidava	-5337
▁debaixo	-5338
▁formosa	-5339
▁mostrou	-5340
▁serious	-5341
▁suggest	-5342
▁unusual	-5343
▁vaidade	-5344
▁branches	-5345
▁building	-5346
▁conhecer	-5347
▁conversa	-5348
▁deputado	-5349
▁dinosaur	-5350
▁intenção	-5351
▁melancol	-5352
▁pensando	-5353
▁terrivel	-5354
▁academico	-5355
▁imperador	-5356
▁impressão	-5357
▁philosopho	-5358
▁aventureiro	-5359
▁accidentally	-5360
▁principalmente	-5361
uo	-5362
bos	-5363
ene	-5364
hic	-5365
ilt	-5366
iqu	-5367
ona	-5368
pus	-5369
vet	-5370
▁Ho	-5371
▁St	-5372
▁oy	-5373
▁yo	-5374
Good	-5375
Lily	-5376
Pois	-5377
cion	-5378
erei	-5379
orna	-5380
ring	-5381
rote	-5382
tica	-5383
tory	-5384
usta	-5385
▁Fre	-5386
▁Gon	-5387
▁Mrs	-5388
▁Res	-5389
▁dão	-5390
▁fab	-5391
▁fôr	-5392
▁lut	-5393
▁mez	-5394
▁pan	-5395
▁rot	-5396
▁tea	-5397
▁whe	-5398
aking	-5399
antas	-5400
ativo	-5401
ifica	-5402
intal	-5403
iveis	-5404
ordou	-5405
risto	-5406
▁Lisa	-5407
▁cush	-5408
▁enca	-5409
▁hugs	-5410
▁immo	-5411
▁iron	-5412
▁lock	-5413
▁moon	-5414
▁onze	-5415
▁ship	-5416
▁veio	-5417
estade	-5418
ointed	-5419
▁Tanto	-5420
▁absol	-5421
▁amada	-5422
▁baixa	-5423
▁brill	-5424
▁crawl	-5425
▁disso	-5426
▁divid	-5427
▁emend	-5428
▁espre	-5429
▁excel	-5430
▁flash	-5431
▁habit	-5432
▁kinds	-5433
▁obras	-5434
▁point	-5435
▁print	-5436
▁reino	-5437
▁shelf	-5438
▁shell	-5439
▁stret	-5440
▁stuff	-5441
▁taken	-5442
▁taste	-5443
▁vehic	-5444
▁vossa	-5445
▁vulto	-5446
▁wagon	-5447
▁wrote	-5448
ioneiro	-5449
▁Alguns	-5450
▁arvore	-5451
▁asking	-5452
▁chocol	-5453
▁commum	-5454
▁contin	-5455
▁descre	-5456
▁divers	-5457
▁doença	-5458
▁estima	-5459
▁eterno	-5460
▁frente	-5461
▁glória	-5462
▁grumpy	-5463
▁honest	-5464
▁juntos	-5465
▁pagina	-5466
▁pátria	-5467
▁rocket	-5468
▁screen	-5469
▁sequer	-5470
▁stones	-5471
▁taught	-5472
▁yelled	-5473
▁circles	-5474
▁dancing	-5475
▁delirio	-5476
▁domingo	-5477
▁especia	-5478
▁knocked	-5479
▁licença	-5480
▁perform	-5481
▁practic	-5482
▁quintal	-5483
▁sharing	-5484
▁Emquanto	-5485
▁conselho	-5486
▁corredor	-5487
▁creative	-5488
▁cuidados	-5489
▁medicine	-5490
▁profunda	-5491
▁reflexão	-5492
▁stumbled	-5493
▁thinking	-5494
▁Sometimes	-5495
▁cemiterio	-5496
▁cincoenta	-5497
▁confessar	-5498
▁enthusias	-5499
▁respondia	-5500
▁ministerio	-5501
▁perguntava	-5502
▁pensamentos	-5503
▁prisioneiro	-5504
▁disappointed	-5505
_.	-5506
fl	-5507
ón	-5508
óp	-5509
ato	-5510
bia	-5511
hom	-5512
ibe	-5513
pty	-5514
wor	-5515
ylo	-5516
▁Er	-5517
▁Gu	-5518
▁om	-5519
amou	-5520
ared	-5521
ated	-5522
cias	-5523
cied	-5524
cter	-5525
irst	-5526
land	-5527
lera	-5528
oura	-5529
ques	-5530
roux	-5531
ruct	-5532
tern	-5533
ício	-5534
▁Cor	-5535
▁Hen	-5536
▁Mel	-5537
▁Vos	-5538
▁cel	-5539
▁esm	-5540
▁hav	-5541
▁hol	-5542
▁icy	-5543
Maybe	-5544
culos	-5545
henom	-5546
iness	-5547
ncias	-5548
▁Nada	-5549
▁Tony	-5550
▁caro	-5551
▁char	-5552
▁falt	-5553
▁nota	-5554
▁octo	-5555
▁reve	-5556
▁rude	-5557
▁runs	-5558
▁sant	-5559
▁seda	-5560
▁sick	-5561
▁tras	-5562
▁wake	-5563
▁wide	-5564
▁Thank	-5565
▁Vendo	-5566
▁ajunt	-5567
▁apart	-5568
▁appla	-5569
▁chick	-5570
▁digno	-5571
▁dobra	-5572
▁empty	-5573
▁explo	-5574
▁influ	-5575
▁jewel	-5576
▁lying	-5577
▁march	-5578
▁matar	-5579
▁messy	-5580
▁movie	-5581
▁possa	-5582
▁press	-5583
▁punha	-5584
▁queix	-5585
▁sabor	-5586
▁scena	-5587
▁sight	-5588
▁temer	-5589
osidade	-5590
quellas	-5591
▁Deuses	-5592
▁Parece	-5593
▁advert	-5594
▁calado	-5595
▁casada	-5596
▁clever	-5597
▁desses	-5598
▁distin	-5599
▁escape	-5600
▁escrav	-5601
▁escuro	-5602
▁faziam	-5603
▁graças	-5604
▁hontem	-5605
▁lizard	-5606
▁menino	-5607
▁monkey	-5608
▁oyster	-5609
▁partir	-5610
▁pensei	-5611
▁phenom	-5612
▁pratic	-5613
▁profer	-5614
▁puddle	-5615
▁puzzle	-5616
▁result	-5617
▁sailed	-5618
▁sereno	-5619
▁string	-5620
▁travel	-5621
▁visita	-5622
▁ambição	-5623
▁infeliz	-5624
▁inspira	-5625
▁octopus	-5626
▁promise	-5627
▁publico	-5628
▁welcome	-5629
▁whistle	-5630
▁deixasse	-5631
▁estranha	-5632
▁familiar	-5633
▁learning	-5634
▁pareciam	-5635
▁powerful	-5636
▁projecto	-5637
▁rapariga	-5638
▁realised	-5639
▁sciencia	-5640
▁chocolate	-5641
▁precisava	-5642
▁separação	-5643
But	-5644
bol	-5645
eis	-5646
ese	-5647
mag	-5648
ors	-5649
phe	-5650
rup	-5651
uso	-5652
Come	-5653
Sure	-5654
adia	-5655
brul	-5656
ctos	-5657
erce	-5658
eric	-5659
iada	-5660
irem	-5661
isas	-5662
oman	-5663
onde	-5664
oras	-5665
peis	-5666
wled	-5667
éras	-5668
œLet	-5669
▁Bet	-5670
▁Pre	-5671
▁São	-5672
▁Vou	-5673
▁add	-5674
▁amo	-5675
▁dim	-5676
▁doc	-5677
▁env	-5678
▁fad	-5679
▁irr	-5680
▁paz	-5681
▁pit	-5682
anhas	-5683
besse	-5684
iosos	-5685
teira	-5686
vando	-5687
▁Barb	-5688
▁Toby	-5689
▁aban	-5690
▁alim	-5691
▁café	-5692
▁dign	-5693
▁dona	-5694
▁elog	-5695
▁feed	-5696
▁fund	-5697
▁gray	-5698
▁guil	-5699
▁lead	-5700
▁liqu	-5701
▁oven	-5702
▁reun	-5703
▁skip	-5704
▁tick	-5705
▁view	-5706
ensive	-5707
feitos	-5708
inando	-5709
çalves	-5710
▁aggre	-5711
▁altos	-5712
▁comes	-5713
▁desce	-5714
▁ducks	-5715
▁etern	-5716
▁frequ	-5717
▁incid	-5718
▁meant	-5719
▁memor	-5720
▁nella	-5721
▁poeta	-5722
▁pouca	-5723
▁saude	-5724
▁sharp	-5725
▁tears	-5726
▁temor	-5727
▁times	-5728
▁trick	-5729
▁vamos	-5730
▁vosso	-5731
▁waves	-5732
▁woman	-5733
▁Contra	-5734
▁Outros	-5735
▁Sancha	-5736
▁acanha	-5737
▁bounce	-5738
▁cookie	-5739
▁father	-5740
▁hombro	-5741
▁metter	-5742
▁montes	-5743
▁saying	-5744
▁Freitas	-5745
▁bastava	-5746
▁chamava	-5747
▁comprim	-5748
▁crawled	-5749
▁espelho	-5750
▁leaving	-5751
▁mudança	-5752
▁peccado	-5753
▁physion	-5754
▁refused	-5755
▁semelha	-5756
▁sujeito	-5757
▁trouble	-5758
▁vocação	-5759
▁escripto	-5760
▁levantar	-5761
▁multidão	-5762
▁narração	-5763
▁practice	-5764
▁vergonha	-5765
▁brilliant	-5766
▁descobrir	-5767
▁expensive	-5768
▁neighbour	-5769
▁verdadeiro	-5770
▁visinhança	-5771
▁circumstancias	-5772
ij	-5773
êr	-5774
▁Í	-5775
fas	-5776
inn	-5777
não	-5778
occ	-5779
uce	-5780
▁Ah	-5781
▁Fe	-5782
▁Go	-5783
▁di	-5784
alli	-5785
gest	-5786
hale	-5787
orou	-5788
time	-5789
vers	-5790
▁Flo	-5791
▁Jac	-5792
▁Viu	-5793
▁bub	-5794
▁eff	-5795
▁fio	-5796
▁rig	-5797
▁smo	-5798
▁tow	-5799
arios	-5800
cidas	-5801
elles	-5802
ental	-5803
ostum	-5804
outra	-5805
ready	-5806
▁Reis	-5807
▁agar	-5808
▁apan	-5809
▁desa	-5810
▁desg	-5811
▁desk	-5812
▁dish	-5813
▁glow	-5814
▁grão	-5815
▁leaf	-5816
▁leak	-5817
▁odio	-5818
▁olhe	-5819
▁pant	-5820
▁pear	-5821
▁pele	-5822
▁save	-5823
▁soup	-5824
▁step	-5825
▁tape	-5826
▁wash	-5827
▁Vamos	-5828
▁acima	-5829
▁amado	-5830
▁arras	-5831
▁bater	-5832
▁bench	-5833
▁bordo	-5834
▁canôa	-5835
▁cloth	-5836
▁crack	-5837
▁dalli	-5838
▁duvid	-5839
▁early	-5840
▁estim	-5841
▁feels	-5842
▁festa	-5843
▁forca	-5844
▁kitty	-5845
▁manag	-5846
▁mares	-5847
▁nisto	-5848
▁parar	-5849
▁pizza	-5850
▁shake	-5851
▁torno	-5852
▁troux	-5853
▁verso	-5854
▁weird	-5855
▁whale	-5856
▁Tonica	-5857
▁apolog	-5858
▁apples	-5859
▁barked	-5860
▁boring	-5861
▁bubble	-5862
▁campos	-5863
▁confid	-5864
▁cortez	-5865
▁desceu	-5866
▁divino	-5867
▁dormia	-5868
▁estylo	-5869
▁experi	-5870
▁falava	-5871
▁finish	-5872
▁island	-5873
▁lançou	-5874
▁mighty	-5875
▁papeis	-5876
▁parade	-5877
▁repell	-5878
▁sincer	-5879
▁sounds	-5880
▁wander	-5881
▁already	-5882
▁ancient	-5883
▁blueber	-5884
▁caminha	-5885
▁castigo	-5886
▁confirm	-5887
▁creança	-5888
▁experim	-5889
▁imagina	-5890
▁measure	-5891
▁painted	-5892
▁pedindo	-5893
▁pleased	-5894
▁precisa	-5895
▁selfish	-5896
▁solidão	-5897
▁sombras	-5898
▁tristes	-5899
▁brightly	-5900
▁competit	-5901
▁dissimul	-5902
▁explored	-5903
▁imagined	-5904
▁independ	-5905
▁obedient	-5906
▁passagem	-5907
▁peaceful	-5908
▁resistir	-5909
▁sandwich	-5910
▁segundos	-5911
▁virtudes	-5912
▁Gonçalves	-5913
▁Realmente	-5914
▁provincia	-5915
▁searching	-5916
▁excellente	-5917
▁explicação	-5918
▁flashlight	-5919
▁lentamente	-5920
▁comprehender	-5921
Be	-5922
Of	-5923
cu	-5924
úb	-5925
▁Z	-5926
!".	-5927
esa	-5928
iel	-5929
irs	-5930
urb	-5931
uss	-5932
▁Aj	-5933
hões	-5934
inde	-5935
inei	-5936
logo	-5937
okes	-5938
olas	-5939
pido	-5940
ulto	-5941
umsy	-5942
▁Don	-5943
▁Ori	-5944
▁chu	-5945
▁dic	-5946
▁eye	-5947
▁gaz	-5948
▁oat	-5949
▁tap	-5950
▁tia	-5951
ables	-5952
anada	-5953
asing	-5954
cript	-5955
enhor	-5956
estra	-5957
hamed	-5958
ingos	-5959
iores	-5960
isado	-5961
itada	-5962
phone	-5963
pital	-5964
pread	-5965
ronte	-5966
órias	-5967
▁Esse	-5968
▁Está	-5969
▁Lola	-5970
▁Pass	-5971
▁Supp	-5972
▁afim	-5973
▁alte	-5974
▁capt	-5975
▁dedo	-5976
▁dogs	-5977
▁feia	-5978
▁fome	-5979
▁glor	-5980
▁inda	-5981
▁lazy	-5982
▁mant	-5983
▁pede	-5984
▁poes	-5985
▁pref	-5986
▁prel	-5987
▁push	-5988
▁sege	-5989
▁tidy	-5990
▁trat	-5991
▁viva	-5992
olindo	-5993
osição	-5994
ubbles	-5995
▁Ainda	-5996
▁Pouco	-5997
▁Sandy	-5998
▁Sobre	-5999
▁adora	-6000
▁apont	-6001
▁beira	-6002
▁botas	-6003
▁calor	-6004
▁conce	-6005
▁cryst	-6006
▁defun	-6007
▁denun	-6008
▁exter	-6009
▁falla	-6010
▁ganha	-6011
▁genio	-6012
▁horri	-6013
▁illum	-6014
▁indis	-6015
▁match	-6016
▁pente	-6017
▁pesco	-6018
▁porto	-6019
▁raios	-6020
▁raven	-6021
▁rough	-6022
▁supre	-6023
▁tenha	-6024
▁torna	-6025
▁using	-6026
ciedade	-6027
enoveva	-6028
▁Afonso	-6029
▁Chegou	-6030
▁Demais	-6031
▁Natura	-6032
▁alcova	-6033
▁apanha	-6034
▁apesar	-6035
▁barber	-6036
▁beauty	-6037
▁button	-6038
▁cantar	-6039
▁demais	-6040
▁dentes	-6041
▁embrul	-6042
▁entran	-6043
▁espect	-6044
▁estive	-6045
▁expans	-6046
▁fechar	-6047
▁fresca	-6048
▁guilty	-6049
▁quizer	-6050
▁refres	-6051
▁seculo	-6052
▁subtil	-6053
▁succed	-6054
▁várias	-6055
▁warned	-6056
▁ashamed	-6057
▁capital	-6058
▁cuidado	-6059
▁curioso	-6060
▁desespe	-6061
▁devéras	-6062
▁geração	-6063
▁governo	-6064
▁hombros	-6065
▁ouvidos	-6066
▁protect	-6067
▁romance	-6068
▁seculos	-6069
▁soberan	-6070
▁volcano	-6071
▁Domingos	-6072
▁Genoveva	-6073
▁mocidade	-6074
▁momentos	-6075
▁negocios	-6076
▁proprios	-6077
▁universo	-6078
▁voltando	-6079
▁Humanitas	-6080
▁aggregado	-6081
▁questions	-6082
▁reflexões	-6083
▁especially	-6084
▁interrompeu	-6085
▁physionomia	-6086
▁sentimentos	-6087
mei	-6088
met	-6089
nel	-6090
olf	-6091
ugn	-6092
uld	-6093
vis	-6094
▁Ba	-6095
▁Sm	-6096
arty	-6097
bele	-6098
cond	-6099
elos	-6100
etas	-6101
host	-6102
rane	-6103
▁Ing	-6104
▁Viv	-6105
▁Why	-6106
▁cac	-6107
▁ful	-6108
▁jaz	-6109
▁jet	-6110
▁vid	-6111
▁wis	-6112
ciosa	-6113
endes	-6114
gados	-6115
icção	-6116
ilhas	-6117
inhou	-6118
inist	-6119
itiva	-6120
itter	-6121
itura	-6122
çando	-6123
▁Cham	-6124
▁Most	-6125
▁Toda	-6126
▁asso	-6127
▁belt	-6128
▁bene	-6129
▁body	-6130
▁boss	-6131
▁cage	-6132
▁desl	-6133
▁drew	-6134
▁espl	-6135
▁faça	-6136
▁fine	-6137
▁fino	-6138
▁glue	-6139
▁olho	-6140
▁peor	-6141
▁pole	-6142
▁quis	-6143
▁roar	-6144
▁sell	-6145
▁vant	-6146
▁vase	-6147
▁vejo	-6148
▁wore	-6149
aninha	-6150
ipping	-6151
ornaes	-6152
▁Emfim	-6153
▁Padre	-6154
▁Paulo	-6155
▁ambas	-6156
▁animo	-6157
▁bande	-6158
▁crise	-6159
▁deram	-6160
▁drank	-6161
▁estal	-6162
▁ghost	-6163
▁inven	-6164
▁latim	-6165
▁preta	-6166
▁raced	-6167
▁sejam	-6168
▁smoke	-6169
▁spoon	-6170
▁subir	-6171
▁surre	-6172
▁tough	-6173
▁witch	-6174
▁aberta	-6175
▁amanhã	-6176
▁aprove	-6177
▁assign	-6178
▁cheese	-6179
▁clumsy	-6180
▁crayon	-6181
▁desper	-6182
▁disfar	-6183
▁escond	-6184
▁finger	-6185
▁france	-6186
▁horizo	-6187
▁nuvens	-6188
▁ordens	-6189
▁packed	-6190
▁pedido	-6191
▁police	-6192
▁poucas	-6193
▁prince	-6194
▁repres	-6195
▁sepult	-6196
▁soffre	-6197
▁spread	-6198
▁trazer	-6199
▁turkey	-6200
▁vossos	-6201
▁cabelle	-6202
▁cooking	-6203
▁dissera	-6204
▁esperou	-6205
▁ficaram	-6206
▁illusão	-6207
▁jornaes	-6208
▁lettras	-6209
▁managed	-6210
▁passeio	-6211
▁permitt	-6212
▁pescoço	-6213
▁picking	-6214
▁prestes	-6215
▁remedio	-6216
▁saudade	-6217
▁sounded	-6218
▁support	-6219
▁arrepend	-6220
▁caracter	-6221
▁carreira	-6222
▁cheerful	-6223
▁condição	-6224
▁defender	-6225
▁distingu	-6226
▁elegante	-6227
▁encontro	-6228
▁hospital	-6229
▁noticias	-6230
▁passados	-6231
▁precipit	-6232
▁splashed	-6233
▁terrible	-6234
▁celebrate	-6235
▁esplanada	-6236
▁linguagem	-6237
▁novamente	-6238
▁suggested	-6239
▁universal	-6240
▁vegetables	-6241
▁comfortable	-6242
Já	-6243
»,	-6244
én	-6245
€.	-6246
cor	-6247
dor	-6248
ema	-6249
ief	-6250
let	-6251
lia	-6252
ony	-6253
ptu	-6254
yer	-6255
▁Bl	-6256
▁Or	-6257
▁Tr	-6258
▁ok	-6259
?...	-6260
Olha	-6261
aghe	-6262
alle	-6263
amen	-6264
bbie	-6265
ceno	-6266
eper	-6267
icop	-6268
ides	-6269
ravo	-6270
ícia	-6271
▁Até	-6272
▁Ruy	-6273
▁Sou	-6274
▁ata	-6275
▁ava	-6276
▁avo	-6277
▁beg	-6278
▁bis	-6279
▁fum	-6280
▁ido	-6281
▁jam	-6282
▁pus	-6283
berta	-6284
cadas	-6285
eiros	-6286
ellas	-6287
estes	-6288
gares	-6289
meira	-6290
remos	-6291
tific	-6292
ursos	-6293
vagar	-6294
çados	-6295
œLetâ	-6296
▁Dave	-6297
▁Luiz	-6298
▁Tejo	-6299
▁abys	-6300
▁ares	-6301
▁bela	-6302
▁city	-6303
▁coco	-6304
▁comf	-6305
▁cães	-6306
▁donâ	-6307
▁ears	-6308
▁erro	-6309
▁exha	-6310
▁fool	-6311
▁jorn	-6312
▁leal	-6313
▁line	-6314
▁mata	-6315
▁mend	-6316
▁mind	-6317
▁pipe	-6318
▁próp	-6319
▁reje	-6320
▁skin	-6321
▁stra	-6322
▁swan	-6323
▁tern	-6324
▁veja	-6325
▁vert	-6326
keeper	-6327
mentos	-6328
selves	-6329
▁Ayres	-6330
▁Desta	-6331
▁Marte	-6332
▁Minas	-6333
▁Outro	-6334
▁Pedro	-6335
▁Vinha	-6336
▁abria	-6337
▁added	-6338
▁adeus	-6339
▁bolso	-6340
▁casal	-6341
▁chase	-6342
▁deixe	-6343
▁dolph	-6344
▁fitou	-6345
▁fixed	-6346
▁fraco	-6347
▁leash	-6348
▁linha	-6349
▁marty	-6350
▁metho	-6351
▁notas	-6352
▁ouvil	-6353
▁penny	-6354
▁refer	-6355
▁sapat	-6356
▁serra	-6357
▁shark	-6358
▁sonha	-6359
▁suppl	-6360
▁takes	-6361
▁these	-6362
▁those	-6363
▁valer	-6364
▁velas	-6365
aghetti	-6366
icopter	-6367
▁Afinal	-6368
▁Grande	-6369
▁affirm	-6370
▁afflig	-6371
▁bellas	-6372
▁capric	-6373
▁casado	-6374
▁ciumes	-6375
▁commun	-6376
▁convul	-6377
▁costum	-6378
▁criada	-6379
▁finado	-6380
▁flôres	-6381
▁guerre	-6382
▁instin	-6383
▁observ	-6384
▁pirate	-6385
▁preocc	-6386
▁rubbed	-6387
▁safely	-6388
▁sahida	-6389
▁sentou	-6390
▁servia	-6391
▁stream	-6392
▁summer	-6393
▁tunnel	-6394
▁unique	-6395
▁useful	-6396
▁velhos	-6397
▁velvet	-6398
▁acostum	-6399
▁antigas	-6400
▁aproxim	-6401
▁biggest	-6402
▁devagar	-6403
▁indigna	-6404
▁instrum	-6405
▁mentira	-6406
▁orgulho	-6407
▁package	-6408
▁possuia	-6409
▁repetia	-6410
▁sentada	-6411
▁ultimas	-6412
▁Deolindo	-6413
▁advogado	-6414
▁aposento	-6415
▁bathroom	-6416
▁desastre	-6417
▁dreaming	-6418
▁fountain	-6419
▁horrivel	-6420
▁kindness	-6421
▁reminded	-6422
▁restaura	-6423
▁yourself	-6424
▁beneficio	-6425
▁phenomeno	-6426
▁spaghetti	-6427
▁aborrecido	-6428
▁helicopter	-6429
▁semelhante	-6430
My	-6431
Now	-6432
apé	-6433
esc	-6434
ffe	-6435
hir	-6436
ial	-6437
iei	-6438
igu	-6439
lym	-6440
plo	-6441
rás	-6442
vor	-6443
yed	-6444
éis	-6445
▁La	-6446
Well	-6447
atas	-6448
bble	-6449
bled	-6450
chas	-6451
cipe	-6452
ense	-6453
ills	-6454
ired	-6455
iste	-6456
ital	-6457
iços	-6458
lare	-6459
mand	-6460
omos	-6461
plic	-6462
pont	-6463
rida	-6464
ulas	-6465
ésse	-6466
▁Eis	-6467
▁Rep	-6468
▁Rod	-6469
▁Sal	-6470
▁Tij	-6471
▁aud	-6472
▁ela	-6473
▁lam	-6474
▁lis	-6475
▁luc	-6476
▁poz	-6477
▁rob	-6478
▁rul	-6479
▁vim	-6480
agens	-6481
aveis	-6482
cados	-6483
itude	-6484
quele	-6485
rinho	-6486
▁Blue	-6487
▁Buzz	-6488
▁Pelo	-6489
▁Remy	-6490
▁Thom	-6491
▁bara	-6492
▁barn	-6493
▁brad	-6494
▁dead	-6495
▁edge	-6496
▁edif	-6497
▁evid	-6498
▁feio	-6499
▁gast	-6500
▁joke	-6501
▁lind	-6502
▁nail	-6503
▁panc	-6504
▁pera	-6505
▁requ	-6506
▁tank	-6507
▁team	-6508
▁tied	-6509
▁vide	-6510
▁vivo	-6511
▁ways	-6512
▁wolf	-6513
amengo	-6514
flower	-6515
ighter	-6516
isação	-6517
reeiro	-6518
▁Brown	-6519
▁Damas	-6520
▁Diogo	-6521
▁Neste	-6522
▁Outra	-6523
▁Smith	-6524
▁Todas	-6525
▁Todos	-6526
▁banco	-6527
▁block	-6528
▁cahir	-6529
▁calma	-6530
▁carce	-6531
▁cerca	-6532
▁check	-6533
▁clear	-6534
▁conto	-6535
▁decis	-6536
▁demon	-6537
▁falso	-6538
▁frota	-6539
▁furor	-6540
▁human	-6541
▁hypot	-6542
▁jokes	-6543
▁lendo	-6544
▁marav	-6545
▁mixed	-6546
▁monte	-6547
▁moças	-6548
▁repro	-6549
▁rosas	-6550
▁sabes	-6551
▁salva	-6552
▁serio	-6553
▁shone	-6554
▁space	-6555
▁speed	-6556
▁thick	-6557
▁tummy	-6558
▁vindo	-6559
▁visão	-6560
▁vozes	-6561
▁walks	-6562
▁walls	-6563
▁abysmo	-6564
▁amigas	-6565
▁canapé	-6566
▁começa	-6567
▁comput	-6568
▁contas	-6569
▁desfaz	-6570
▁fruits	-6571
▁gritos	-6572
▁itself	-6573
▁landed	-6574
▁linhas	-6575
▁mesmas	-6576
▁missed	-6577
▁modern	-6578
▁nasceu	-6579
▁polite	-6580
▁pontas	-6581
▁strugg	-6582
▁alegres	-6583
▁declara	-6584
▁drawing	-6585
▁esclare	-6586
▁escravo	-6587
▁estrada	-6588
▁feições	-6589
▁foolish	-6590
▁machine	-6591
▁mandava	-6592
▁memória	-6593
▁painter	-6594
▁recente	-6595
▁repetiu	-6596
▁sentado	-6597
▁serviço	-6598
▁soberba	-6599
▁varanda	-6600
▁visited	-6601
▁Flamengo	-6602
▁Lusitano	-6603
▁administ	-6604
▁bouncing	-6605
▁correspo	-6606
▁doutrina	-6607
▁especial	-6608
▁fighting	-6609
▁incommod	-6610
▁obstante	-6611
▁painting	-6612
▁passaram	-6613
▁soubesse	-6614
▁sparkled	-6615
▁conhecido	-6616
▁dedicação	-6617
▁impressed	-6618
▁incidente	-6619
▁perguntas	-6620
▁Everything	-6621
▁acompanhado	-6622
▁contemplação	-6623
?»	-6624
rê	-6625
vi	-6626
ár	-6627
▁Y	-6628
Sim	-6629
Tim	-6630
aco	-6631
beu	-6632
els	-6633
hip	-6634
nes	-6635
not	-6636
ope	-6637
upa	-6638
▁Is	-6639
▁có	-6640
▁sé	-6641
▁wi	-6642
aris	-6643
baro	-6644
case	-6645
chan	-6646
eked	-6647
emin	-6648
etos	-6649
hido	-6650
hood	-6651
irit	-6652
lace	-6653
nças	-6654
quis	-6655
rima	-6656
tely	-6657
tico	-6658
ulha	-6659
uria	-6660
vial	-6661
▁Ahi	-6662
▁Aqu	-6663
▁Esp	-6664
▁May	-6665
▁dug	-6666
▁eis	-6667
▁ham	-6668
▁kay	-6669
▁map	-6670
▁mau	-6671
▁mic	-6672
▁pré	-6673
▁sag	-6674
▁viz	-6675
ament	-6676
arote	-6677
encil	-6678
erias	-6679
icial	-6680
itoso	-6681
ixões	-6682
jando	-6683
outro	-6684
tered	-6685
uable	-6686
undry	-6687
▁Caet	-6688
▁Mark	-6689
▁Soph	-6690
▁Tive	-6691
▁alug	-6692
▁bail	-6693
▁beha	-6694
▁chim	-6695
▁deus	-6696
▁dull	-6697
▁egua	-6698
▁eles	-6699
▁gall	-6700
▁hook	-6701
▁jail	-6702
▁mist	-6703
▁myst	-6704
▁obsc	-6705
▁pedi	-6706
▁prud	-6707
▁task	-6708
▁thre	-6709
▁vela	-6710
▁wand	-6711
▁yell	-6712
entado	-6713
itaria	-6714
uldade	-6715
íssimo	-6716
▁Gomes	-6717
▁Havia	-6718
▁Henry	-6719
▁Teddy	-6720
▁acord	-6721
▁acred	-6722
▁alert	-6723
▁bloom	-6724
▁cores	-6725
▁cover	-6726
▁crown	-6727
▁cunha	-6728
▁daria	-6729
▁descu	-6730
▁dezes	-6731
▁diria	-6732
▁doces	-6733
▁doesn	-6734
▁enorm	-6735
▁espal	-6736
▁exact	-6737
▁flute	-6738
▁hairy	-6739
▁horre	-6740
▁imped	-6741
▁impul	-6742
▁ingle	-6743
▁monst	-6744
▁podem	-6745
▁presa	-6746
▁quart	-6747
▁queim	-6748
▁roupa	-6749
▁shine	-6750
▁study	-6751
▁testa	-6752
▁tiver	-6753
▁twist	-6754
▁viera	-6755
elidade	-6756
▁Cabral	-6757
▁Christ	-6758
▁Tijuca	-6759
▁atirou	-6760
▁borrow	-6761
▁branca	-6762
▁chorar	-6763
▁coisas	-6764
▁conjug	-6765
▁creado	-6766
▁decide	-6767
▁deixal	-6768
▁design	-6769
▁effect	-6770
▁famoso	-6771
▁fridge	-6772
▁interv	-6773
▁locked	-6774
▁modest	-6775
▁pedaço	-6776
▁pencil	-6777
▁perdia	-6778
▁pressa	-6779
▁rapido	-6780
▁rushed	-6781
▁sabore	-6782
▁sentio	-6783
▁spirit	-6784
▁stared	-6785
▁termos	-6786
▁testem	-6787
▁titulo	-6788
▁veneno	-6789
▁admired	-6790
▁apertou	-6791
▁bonitas	-6792
▁bubbles	-6793
▁calling	-6794
▁chorava	-6795
▁comprar	-6796
▁cumprir	-6797
▁estando	-6798
▁falando	-6799
▁forgive	-6800
▁giggled	-6801
▁laundry	-6802
▁numbers	-6803
▁orelhas	-6804
▁podesse	-6805
▁prompto	-6806
▁publica	-6807
▁retirou	-6808
▁sabendo	-6809
▁scooter	-6810
▁soberbo	-6811
▁tomando	-6812
▁twirled	-6813
▁voltava	-6814
entemente	-6815
ibilidade	-6816
▁Comprehe	-6817
▁Whenever	-6818
▁answered	-6819
▁arreeiro	-6820
▁confesso	-6821
▁defronte	-6822
▁esconder	-6823
▁infancia	-6824
▁namorado	-6825
▁pequenos	-6826
▁querendo	-6827
▁remorsos	-6828
▁screamed	-6829
▁vencedor	-6830
▁brilhante	-6831
▁happiness	-6832
▁horizonte	-6833
▁practiced	-6834
▁procurava	-6835
▁sepultura	-6836
▁sympathia	-6837
▁incredible	-6838
▁intimidade	-6839
▁successful	-6840
▁testamento	-6841
▁desappareceu	-6842
Al	-6843
As	-6844
gk	-6845
oa	-6846
aga	-6847
amo	-6848
duc	-6849
gko	-6850
kin	-6851
mar	-6852
mat	-6853
tle	-6854
œIt	-6855
▁CX	-6856
▁Oh	-6857
alap	-6858
chia	-6859
cião	-6860
cont	-6861
icar	-6862
ines	-6863
inio	-6864
iões	-6865
ocas	-6866
osie	-6867
resa	-6868
rica	-6869
rimp	-6870
roso	-6871
stra	-6872
tera	-6873
uzzy	-6874
êrão	-6875
▁Cer	-6876
▁Esc	-6877
▁How	-6878
▁Mad	-6879
▁Rel	-6880
▁Uns	-6881
▁dif	-6882
▁fia	-6883
▁gor	-6884
▁gru	-6885
▁hut	-6886
▁jug	-6887
▁lum	-6888
▁pay	-6889
▁tim	-6890
▁vês	-6891
▁wra	-6892
acena	-6893
achel	-6894
cceed	-6895
iante	-6896
iting	-6897
ordia	-6898
vidor	-6899
▁Cada	-6900
▁Deos	-6901
▁Fall	-6902
▁Gent	-6903
▁Imag	-6904
▁Olym	-6905
▁Papa	-6906
▁abaf	-6907
▁arro	-6908
▁atro	-6909
▁cint	-6910
▁enle	-6911
▁horn	-6912
▁inex	-6913
▁legs	-6914
▁meas	-6915
▁mill	-6916
▁peso	-6917
▁raro	-6918
▁redo	-6919
▁rice	-6920
▁réis	-6921
▁scis	-6922
▁tais	-6923
▁toma	-6924
▁tria	-6925
▁tron	-6926
▁vago	-6927
▁viam	-6928
▁whis	-6929
allide	-6930
hangko	-6931
itasse	-6932
▁Betty	-6933
▁Cinco	-6934
▁Kalap	-6935
▁Pergu	-6936
▁Podia	-6937
▁Steve	-6938
▁Vossa	-6939
▁bossy	-6940
▁boxes	-6941
▁built	-6942
▁cabin	-6943
▁cocoa	-6944
▁corda	-6945
▁desfe	-6946
▁digna	-6947
▁désse	-6948
▁envel	-6949
▁enxug	-6950
▁finas	-6951
▁frown	-6952
▁gives	-6953
▁manha	-6954
▁noivo	-6955
▁penna	-6956
▁plate	-6957
▁raiva	-6958
▁repou	-6959
▁seeds	-6960
▁sensa	-6961
▁shade	-6962
▁snake	-6963
▁spoil	-6964
▁spray	-6965
▁torre	-6966
▁trunk	-6967
▁Fiquei	-6968
▁Lembra	-6969
▁Rachel	-6970
▁Sophie	-6971
▁accept	-6972
▁apress	-6973
▁arrepe	-6974
▁atordo	-6975
▁calças	-6976
▁castig	-6977
▁collar	-6978
▁cuidar	-6979
▁dreams	-6980
▁emoção	-6981
▁filhas	-6982
▁folder	-6983
▁ganhar	-6984
▁handle	-6985
▁harder	-6986
▁invest	-6987
▁jogged	-6988
▁licked	-6989
▁lights	-6990
▁needle	-6991
▁peeked	-6992
▁razões	-6993
▁ruined	-6994
▁shrimp	-6995
▁skills	-6996
▁varias	-6997
▁violin	-6998
▁vulgar	-6999
▁wagged	-7000
▁Marocas	-7001
▁Ouvidor	-7002
▁batalha	-7003
▁chamber	-7004
▁changed	-7005
▁concent	-7006
▁cushion	-7007
▁dolphin	-7008
▁enfermo	-7009
▁explica	-7010
▁factory	-7011
▁finding	-7012
▁fishing	-7013
▁growing	-7014
▁lembrar	-7015
▁methodo	-7016
▁moleque	-7017
▁pallida	-7018
▁pallido	-7019
▁paredes	-7020
▁playful	-7021
▁proudly	-7022
▁quietly	-7023
▁recebia	-7024
▁succeed	-7025
▁talento	-7026
▁telling	-7027
▁ternura	-7028
▁tratava	-7029
▁vehicle	-7030
▁vencido	-7031
▁weather	-7032
▁working	-7033
▁anecdota	-7034
▁careless	-7035
▁commoção	-7036
▁confusão	-7037
▁conheceu	-7038
▁corações	-7039
▁defuncto	-7040
▁desconhe	-7041
▁despediu	-7042
▁enjoying	-7043
▁entendeu	-7044
▁entrando	-7045
▁feathers	-7046
▁ignorant	-7047
▁obsequio	-7048
▁question	-7049
▁salvação	-7050
▁sobrinha	-7051
▁valuable	-7052
▁vestidos	-7053
▁Barbacena	-7054
▁daquelles	-7055
▁empallide	-7056
▁espantado	-7057
▁excitedly	-7058
▁obrigação	-7059
▁organized	-7060
▁philosoph	-7061
▁sparkling	-7062
▁sunflower	-7063
▁Caetaninha	-7064
▁Christiano	-7065
▁satisfação	-7066
▁themselves	-7067
▁Kalaphangko	-7068
▁independent	-7069
▁rapidamente	-7070
▁indifferença	-7071
▁immediatamente	-7072
OK	-7073
Tu	-7074
ía	-7075
▁ú	-7076
gão	-7077
ixa	-7078
nou	-7079
urg	-7080
ury	-7081
▁Ce	-7082
▁El	-7083
▁au	-7084
▁cô	-7085
▁ty	-7086
▁vã	-7087
VIII	-7088
anim	-7089
aços	-7090
enha	-7091
erly	-7092
ezed	-7093
head	-7094
hoso	-7095
ieis	-7096
ilho	-7097
imed	-7098
isod	-7099
pida	-7100
uito	-7101
work	-7102
▁Liz	-7103
▁Oce	-7104
▁Seu	-7105
▁Vie	-7106
▁awe	-7107
▁bot	-7108
▁dal	-7109
▁eld	-7110
▁gro	-7111
▁gym	-7112
▁hão	-7113
▁pup	-7114
▁rev	-7115
▁rol	-7116
▁unk	-7117
anoel	-7118
antos	-7119
asses	-7120
entei	-7121
gação	-7122
hroom	-7123
icava	-7124
icked	-7125
ifico	-7126
illie	-7127
inked	-7128
issem	-7129
mação	-7130
ndade	-7131
oking	-7132
pered	-7133
place	-7134
ramos	-7135
ridos	-7136
urora	-7137
▁Cons	-7138
▁Inst	-7139
▁Kate	-7140
▁Stro	-7141
▁Traz	-7142
▁abri	-7143
▁acho	-7144
▁adul	-7145
▁após	-7146
▁atac	-7147
▁avis	-7148
▁bens	-7149
▁cess	-7150
▁corn	-7151
▁cube	-7152
▁defe	-7153
▁dela	-7154
▁dezo	-7155
▁diam	-7156
▁doze	-7157
▁emba	-7158
▁fará	-7159
▁fera	-7160
▁fest	-7161
▁fuel	-7162
▁goes	-7163
▁hade	-7164
▁hung	-7165
▁juro	-7166
▁meta	-7167
▁mora	-7168
▁rose	-7169
▁roub	-7170
▁sens	-7171
▁solu	-7172
▁suit	-7173
▁syst	-7174
▁terá	-7175
▁tiro	-7176
▁unlo	-7177
Porque	-7178
ndendo	-7179
ologia	-7180
▁Bella	-7181
▁Pobre	-7182
▁Rosie	-7183
▁Thomé	-7184
▁absur	-7185
▁afast	-7186
▁anony	-7187
▁arris	-7188
▁bored	-7189
▁brace	-7190
▁chefe	-7191
▁chuva	-7192
▁clock	-7193
▁crane	-7194
▁creek	-7195
▁crist	-7196
▁custa	-7197
▁disto	-7198
▁enver	-7199
▁estra	-7200
▁estup	-7201
▁febre	-7202
▁grown	-7203
▁hurry	-7204
▁impre	-7205
▁juicy	-7206
▁juizo	-7207
▁knife	-7208
▁lados	-7209
▁lance	-7210
▁lança	-7211
▁lindo	-7212
▁manus	-7213
▁meios	-7214
▁milag	-7215
▁morro	-7216
▁muros	-7217
▁nação	-7218
▁noiva	-7219
▁occup	-7220
▁ofere	-7221
▁palma	-7222
▁pants	-7223
▁prize	-7224
▁quite	-7225
▁retor	-7226
▁rigor	-7227
▁santo	-7228
▁sauce	-7229
▁serve	-7230
▁shape	-7231
▁sheep	-7232
▁tells	-7233
▁texto	-7234
▁troca	-7235
▁valle	-7236
▁wiped	-7237
▁Oceano	-7238
▁aberto	-7239
▁alpend	-7240
▁aquele	-7241
▁beijos	-7242
▁bottom	-7243
▁cannot	-7244
▁centro	-7245
▁choose	-7246
▁closet	-7247
▁colera	-7248
▁comigo	-7249
▁conduz	-7250
▁contei	-7251
▁degred	-7252
▁destes	-7253
▁diminu	-7254
▁diziam	-7255
▁ending	-7256
▁episod	-7257
▁escand	-7258
▁escarn	-7259
▁famous	-7260
▁fright	-7261
▁gasped	-7262
▁giving	-7263
▁golden	-7264
▁inutil	-7265
▁kissed	-7266
▁lawyer	-7267
▁liquid	-7268
▁minuto	-7269
▁moedas	-7270
▁peitos	-7271
▁poison	-7272
▁porção	-7273
▁queres	-7274
▁repous	-7275
▁reveal	-7276
▁sighed	-7277
▁subway	-7278
▁tivera	-7279
▁tocava	-7280
▁transf	-7281
▁triang	-7282
ualmente	-7283
▁adeante	-7284
▁balance	-7285
▁cabeças	-7286
▁chasing	-7287
▁cleaned	-7288
▁couldnâ	-7289
▁derrade	-7290
▁elderly	-7291
▁encoura	-7292
▁enterro	-7293
▁entrava	-7294
▁humanas	-7295
▁hypothe	-7296
▁levando	-7297
▁maiores	-7298
▁miseria	-7299
▁mistake	-7300
▁offered	-7301
▁partida	-7302
▁partido	-7303
▁pushing	-7304
▁rapazes	-7305
▁remorso	-7306
▁showing	-7307
▁tamanha	-7308
▁tamanho	-7309
▁terreno	-7310
▁vitória	-7311
acavallos	-7312
▁Portugal	-7313
▁Stroibus	-7314
▁academia	-7315
▁aquellas	-7316
▁balloons	-7317
▁camarote	-7318
▁cavallos	-7319
▁chegasse	-7320
▁contando	-7321
▁convinha	-7322
▁cortinas	-7323
▁credores	-7324
▁cupboard	-7325
▁declarou	-7326
▁despeito	-7327
▁discover	-7328
▁disseram	-7329
▁entendia	-7330
▁infinito	-7331
▁montanha	-7332
▁mushroom	-7333
▁religião	-7334
▁tivessem	-7335
▁violenta	-7336
▁commissão	-7337
▁desconfia	-7338
▁difficult	-7339
▁intervall	-7340
▁sensações	-7341
▁sociedade	-7342
▁acompanhou	-7343
▁celebrated	-7344
▁compassion	-7345
▁eternidade	-7346
▁fidelidade	-7347
▁guerreiros	-7348
▁necessario	-7349
▁qualidades	-7350
▁thoughtful	-7351
▁unicamente	-7352
▁Portugueses	-7353
▁expectaculo	-7354
▁Matacavallos	-7355
▁Naturalmente	-7356
▁extraordinaria	-7357
'.	-7358
IV	-7359
ãe	-7360
€“	-7361
Bem	-7362
Ent	-7363
cam	-7364
eza	-7365
isc	-7366
men	-7367
pro	-7368
sem	-7369
top	-7370
▁dê	-7371
▁ze	-7372
Este	-7373
ares	-7374
cast	-7375
chos	-7376
cêra	-7377
ding	-7378
enia	-7379
fast	-7380
ging	-7381
goas	-7382
gurt	-7383
nded	-7384
tons	-7385
ubby	-7386
urei	-7387
çoso	-7388
▁Leo	-7389
▁Mal	-7390
▁Reg	-7391
▁Sua	-7392
▁Vai	-7393
▁abr	-7394
▁axe	-7395
▁cop	-7396
▁cub	-7397
▁ecc	-7398
▁ess	-7399
▁lid	-7400
▁low	-7401
▁rug	-7402
▁sáb	-7403
▁zan	-7404
brary	-7405
chedo	-7406
harel	-7407
inary	-7408
irava	-7409
itosa	-7410
mundo	-7411
nosco	-7412
orrer	-7413
piter	-7414
quete	-7415
ícios	-7416
▁Amor	-7417
▁Char	-7418
▁Essa	-7419
▁Fran	-7420
▁Joey	-7421
▁Napo	-7422
▁Torn	-7423
▁acon	-7424
▁alle	-7425
▁bump	-7426
▁cane	-7427
▁cans	-7428
▁cing	-7429
▁clap	-7430
▁crab	-7431
▁dano	-7432
▁dans	-7433
▁deer	-7434
▁dove	-7435
▁ense	-7436
▁faca	-7437
▁feit	-7438
▁garg	-7439
▁gate	-7440
▁hall	-7441
▁knob	-7442
▁lean	-7443
▁muse	-7444
▁nosy	-7445
▁paes	-7446
▁post	-7447
▁prem	-7448
▁repe	-7449
▁saia	-7450
▁sess	-7451
▁sock	-7452
▁subs	-7453
▁tuas	-7454
▁vaga	-7455
▁veil	-7456
bresal	-7457
grimas	-7458
laimed	-7459
lesias	-7460
urando	-7461
íssima	-7462
▁Corre	-7463
▁Ducky	-7464
▁Jerem	-7465
▁ajoel	-7466
▁ajust	-7467
▁ardor	-7468
▁beber	-7469
▁cedeu	-7470
▁clown	-7471
▁corri	-7472
▁curto	-7473
▁desat	-7474
▁enfad	-7475
▁estro	-7476
▁folhe	-7477
▁fórma	-7478
▁geito	-7479
▁given	-7480
▁igual	-7481
▁illud	-7482
▁incer	-7483
▁india	-7484
▁irmãs	-7485
▁jolly	-7486
▁negro	-7487
▁noisy	-7488
▁pensa	-7489
▁perce	-7490
▁pisto	-7491
▁poppy	-7492
▁recre	-7493
▁relax	-7494
▁rules	-7495
▁scare	-7496
▁stran	-7497
▁temos	-7498
▁thief	-7499
▁trade	-7500
▁tutor	-7501
▁uncom	-7502
entação	-7503
▁Manoel	-7504
▁Ninfas	-7505
▁adiant	-7506
▁agonia	-7507
▁ameaça	-7508
▁assust	-7509
▁calend	-7510
▁candle	-7511
▁chubby	-7512
▁commer	-7513
▁conego	-7514
▁derram	-7515
▁divert	-7516
▁exquis	-7517
▁fascin	-7518
▁fields	-7519
▁gather	-7520
▁horror	-7521
▁illust	-7522
▁intima	-7523
▁joined	-7524
▁louder	-7525
▁marcha	-7526
▁medida	-7527
▁pedras	-7528
▁poesia	-7529
▁recado	-7530
▁recomp	-7531
▁reconc	-7532
▁repara	-7533
▁repart	-7534
▁repugn	-7535
▁roared	-7536
▁silver	-7537
▁soltou	-7538
▁square	-7539
▁tomado	-7540
▁tratar	-7541
▁vestir	-7542
▁vários	-7543
▁yogurt	-7544
▁Comtudo	-7545
▁Grandpa	-7546
▁Manduca	-7547
▁Oriente	-7548
▁Tweetie	-7549
▁allowed	-7550
▁attract	-7551
▁buttons	-7552
▁celeste	-7553
▁chegado	-7554
▁cintura	-7555
▁cumpria	-7556
▁deserto	-7557
▁dezoito	-7558
▁discuss	-7559
▁emprest	-7560
▁further	-7561
▁library	-7562
▁mailbox	-7563
▁motivos	-7564
▁objecto	-7565
▁paginas	-7566
▁paixões	-7567
▁policia	-7568
▁popular	-7569
▁proximo	-7570
▁questão	-7571
▁repouso	-7572
▁ringing	-7573
▁rochedo	-7574
▁separar	-7575
▁windows	-7576
▁wrapped	-7577
ericordia	-7578
▁Jeremias	-7579
▁bacharel	-7580
▁caridade	-7581
▁chegando	-7582
▁chegaram	-7583
▁comnosco	-7584
▁computer	-7585
▁denuncia	-7586
▁despedir	-7587
▁duzentos	-7588
▁enormous	-7589
▁escreveu	-7590
▁exclamou	-7591
▁laughter	-7592
▁necklace	-7593
▁novidade	-7594
▁obrigado	-7595
▁procurar	-7596
▁replicou	-7597
▁resolveu	-7598
▁senhores	-7599
▁shouting	-7600
▁spinning	-7601
▁Damasceno	-7602
▁apparecia	-7603
▁breakfast	-7604
▁classroom	-7605
▁conclusão	-7606
▁continuar	-7607
▁despedida	-7608
▁ecclesias	-7609
▁exclaimed	-7610
▁perguntei	-7611
▁segurança	-7612
▁facilmente	-7613
▁longamente	-7614
▁tranquillo	-7615
▁accrescentou	-7616
▁uncomfortable	-7617
IX	-7618
If	-7619
_;	-7620
ús	-7621
▁Ó	-7622
bat	-7623
cab	-7624
fra	-7625
ian	-7626
inh	-7627
lat	-7628
leo	-7629
lho	-7630
omb	-7631
pou	-7632
une	-7633
Quem	-7634
Você	-7635
acht	-7636
anca	-7637
angu	-7638
asta	-7639
chei	-7640
ciar	-7641
enço	-7642
fogo	-7643
hava	-7644
hice	-7645
iday	-7646
idei	-7647
ince	-7648
ival	-7649
rage	-7650
rico	-7651
ário	-7652
ânia	-7653
ível	-7654
▁Eug	-7655
▁Fez	-7656
▁Fiz	-7657
▁Hom	-7658
▁Ray	-7659
▁ash	-7660
▁beb	-7661
▁coa	-7662
▁fle	-7663
▁gum	-7664
▁ine	-7665
▁mac	-7666
▁mir	-7667
▁omn	-7668
▁põe	-7669
▁rag	-7670
▁rod	-7671
▁tug	-7672
▁zip	-7673
astic	-7674
cavam	-7675
iloto	-7676
iosas	-7677
ither	-7678
opard	-7679
ormal	-7680
tados	-7681
▁Bota	-7682
▁Conf	-7683
▁Dahi	-7684
▁Gary	-7685
▁Póde	-7686
▁Real	-7687
▁Sabe	-7688
▁Teve	-7689
▁alfa	-7690
▁algo	-7691
▁arco	-7692
▁base	-7693
▁bent	-7694
▁boot	-7695
▁deit	-7696
▁grad	-7697
▁hang	-7698
▁julg	-7699
▁load	-7700
▁luck	-7701
▁mask	-7702
▁pale	-7703
▁rato	-7704
▁rede	-7705
▁rega	-7706
▁reis	-7707
▁spun	-7708
▁stri	-7709
▁tool	-7710
▁tuna	-7711
▁verm	-7712
▁wire	-7713
▁word	-7714
Please	-7715
apping	-7716
atient	-7717
blante	-7718
chanic	-7719
inados	-7720
issors	-7721
itismo	-7722
queira	-7723
ubborn	-7724
udeiro	-7725
urante	-7726
▁Deusa	-7727
▁James	-7728
▁Maddy	-7729
▁barbe	-7730
▁barra	-7731
▁bello	-7732
▁cargo	-7733
▁carne	-7734
▁cerem	-7735
▁chirp	-7736
▁crazy	-7737
▁côrte	-7738
▁encar	-7739
▁encer	-7740
▁escal	-7741
▁fatal	-7742
▁fitos	-7743
▁guess	-7744
▁hotel	-7745
▁irado	-7746
▁justo	-7747
▁minuc	-7748
▁naveg	-7749
▁negar	-7750
▁ninho	-7751
▁ossos	-7752
▁palac	-7753
▁perig	-7754
▁queen	-7755
▁sheet	-7756
▁torpe	-7757
▁trata	-7758
▁verde	-7759
▁yacht	-7760
▁Índia	-7761
damente	-7762
radores	-7763
ramente	-7764
ramento	-7765
rations	-7766
rimento	-7767
▁Cristo	-7768
▁Freddy	-7769
▁Millie	-7770
▁Outras	-7771
▁achado	-7772
▁admire	-7773
▁affect	-7774
▁angust	-7775
▁aposto	-7776
▁ataque	-7777
▁bitter	-7778
▁branco	-7779
▁bushes	-7780
▁conser	-7781
▁create	-7782
▁cuidou	-7783
▁deitar	-7784
▁demora	-7785
▁descia	-7786
▁desdem	-7787
▁deviam	-7788
▁divida	-7789
▁entrei	-7790
▁exclus	-7791
▁extran	-7792
▁fallen	-7793
▁fantas	-7794
▁feição	-7795
▁gostou	-7796
▁havião	-7797
▁headed	-7798
▁impeto	-7799
▁lettra	-7800
▁longas	-7801
▁loudly	-7802
▁makeup	-7803
▁marble	-7804
▁mirror	-7805
▁museum	-7806
▁nobres	-7807
▁normal	-7808
▁palpit	-7809
▁patria	-7810
▁pebble	-7811
▁queira	-7812
▁riding	-7813
▁sudden	-7814
▁triump	-7815
▁turtle	-7816
▁vereis	-7817
ndamente	-7818
utamente	-7819
▁Eugenia	-7820
▁Nenhuma	-7821
▁Ninguem	-7822
▁Verdade	-7823
▁abatido	-7824
▁aconsel	-7825
▁against	-7826
▁alevant	-7827
▁blinked	-7828
▁command	-7829
▁consequ	-7830
▁contras	-7831
▁counted	-7832
▁criança	-7833
▁cristal	-7834
▁deixára	-7835
▁espalha	-7836
▁esquina	-7837
▁estaria	-7838
▁estavão	-7839
▁fazenda	-7840
▁ficasse	-7841
▁grandpa	-7842
▁holiday	-7843
▁invited	-7844
▁leitura	-7845
▁leopard	-7846
▁levasse	-7847
▁peanuts	-7848
▁podendo	-7849
▁profess	-7850
▁queriam	-7851
▁sapatos	-7852
▁velhice	-7853
▁Botafogo	-7854
▁Raymundo	-7855
▁alvoroço	-7856
▁belonged	-7857
▁brighter	-7858
▁cleaning	-7859
▁delicada	-7860
▁delicate	-7861
▁director	-7862
▁distribu	-7863
▁entregar	-7864
▁explicou	-7865
▁floating	-7866
▁mechanic	-7867
▁murmurou	-7868
▁objectos	-7869
▁ordinary	-7870
▁padrinho	-7871
▁palmeira	-7872
▁politico	-7873
▁scissors	-7874
▁sobresal	-7875
▁stubborn	-7876
▁swinging	-7877
▁terceira	-7878
▁tornando	-7879
▁triangle	-7880
▁victoria	-7881
▁Castelhan	-7882
▁acontecer	-7883
▁afflicção	-7884
▁apertando	-7885
▁consentiu	-7886
▁dignidade	-7887
▁escriptor	-7888
▁escudeiro	-7889
▁impatient	-7890
▁miserable	-7891
▁mostrando	-7892
▁resultado	-7893
▁sacristão	-7894
▁semblante	-7895
▁violencia	-7896
▁comparação	-7897
▁differente	-7898
▁friendship	-7899
▁frightened	-7900
▁melancolia	-7901
▁restaurant	-7902
▁acompanhava	-7903
▁competitive	-7904
▁curiosidade	-7905
▁decorations	-7906
▁impaciencia	-7907
▁intelligencia	-7908
",	-7909
IA	-7910
VI	-7911
oz	-7912
Ora	-7913
VII	-7914
cue	-7915
cut	-7916
diz	-7917
enu	-7918
erg	-7919
gie	-7920
goa	-7921
nit	-7922
phy	-7923
rol	-7924
rot	-7925
rud	-7926
the	-7927
vem	-7928
yal	-7929
êdo	-7930
▁pá	-7931
arda	-7932
arry	-7933
atue	-7934
cipa	-7935
cope	-7936
icer	-7937
iest	-7938
iças	-7939
nown	-7940
ptos	-7941
reza	-7942
rito	-7943
udos	-7944
urch	-7945
urro	-7946
▁Eul	-7947
▁Hes	-7948
▁Jer	-7949
▁Nhã	-7950
▁Nun	-7951
▁Sat	-7952
▁aug	-7953
▁ave	-7954
▁civ	-7955
▁dum	-7956
▁equ	-7957
▁grã	-7958
▁hay	-7959
▁ign	-7960
▁pav	-7961
▁pho	-7962
▁pis	-7963
▁puz	-7964
▁pão	-7965
▁sle	-7966
▁tir	-7967
▁yet	-7968
acket	-7969
ações	-7970
cream	-7971
icado	-7972
irado	-7973
itivo	-7974
javam	-7975
panho	-7976
pério	-7977
reeze	-7978
rming	-7979
tação	-7980
ucked	-7981
çadas	-7982
▁Comp	-7983
▁Euse	-7984
▁Luna	-7985
▁Nemo	-7986
▁Next	-7987
▁Sant	-7988
▁aves	-7989
▁bags	-7990
▁beak	-7991
▁beam	-7992
▁cras	-7993
▁crib	-7994
▁dust	-7995
▁econ	-7996
▁embe	-7997
▁fare	-7998
▁fart	-7999
▁faço	-8000
▁film	-8001
▁hats	-8002
▁hunt	-8003
▁lanc	-8004
▁lava	-8005
▁mama	-8006
▁meal	-8007
▁muda	-8008
▁papa	-8009
▁peek	-8010
▁pere	-8011
▁priv	-8012
▁prog	-8013
▁prot	-8014
▁pump	-8015
▁puts	-8016
▁rara	-8017
▁ribb	-8018
▁roda	-8019
▁shut	-8020
▁soap	-8021
▁trez	-8022
▁trom	-8023
▁twig	-8024
▁vine	-8025
▁wing	-8026
niture	-8027
▁Danny	-8028
▁Mandy	-8029
▁Nisto	-8030
▁Porém	-8031
▁Respo	-8032
▁Romão	-8033
▁ahead	-8034
▁berço	-8035
▁bigod	-8036
▁cigar	-8037
▁desaf	-8038
▁desob	-8039
▁dizel	-8040
▁ended	-8041
▁engen	-8042
▁esple	-8043
▁estat	-8044
▁falou	-8045
▁forth	-8046
▁frame	-8047
▁glass	-8048
▁imper	-8049
▁intro	-8050
▁kayak	-8051
▁matou	-8052
▁mixer	-8053
▁moeda	-8054
▁notou	-8055
▁peral	-8056
▁ponte	-8057
▁ridic	-8058
▁rival	-8059
▁sahia	-8060
▁salto	-8061
▁sente	-8062
▁serem	-8063
▁solem	-8064
▁split	-8065
▁towel	-8066
▁varia	-8067
amações	-8068
itações	-8069
ristãos	-8070
▁Castro	-8071
▁Levant	-8072
▁accord	-8073
▁admitt	-8074
▁banana	-8075
▁change	-8076
▁church	-8077
▁circle	-8078
▁combat	-8079
▁commod	-8080
▁consci	-8081
▁defesa	-8082
▁defeza	-8083
▁direct	-8084
▁evitar	-8085
▁fabric	-8086
▁ferida	-8087
▁ferido	-8088
▁gentil	-8089
▁graves	-8090
▁honras	-8091
▁infant	-8092
▁jacket	-8093
▁kicked	-8094
▁lifted	-8095
▁mettia	-8096
▁nature	-8097
▁pepper	-8098
▁placed	-8099
▁player	-8100
▁recogn	-8101
▁rescue	-8102
▁resign	-8103
▁rubber	-8104
▁second	-8105
▁seguiu	-8106
▁socego	-8107
▁statue	-8108
▁thread	-8109
▁trucks	-8110
▁Algumas	-8111
▁Castela	-8112
▁Durante	-8113
▁Escript	-8114
▁Eulalia	-8115
▁Eusebia	-8116
▁Olympia	-8117
▁beneath	-8118
▁cabello	-8119
▁carrots	-8120
▁chamado	-8121
▁cidades	-8122
▁comfort	-8123
▁convuls	-8124
▁costure	-8125
▁courage	-8126
▁crystal	-8127
▁desbara	-8128
▁desment	-8129
▁distant	-8130
▁dreamed	-8131
▁empreza	-8132
▁evening	-8133
▁express	-8134
▁extrema	-8135
▁extremo	-8136
▁faltava	-8137
▁ficaria	-8138
▁fragile	-8139
▁gorilla	-8140
▁imagine	-8141
▁letters	-8142
▁marched	-8143
▁meeting	-8144
▁membros	-8145
▁passear	-8146
▁perdera	-8147
▁prelada	-8148
▁querido	-8149
▁quizera	-8150
▁reading	-8151
▁recusou	-8152
▁risonho	-8153
▁station	-8154
▁unknown	-8155
▁visinho	-8156
▁writing	-8157
▁anywhere	-8158
▁calendar	-8159
▁charming	-8160
▁chorando	-8161
▁collegio	-8162
▁correndo	-8163
▁corrente	-8164
▁desembar	-8165
▁edificio	-8166
▁embrulho	-8167
▁exemplar	-8168
▁fechando	-8169
▁hespanho	-8170
▁horrendo	-8171
▁medicina	-8172
▁molestia	-8173
▁mostrava	-8174
▁principa	-8175
▁semelhan	-8176
▁serviços	-8177
▁starting	-8178
▁troubled	-8179
ativamente	-8180
▁escandalo	-8181
▁furniture	-8182
▁hypothese	-8183
▁innocente	-8184
▁juramento	-8185
▁measuring	-8186
▁presentes	-8187
▁sobretudo	-8188
▁squirrels	-8189
▁telephone	-8190
▁attractive	-8191
▁contemplar	-8192
▁juntamente	-8193
▁recordação	-8194
▁Humanitismo	-8195
▁espectaculo	-8196
▁recordações	-8197
▁interessante	-8198
▁circumstancia	-8199
▁compassionate	-8200
▁profundamente	-8201
▁acontecimentos	-8202
▁effectivamente	-8203
▁tranquillamente	-8204
**	-8205
cy	-8206
êl	-8207
--«	-8208
Meu	-8209
aid	-8210
alg	-8211
bug	-8212
dei	-8213
omy	-8214
pic	-8215
tis	-8216
ulg	-8217
uês	-8218
was	-8219
zem	-8220
▁By	-8221
▁Si	-8222
▁Sp	-8223
▁ot	-8224
alho	-8225
amãe	-8226
argu	-8227
ende	-8228
ffee	-8229
gala	-8230
hado	-8231
into	-8232
izes	-8233
odão	-8234
rink	-8235
udiu	-8236
usas	-8237
ónio	-8238
úria	-8239
▁Eng	-8240
▁Gre	-8241
▁Int	-8242
▁Lou	-8243
▁Pas	-8244
▁Pet	-8245
▁Sub	-8246
▁Suz	-8247
▁Tio	-8248
▁Via	-8249
▁aço	-8250
▁cud	-8251
▁deg	-8252
▁ego	-8253
▁gel	-8254
▁hal	-8255
▁itâ	-8256
▁lap	-8257
▁mur	-8258
▁scr	-8259
▁sos	-8260
▁swe	-8261
alhas	-8262
brado	-8263
brava	-8264
creve	-8265
cycle	-8266
graph	-8267
iados	-8268
iches	-8269
iling	-8270
jamim	-8271
ndida	-8272
peros	-8273
polis	-8274
ravão	-8275
umpet	-8276
▁Acha	-8277
▁Clem	-8278
▁Fern	-8279
▁Miss	-8280
▁Quer	-8281
▁Tres	-8282
▁Veiu	-8283
▁abal	-8284
▁alva	-8285
▁argu	-8286
▁atra	-8287
▁bair	-8288
▁bake	-8289
▁bapt	-8290
▁buck	-8291
▁colo	-8292
▁diar	-8293
▁echo	-8294
▁estu	-8295
▁exer	-8296
▁flag	-8297
▁gain	-8298
▁gato	-8299
▁gera	-8300
▁gets	-8301
▁hadn	-8302
▁laço	-8303
▁lust	-8304
▁luto	-8305
▁mark	-8306
▁neve	-8307
▁oats	-8308
▁raft	-8309
▁rosa	-8310
▁rust	-8311
▁sere	-8312
▁suav	-8313
▁thes	-8314
▁vals	-8315
▁vist	-8316
▁volu	-8317
▁weal	-8318
adeira	-8319
cebido	-8320
cripto	-8321
iedade	-8322
ignaes	-8323
ilable	-8324
itudes	-8325
washer	-8326
íncipe	-8327
▁First	-8328
▁Jacob	-8329
▁Nesse	-8330
▁Nunes	-8331
▁Posto	-8332
▁adequ	-8333
▁affir	-8334
▁annun	-8335
▁arred	-8336
▁bears	-8337
▁cahio	-8338
▁cahiu	-8339
▁calum	-8340
▁caras	-8341
▁custo	-8342
▁debru	-8343
▁demas	-8344
▁devem	-8345
▁dilig	-8346
▁encam	-8347
▁exped	-8348
▁fieis	-8349
▁fresh	-8350
▁galho	-8351
▁harsh	-8352
▁insol	-8353
▁joias	-8354
▁laser	-8355
▁lions	-8356
▁loyal	-8357
▁manif	-8358
▁maybe	-8359
▁mente	-8360
▁offer	-8361
▁otter	-8362
▁ouvio	-8363
▁perna	-8364
▁peças	-8365
▁photo	-8366
▁pilot	-8367
▁queda	-8368
▁rever	-8369
▁sadly	-8370
▁salvo	-8371
▁sever	-8372
▁sinto	-8373
▁slept	-8374
▁sofre	-8375
▁spoke	-8376
▁steal	-8377
▁summa	-8378
▁teeth	-8379
▁temia	-8380
▁termo	-8381
▁trago	-8382
▁treas	-8383
▁vasto	-8384
▁venha	-8385
▁video	-8386
▁viram	-8387
camente	-8388
posição	-8389
▁Please	-8390
▁algibe	-8391
▁beijar	-8392
▁bridge	-8393
▁coffee	-8394
▁consum	-8395
▁corrig	-8396
▁dancer	-8397
▁deseja	-8398
▁destas	-8399
▁destin	-8400
▁difere	-8401
▁enorme	-8402
▁erguer	-8403
▁escrup	-8404
▁escure	-8405
▁excess	-8406
▁execut	-8407
▁extrem	-8408
▁fadiga	-8409
▁fierce	-8410
▁genero	-8411
▁gifted	-8412
▁gloomy	-8413
▁govern	-8414
▁handed	-8415
▁harbor	-8416
▁insens	-8417
▁insign	-8418
▁intrig	-8419
▁legado	-8420
▁licção	-8421
▁mentir	-8422
▁metade	-8423
▁nation	-8424
▁office	-8425
▁palmas	-8426
▁prepar	-8427
▁propor	-8428
▁quarta	-8429
▁quieto	-8430
▁rapida	-8431
▁recuar	-8432
▁recusa	-8433
▁settle	-8434
▁sneeze	-8435
▁stairs	-8436
▁tratou	-8437
▁trevas	-8438
▁tronco	-8439
▁valley	-8440
▁vertig	-8441
▁Cheguei	-8442
▁Dizendo	-8443
▁Senhora	-8444
▁abrindo	-8445
▁acabado	-8446
▁alcança	-8447
▁algodão	-8448
▁animaes	-8449
▁batendo	-8450
▁calados	-8451
▁casinha	-8452
▁closely	-8453
▁colours	-8454
▁comecei	-8455
▁confund	-8456
▁conhece	-8457
▁cunhado	-8458
▁decreto	-8459
▁deliver	-8460
▁demonst	-8461
▁desejos	-8462
▁deveras	-8463
▁dialogo	-8464
▁disgust	-8465
▁driving	-8466
▁emoções	-8467
▁engenho	-8468
▁entered	-8469
▁envious	-8470
▁escarne	-8471
▁estamos	-8472
▁estudar	-8473
▁examine	-8474
▁fearful	-8475
▁felizes	-8476
▁guardar	-8477
▁impulso	-8478
▁inferno	-8479
▁intimas	-8480
▁omnibus	-8481
▁pedaços	-8482
▁perdida	-8483
▁perfume	-8484
▁persegu	-8485
▁phrases	-8486
▁plastic	-8487
▁potente	-8488
▁project	-8489
▁promett	-8490
▁querida	-8491
▁recebel	-8492
▁reflexo	-8493
▁seguida	-8494
▁seminar	-8495
▁shaking	-8496
▁shouldn	-8497
▁signaes	-8498
▁squeeze	-8499
▁systema	-8500
▁tiveram	-8501
▁traziam	-8502
▁tremula	-8503
▁trumpet	-8504
▁valente	-8505
iosamente	-8506
▁Benjamim	-8507
▁aparelha	-8508
▁chickens	-8509
▁chirping	-8510
▁constitu	-8511
▁delicado	-8512
▁desgosto	-8513
▁desprezo	-8514
▁direcção	-8515
▁escravos	-8516
▁esqueceu	-8517
▁estrange	-8518
▁exercise	-8519
▁fraqueza	-8520
▁graciosa	-8521
▁imaginar	-8522
▁lágrimas	-8523
▁martyrio	-8524
▁mosteiro	-8525
▁obedecer	-8526
▁organize	-8527
▁poderoso	-8528
▁problema	-8529
▁proposta	-8530
▁recolheu	-8531
▁sentença	-8532
▁sentidos	-8533
▁stranger	-8534
▁suppunha	-8535
▁vantagem	-8536
▁Português	-8537
▁available	-8538
▁confissão	-8539
▁constante	-8540
▁definição	-8541
▁entranhas	-8542
▁esperasse	-8543
▁esquecido	-8544
▁estudante	-8545
▁listening	-8546
▁ministros	-8547
▁namorados	-8548
▁paciencia	-8549
▁Escriptura	-8550
▁adormecida	-8551
▁descoberto	-8552
▁dishwasher	-8553
▁envergonha	-8554
▁impaciente	-8555
▁indignação	-8556
▁motorcycle	-8557
▁movimentos	-8558
▁respiração	-8559
▁sandwiches	-8560
▁satisfeito	-8561
▁substancia	-8562
▁experiencia	-8563
▁resistencia	-8564
▁difficuldade	-8565
At	-8566
Es	-8567
Jo	-8568
Ma	-8569
ss	-8570
yl	-8571
éa	-8572
êa	-8573
▁í	-8574
Tom	-8575
edo	-8576
eso	-8577
hiu	-8578
hon	-8579
ium	-8580
mpo	-8581
pla	-8582
spa	-8583
uad	-8584
érc	-8585
▁Jú	-8586
▁Ke	-8587
▁Py	-8588
▁Ra	-8589
▁aw	-8590
▁dé	-8591
▁od	-8592
▁ár	-8593
▁ân	-8594
Aire	-8595
Aqui	-8596
Esta	-8597
Stop	-8598
acta	-8599
agua	-8600
alma	-8601
ardo	-8602
aros	-8603
asto	-8604
avas	-8605
bole	-8606
corn	-8607
ctar	-8608
eros	-8609
guin	-8610
hada	-8611
hára	-8612
icul	-8613
imas	-8614
ivid	-8615
kele	-8616
leão	-8617
long	-8618
mado	-8619
mais	-8620
phys	-8621
pito	-8622
pote	-8623
quim	-8624
quir	-8625
rete	-8626
riam	-8627
ront	-8628
unda	-8629
utas	-8630
ório	-8631
œItâ	-8632
▁Cha	-8633
▁End	-8634
▁For	-8635
▁Lei	-8636
▁Net	-8637
▁Tur	-8638
▁Vel	-8639
▁Vão	-8640
▁Vês	-8641
▁ara	-8642
▁cin	-8643
▁fan	-8644
▁gos	-8645
▁hur	-8646
▁ião	-8647
▁ope	-8648
▁pau	-8649
▁rat	-8650
▁riu	-8651
▁ros	-8652
▁sex	-8653
▁súb	-8654
▁war	-8655
adeza	-8656
aixão	-8657
apped	-8658
asier	-8659
ceira	-8660
cioso	-8661
ernal	-8662
estar	-8663
ilhar	-8664
illed	-8665
intes	-8666
ortal	-8667
perat	-8668
pless	-8669
quela	-8670
urava	-8671
ustos	-8672
▁Aust	-8673
▁Bern	-8674
▁Cout	-8675
▁Elly	-8676
▁Fort	-8677
▁Ilha	-8678
▁Josh	-8679
▁Prom	-8680
▁Roma	-8681
▁ache	-8682
▁acol	-8683
▁anos	-8684
▁aust	-8685
▁blas	-8686
▁boys	-8687
▁burn	-8688
▁coch	-8689
▁crow	-8690
▁culp	-8691
▁data	-8692
▁dipl	-8693
▁ensa	-8694
▁estr	-8695
▁esva	-8696
▁exal	-8697
▁fake	-8698
▁fala	-8699
▁fale	-8700
▁fios	-8701
▁furi	-8702
▁furt	-8703
▁gene	-8704
▁hoop	-8705
▁inco	-8706
▁ledo	-8707
▁nela	-8708
▁note	-8709
▁paga	-8710
▁pige	-8711
▁poem	-8712
▁pous	-8713
▁pros	-8714
▁rare	-8715
▁ress	-8716
▁rush	-8717
▁salt	-8718
▁saus	-8719
▁size	-8720
▁slid	-8721
▁soar	-8722
▁ting	-8723
▁trav	-8724
▁trep	-8725
▁unif	-8726
▁worm	-8727
asiões	-8728
atorze	-8729
gancia	-8730
indeer	-8731
irante	-8732
itavam	-8733
ndente	-8734
umento	-8735
vision	-8736
▁Chirp	-8737
▁Estou	-8738
▁Estre	-8739
▁Foram	-8740
▁Jerry	-8741
▁Milly	-8742
▁Ninfa	-8743
▁Passe	-8744
▁Petro	-8745
▁accus	-8746
▁agrad	-8747
▁ajuda	-8748
▁attic	-8749
▁banda	-8750
▁beans	-8751
▁bravo	-8752
▁busto	-8753
▁civil	-8754
▁delay	-8755
▁diary	-8756
▁didnâ	-8757
▁dilat	-8758
▁disag	-8759
▁doudo	-8760
▁drama	-8761
▁estor	-8762
▁fomos	-8763
▁glove	-8764
▁grupo	-8765
▁honey	-8766
▁ilhas	-8767
▁kneel	-8768
▁langu	-8769
▁leval	-8770
▁magro	-8771
▁miudo	-8772
▁names	-8773
▁notar	-8774
▁novel	-8775
▁older	-8776
▁patch	-8777
▁plain	-8778
▁posta	-8779
▁prece	-8780
▁purse	-8781
▁resum	-8782
▁rutil	-8783
▁sabem	-8784
▁seren	-8785
▁serás	-8786
▁shoot	-8787
▁since	-8788
▁sniff	-8789
▁snugg	-8790
▁solic	-8791
▁suave	-8792
▁swamp	-8793
▁tecto	-8794
▁tedio	-8795
▁tower	-8796
▁treze	-8797
▁usado	-8798
▁verás	-8799
▁vidas	-8800
▁vinda	-8801
▁viria	-8802
▁vivos	-8803
▁zebra	-8804
graphia	-8805
inarian	-8806
keleton	-8807
tionary	-8808
ventude	-8809
▁Before	-8810
▁Fortun	-8811
▁Voltou	-8812
▁abanou	-8813
▁anyway	-8814
▁attent	-8815
▁breeze	-8816
▁buckle	-8817
▁certas	-8818
▁cordia	-8819
▁discre	-8820
▁drawer	-8821
▁either	-8822
▁famosa	-8823
▁golpes	-8824
▁grosso	-8825
▁guitar	-8826
▁hammer	-8827
▁helmet	-8828
▁humble	-8829
▁imprim	-8830
▁interm	-8831
▁irmãos	-8832
▁jovial	-8833
▁lançar	-8834
▁levado	-8835
▁magist	-8836
▁marque	-8837
▁merece	-8838
▁moveis	-8839
▁nações	-8840
▁negros	-8841
▁offend	-8842
▁piloto	-8843
▁poderá	-8844
▁poured	-8845
▁prefer	-8846
▁primas	-8847
▁propoz	-8848
▁provid	-8849
▁recebi	-8850
▁resent	-8851
▁romper	-8852
▁santos	-8853
▁seriam	-8854
▁shiver	-8855
▁squash	-8856
▁struct	-8857
▁vendor	-8858
▁vexame	-8859
▁wishes	-8860
esperada	-8861
▁aceitou	-8862
▁adiante	-8863
▁airport	-8864
▁animava	-8865
▁bonitos	-8866
▁brancos	-8867
▁buscava	-8868
▁carcere	-8869
▁chimney	-8870
▁combate	-8871
▁consigo	-8872
▁conster	-8873
▁descanç	-8874
▁desvane	-8875
▁escapou	-8876
▁escolhe	-8877
▁escuras	-8878
▁fechada	-8879
▁figuras	-8880
▁fortale	-8881
▁francez	-8882
▁galante	-8883
▁haveria	-8884
▁humanos	-8885
▁humilha	-8886
▁immensa	-8887
▁immenso	-8888
▁loucura	-8889
▁mandado	-8890
▁meninas	-8891
▁milagre	-8892
▁mistura	-8893
▁nobreza	-8894
▁ousadia	-8895
▁passage	-8896
▁passára	-8897
▁peppers	-8898
▁popcorn	-8899
▁quantos	-8900
▁relance	-8901
▁request	-8902
▁rolling	-8903
▁secreta	-8904
▁shocked	-8905
▁smaller	-8906
▁stirred	-8907
▁stuffed	-8908
▁sósinho	-8909
▁victima	-8910
▁voluptu	-8911
▁Coutinho	-8912
▁Lusitana	-8913
▁alpendre	-8914
▁blankets	-8915
▁bracelet	-8916
▁cherries	-8917
▁completa	-8918
▁comprido	-8919
▁counting	-8920
▁desejava	-8921
▁entraram	-8922
▁entrasse	-8923
▁football	-8924
▁generoso	-8925
▁grandeza	-8926
▁gratidão	-8927
▁guardava	-8928
▁helpless	-8929
▁herdeiro	-8930
▁modestia	-8931
▁mortific	-8932
▁naturaes	-8933
▁ornament	-8934
▁palestra	-8935
▁procurou	-8936
▁reindeer	-8937
▁respondi	-8938
▁revealed	-8939
▁sobrinho	-8940
▁spending	-8941
▁substitu	-8942
▁wandered	-8943
▁aconteceu	-8944
▁assassino	-8945
▁compaixão	-8946
▁creaturas	-8947
▁encontrar	-8948
▁juventude	-8949
▁miseravel	-8950
▁occasiões	-8951
▁perfeição	-8952
▁preoccupa	-8953
▁refreshed	-8954
▁religiosa	-8955
▁somewhere	-8956
▁stretched	-8957
▁surrender	-8958
eterinarian	-8959
▁Petropolis	-8960
▁acompanhar	-8961
▁blackboard	-8962
▁condemnado	-8963
▁delicadeza	-8964
▁desgraçado	-8965
▁dictionary	-8966
▁innocencia	-8967
▁lembranças	-8968
▁shopkeeper	-8969
▁television	-8970
▁tranquilla	-8971
▁blueberries	-8972
▁differentes	-8973
▁particulares	-8974
▁neighbourhood	-8975
!)	-8976
!_	-8977
Em	-8978
Is	-8979
Eis	-8980
Sor	-8981
Vês	-8982
Who	-8983
aix	-8984
cco	-8985
ell	-8986
elt	-8987
ept	-8988
fre	-8989
ggy	-8990
gro	-8991
gth	-8992
igz	-8993
ipo	-8994
ixe	-8995
lie	-8996
lol	-8997
ops	-8998
pel	-8999
rib	-9000
tol	-9001
xas	-9002
êso	-9003
▁Du	-9004
▁Sr	-9005
▁XX	-9006
▁sê	-9007
▁Áf	-9008
Como	-9009
Qual	-9010
arra	-9011
arth	-9012
ates	-9013
cage	-9014
ciou	-9015
deus	-9016
dles	-9017
etes	-9018
hosa	-9019
ilio	-9020
itre	-9021
keys	-9022
lies	-9023
loqu	-9024
mond	-9025
omin	-9026
onge	-9027
onun	-9028
pper	-9029
quia	-9030
rmom	-9031
rára	-9032
vera	-9033
énus	-9034
œYes	-9035
▁App	-9036
▁Aug	-9037
▁Col	-9038
▁Pal	-9039
▁Ven	-9040
▁aut	-9041
▁avó	-9042
▁bes	-9043
▁caí	-9044
▁chá	-9045
▁evo	-9046
▁flu	-9047
▁gav	-9048
▁kan	-9049
▁lín	-9050
▁obl	-9051
▁paj	-9052
▁rez	-9053
▁sai	-9054
▁tac	-9055
▁til	-9056
Sorry	-9057
Where	-9058
andro	-9059
civel	-9060
feres	-9061
garoo	-9062
grada	-9063
hasse	-9064
icias	-9065
igzag	-9066
itual	-9067
onias	-9068
ouras	-9069
pendo	-9070
preza	-9071
raram	-9072
relas	-9073
rique	-9074
thias	-9075
zendo	-9076
▁Baby	-9077
▁Baco	-9078
▁Dest	-9079
▁Espe	-9080
▁Hoje	-9081
▁Indo	-9082
▁Novo	-9083
▁Pens	-9084
▁Pera	-9085
▁acer	-9086
▁arru	-9087
▁beef	-9088
▁caix	-9089
▁capa	-9090
▁case	-9091
▁cego	-9092
▁chip	-9093
▁cord	-9094
▁cova	-9095
▁céus	-9096
▁côro	-9097
▁dada	-9098
▁defu	-9099
▁erão	-9100
▁flex	-9101
▁four	-9102
▁gozo	-9103
▁guia	-9104
▁herb	-9105
▁itch	-9106
▁jugo	-9107
▁lite	-9108
▁live	-9109
▁oran	-9110
▁paid	-9111
▁parl	-9112
▁paço	-9113
▁pine	-9114
▁pred	-9115
▁prém	-9116
▁puer	-9117
▁quit	-9118
▁raça	-9119
▁rema	-9120
▁salv	-9121
▁sois	-9122
▁somb	-9123
▁surg	-9124
▁temp	-9125
▁tray	-9126
▁três	-9127
▁vene	-9128
▁virá	-9129
ativas	-9130
bertos	-9131
bilhão	-9132
encial	-9133
entina	-9134
eremos	-9135
ificar	-9136
inguém	-9137
iremos	-9138
mother	-9139
rength	-9140
▁Achou	-9141
▁Deixe	-9142
▁Estes	-9143
▁Inval	-9144
▁Pelas	-9145
▁Prima	-9146
▁Senão	-9147
▁Sunny	-9148
▁Terra	-9149
▁Vénus	-9150
▁abast	-9151
▁aggra	-9152
▁altar	-9153
▁altas	-9154
▁arrem	-9155
▁bateu	-9156
▁berry	-9157
▁bispo	-9158
▁boats	-9159
▁busca	-9160
▁claus	-9161
▁cobra	-9162
▁conqu	-9163
▁conte	-9164
▁cuido	-9165
▁deves	-9166
▁divul	-9167
▁earth	-9168
▁empur	-9169
▁energ	-9170
▁escul	-9171
▁exérc	-9172
▁famil	-9173
▁femin	-9174
▁feroz	-9175
▁ficam	-9176
▁fugiu	-9177
▁gosta	-9178
▁hurts	-9179
▁iamos	-9180
▁joven	-9181
▁known	-9182
▁lento	-9183
▁local	-9184
▁lumin	-9185
▁multi	-9186
▁negra	-9187
▁parce	-9188
▁peach	-9189
▁perda	-9190
▁posse	-9191
▁preso	-9192
▁quase	-9193
▁raise	-9194
▁razor	-9195
▁relem	-9196
▁sabed	-9197
▁scale	-9198
▁sepul	-9199
▁shows	-9200
▁sobra	-9201
▁sport	-9202
▁stack	-9203
▁susto	-9204
▁tempe	-9205
▁trash	-9206
▁trato	-9207
▁treme	-9208
▁tribu	-9209
▁tries	-9210
▁vidro	-9211
▁viveu	-9212
▁wheat	-9213
acidade	-9214
iliação	-9215
inarias	-9216
▁Apenas	-9217
▁Contou	-9218
▁Gentio	-9219
▁Maggie	-9220
▁People	-9221
▁Queria	-9222
▁Tinham	-9223
▁abenço	-9224
▁altura	-9225
▁aspira	-9226
▁bairro	-9227
▁bellos	-9228
▁beside	-9229
▁brando	-9230
▁camera	-9231
▁capote	-9232
▁carpet	-9233
▁chance	-9234
▁chegam	-9235
▁chorou	-9236
▁cobiça	-9237
▁contrá	-9238
▁corpos	-9239
▁cortar	-9240
▁custou	-9241
▁dester	-9242
▁deteve	-9243
▁discip	-9244
▁dishes	-9245
▁disser	-9246
▁easier	-9247
▁effort	-9248
▁encheu	-9249
▁engine	-9250
▁eramos	-9251
▁favore	-9252
▁fórmas	-9253
▁histor	-9254
▁imprud	-9255
▁intens	-9256
▁intimo	-9257
▁lively	-9258
▁louvor	-9259
▁mortal	-9260
▁newspa	-9261
▁nobody	-9262
▁orator	-9263
▁partia	-9264
▁petals	-9265
▁pobres	-9266
▁postos	-9267
▁praias	-9268
▁presas	-9269
▁primos	-9270
▁pronun	-9271
▁querem	-9272
▁rainha	-9273
▁regaço	-9274
▁repeat	-9275
▁reward	-9276
▁seguia	-9277
▁simple	-9278
▁sobran	-9279
▁starts	-9280
▁sublim	-9281
▁superf	-9282
▁symbol	-9283
▁templo	-9284
▁tendes	-9285
▁thirst	-9286
▁tirava	-9287
▁tornei	-9288
▁tricks	-9289
▁tucked	-9290
▁vender	-9291
▁virgem	-9292
▁warmth	-9293
▁washed	-9294
▁welcom	-9295
▁zoomed	-9296
bilidade	-9297
rmometer	-9298
▁Charlie	-9299
▁Espanha	-9300
▁Júpiter	-9301
▁Pythias	-9302
▁Segundo	-9303
▁aceitar	-9304
▁apertar	-9305
▁armazem	-9306
▁bengala	-9307
▁bounced	-9308
▁burning	-9309
▁ceiling	-9310
▁cercado	-9311
▁chapéos	-9312
▁collete	-9313
▁conheço	-9314
▁defeito	-9315
▁deixado	-9316
▁diamond	-9317
▁dressed	-9318
▁entende	-9319
▁esquece	-9320
▁estende	-9321
▁fireman	-9322
▁firmeza	-9323
▁flapped	-9324
▁flutter	-9325
▁forgave	-9326
▁formula	-9327
▁fructos	-9328
▁herança	-9329
▁instant	-9330
▁license	-9331
▁ligeiro	-9332
▁maridos	-9333
▁married	-9334
▁meninos	-9335
▁mirando	-9336
▁missile	-9337
▁mystery	-9338
▁nowhere	-9339
▁observe	-9340
▁oranges	-9341
▁pajamas	-9342
▁parecem	-9343
▁praised	-9344
▁prolong	-9345
▁prompta	-9346
▁proxima	-9347
▁quarrel	-9348
▁quebrar	-9349
▁sacudiu	-9350
▁slipped	-9351
▁spilled	-9352
▁stretch	-9353
▁todavia	-9354
▁tumulto	-9355
▁twisted	-9356
▁uniform	-9357
▁washing	-9358
radamente	-9359
▁Enquanto	-9360
▁Everyday	-9361
▁Levantou	-9362
▁Napoleão	-9363
▁Príncipe	-9364
▁Qualquer	-9365
▁arrancar	-9366
▁arranjar	-9367
▁barbeiro	-9368
▁bookcase	-9369
▁caricias	-9370
▁carinhos	-9371
▁clearing	-9372
▁climbing	-9373
▁concluir	-9374
▁cortezia	-9375
▁crawling	-9376
▁dezeseis	-9377
▁embarcar	-9378
▁episodio	-9379
▁escolher	-9380
▁escrevia	-9381
▁estranho	-9382
▁festival	-9383
▁garganta	-9384
▁graceful	-9385
▁inquieta	-9386
▁invenção	-9387
▁investig	-9388
▁kangaroo	-9389
▁magnific	-9390
▁morresse	-9391
▁passasse	-9392
▁pretexto	-9393
▁quatorze	-9394
▁sandcast	-9395
▁shoulder	-9396
▁skipping	-9397
▁strength	-9398
▁surround	-9399
▁thesouro	-9400
▁vitórias	-9401
itivamente	-9402
▁Invalidos	-9403
▁Lusitanos	-9404
▁agradeceu	-9405
▁almocreve	-9406
▁apprender	-9407
▁attention	-9408
▁attitudes	-9409
▁cavaleiro	-9410
▁commovido	-9411
▁convicção	-9412
▁descobriu	-9413
▁fireplace	-9414
▁gravidade	-9415
▁magnifico	-9416
▁manifesta	-9417
▁perfectly	-9418
▁professor	-9419
▁structure	-9420
▁trabalhar	-9421
▁treasures	-9422
▁turbilhão	-9423
▁whispered	-9424
▁whistling	-9425
▁Castelhano	-9426
▁apologized	-9427
▁atravessou	-9428
▁collecting	-9429
▁conservava	-9430
▁derradeiro	-9431
▁disgusting	-9432
▁encouraged	-9433
▁estremeceu	-9434
▁observação	-9435
▁principios	-9436
▁semelhança	-9437
▁butterflies	-9438
▁perguntando	-9439
▁presidencia	-9440
▁sinceridade	-9441
▁thermometer	-9442
▁propriamente	-9443
▁veterinarian	-9444
▁absolutamente	-9445
▁administração	-9446
▁contentamento	-9447
▁perfeitamente	-9448
▁possibilidade	-9449
▁extraordinario	-9450
▁verdadeiramente	-9451
.,	-9452
?!	-9453
Ah	-9454
Ha	-9455
Re	-9456
ân	-9457
ãs	-9458
éd	-9459
íf	-9460
▁x	-9461
air	-9462
ayá	-9463
cup	-9464
dge	-9465
low	-9466
oli	-9467
ont	-9468
ory	-9469
▁Ac	-9470
▁CL	-9471
▁Dá	-9472
▁If	-9473
▁Ju	-9474
▁My	-9475
▁Ul	-9476
▁XL	-9477
▁ga	-9478
▁rh	-9479
.--«	-9480
Está	-9481
aces	-9482
ages	-9483
amar	-9484
arão	-9485
baby	-9486
bury	-9487
cend	-9488
cioc	-9489
dido	-9490
edes	-9491
entu	-9492
ette	-9493
igio	-9494
igno	-9495
ilar	-9496
ires	-9497
issa	-9498
loló	-9499
mpoo	-9500
nger	-9501
noon	-9502
ntos	-9503
pack	-9504
urno	-9505
água	-9506
▁Ann	-9507
▁Bee	-9508
▁Bon	-9509
▁Gal	-9510
▁Mac	-9511
▁Pat	-9512
▁Sac	-9513
▁See	-9514
▁Ter	-9515
▁Tre	-9516
▁Vul	-9517
▁XXX	-9518
▁adv	-9519
▁aju	-9520
▁aux	-9521
▁bet	-9522
▁bul	-9523
▁cog	-9524
▁cro	-9525
▁gun	-9526
▁irá	-9527
▁jur	-9528
▁may	-9529
▁mop	-9530
▁pom	-9531
▁rhe	-9532
▁sae	-9533
▁tel	-9534
▁thu	-9535
▁vin	-9536
Agora	-9537
Muito	-9538
alhou	-9539
astes	-9540
ately	-9541
casse	-9542
cedeu	-9543
coupé	-9544
cções	-9545
ecido	-9546
fando	-9547
heart	-9548
icara	-9549
ients	-9550
igado	-9551
inuou	-9552
lowly	-9553
night	-9554
omago	-9555
oneza	-9556
ornos	-9557
ramma	-9558
risse	-9559
usões	-9560
vessa	-9561
zinha	-9562
élica	-9563
▁Abra	-9564
▁Aráb	-9565
▁Dous	-9566
▁Duas	-9567
▁Each	-9568
▁Gran	-9569
▁Harm	-9570
▁Kinn	-9571
▁Mala	-9572
▁Será	-9573
▁abre	-9574
▁accl	-9575
▁ater	-9576
▁belo	-9577
▁bram	-9578
▁brev	-9579
▁cats	-9580
▁cens	-9581
▁clav	-9582
▁club	-9583
▁coxa	-9584
▁crim	-9585
▁dirá	-9586
▁enfe	-9587
▁frou	-9588
▁gira	-9589
▁goal	-9590
▁haja	-9591
▁lawn	-9592
▁lido	-9593
▁maru	-9594
▁meza	-9595
▁moms	-9596
▁mêdo	-9597
▁nevo	-9598
▁nods	-9599
▁paws	-9600
▁peço	-9601
▁poet	-9602
▁rake	-9603
▁sono	-9604
▁stom	-9605
▁tido	-9606
▁tire	-9607
▁trad	-9608
▁trap	-9609
▁usar	-9610
▁verá	-9611
▁weep	-9612
▁wife	-9613
atorio	-9614
centos	-9615
chique	-9616
ientes	-9617
inadas	-9618
rugada	-9619
ucação	-9620
▁Ajuda	-9621
▁Const	-9622
▁Daqui	-9623
▁Estas	-9624
▁Feliz	-9625
▁Fuzzy	-9626
▁India	-9627
▁Inter	-9628
▁Quero	-9629
▁Sabia	-9630
▁Santo	-9631
▁Spike	-9632
▁Tenho	-9633
▁Vivia	-9634
▁alliv	-9635
▁alluc	-9636
▁andor	-9637
▁aonde	-9638
▁banha	-9639
▁begin	-9640
▁belic	-9641
▁below	-9642
▁boots	-9643
▁bread	-9644
▁cabel	-9645
▁cable	-9646
▁camar	-9647
▁ceder	-9648
▁chave	-9649
▁chess	-9650
▁choro	-9651
▁coins	-9652
▁copia	-9653
▁desva	-9654
▁dolor	-9655
▁droga	-9656
▁duzia	-9657
▁estac	-9658
▁expul	-9659
▁fique	-9660
▁fixar	-9661
▁fonte	-9662
▁forma	-9663
▁fraca	-9664
▁gifts	-9665
▁hears	-9666
▁hesit	-9667
▁incom	-9668
▁indag	-9669
▁jogar	-9670
▁knock	-9671
▁legit	-9672
▁mando	-9673
▁meias	-9674
▁meiga	-9675
▁navio	-9676
▁obter	-9677
▁olhei	-9678
▁orche	-9679
▁palpe	-9680
▁paços	-9681
▁pegar	-9682
▁perdi	-9683
▁pitch	-9684
▁povos	-9685
▁preca	-9686
▁prosa	-9687
▁prost	-9688
▁prove	-9689
▁prêso	-9690
▁quais	-9691
▁redor	-9692
▁remin	-9693
▁salad	-9694
▁sinal	-9695
▁somos	-9696
▁spade	-9697
▁steps	-9698
▁subia	-9699
▁sábio	-9700
▁total	-9701
▁triun	-9702
▁tromb	-9703
▁twigs	-9704
▁valsa	-9705
▁vibra	-9706
▁vimos	-9707
ventura	-9708
▁Aurora	-9709
▁França	-9710
▁Netuno	-9711
▁Slowly	-9712
▁advers	-9713
▁altern	-9714
▁amanhe	-9715
▁arranj	-9716
▁astron	-9717
▁batéis	-9718
▁beijou	-9719
▁beiços	-9720
▁buried	-9721
▁cherry	-9722
▁claros	-9723
▁compor	-9724
▁decora	-9725
▁descri	-9726
▁dissol	-9727
▁enchia	-9728
▁especi	-9729
▁ferros	-9730
▁fitava	-9731
▁freira	-9732
▁hunter	-9733
▁impell	-9734
▁indios	-9735
▁ingred	-9736
▁jornal	-9737
▁juntas	-9738
▁mandei	-9739
▁mergul	-9740
▁morava	-9741
▁morria	-9742
▁nascer	-9743
▁naufra	-9744
▁origem	-9745
▁parava	-9746
▁paused	-9747
▁peguei	-9748
▁permit	-9749
▁pigeon	-9750
▁polish	-9751
▁preven	-9752
▁proced	-9753
▁quadro	-9754
▁quieta	-9755
▁racioc	-9756
▁repeti	-9757
▁ruinas	-9758
▁saltar	-9759
▁seguir	-9760
▁silenc	-9761
▁softly	-9762
▁soneto	-9763
▁sorrir	-9764
▁spring	-9765
▁taller	-9766
▁thanks	-9767
▁ticket	-9768
▁transt	-9769
▁vexado	-9770
▁voltas	-9771
▁vossas	-9772
▁zipped	-9773
▁África	-9774
inheiros	-9775
videncia	-9776
▁Engenho	-9777
▁Kinnara	-9778
▁achieve	-9779
▁ajoelha	-9780
▁anonyma	-9781
▁applaud	-9782
▁berries	-9783
▁bondade	-9784
▁borbole	-9785
▁cacique	-9786
▁candles	-9787
▁cantava	-9788
▁cavalle	-9789
▁chicken	-9790
▁collega	-9791
▁comtudo	-9792
▁conheci	-9793
▁convite	-9794
▁degredo	-9795
▁deixara	-9796
▁descans	-9797
▁desobed	-9798
▁entendi	-9799
▁escadas	-9800
▁esconde	-9801
▁extrava	-9802
▁fastest	-9803
▁figured	-9804
▁futuros	-9805
▁habitos	-9806
▁impetos	-9807
▁incerto	-9808
▁jewelry	-9809
▁leitora	-9810
▁marquez	-9811
▁mendigo	-9812
▁mensage	-9813
▁mention	-9814
▁nascido	-9815
▁ninguém	-9816
▁obedece	-9817
▁obscuro	-9818
▁parente	-9819
▁passada	-9820
▁pintura	-9821
▁pumpkin	-9822
▁quartos	-9823
▁recurso	-9824
▁repetir	-9825
▁replace	-9826
▁reprehe	-9827
▁riqueza	-9828
▁secreto	-9829
▁shampoo	-9830
▁snowman	-9831
▁soffrer	-9832
▁soluços	-9833
▁subindo	-9834
▁supremo	-9835
▁suspira	-9836
▁thirsty	-9837
▁thunder	-9838
▁wealthy	-9839
▁weighed	-9840
ariamente	-9841
▁Harmonia	-9842
▁acabasse	-9843
▁accendeu	-9844
▁adorable	-9845
▁caminhou	-9846
▁chegavam	-9847
▁clapping	-9848
▁companhe	-9849
▁composto	-9850
▁conceito	-9851
▁conjugal	-9852
▁contacto	-9853
▁creanças	-9854
▁despezas	-9855
▁destruir	-9856
▁discreto	-9857
▁disposto	-9858
▁diversas	-9859
▁drawings	-9860
▁educação	-9861
▁enquanto	-9862
▁entregue	-9863
▁envelope	-9864
▁erguendo	-9865
▁escripta	-9866
▁escutava	-9867
▁estabele	-9868
▁estendia	-9869
▁estivera	-9870
▁estomago	-9871
▁estreita	-9872
▁estrondo	-9873
▁examined	-9874
▁execução	-9875
▁expansão	-9876
▁exército	-9877
▁harmless	-9878
▁inquieto	-9879
▁insistiu	-9880
▁interrog	-9881
▁lealdade	-9882
▁louvores	-9883
▁obedeceu	-9884
▁official	-9885
▁passeios	-9886
▁perfeito	-9887
▁pointing	-9888
▁portanto	-9889
▁pretende	-9890
▁proprias	-9891
▁realisar	-9892
▁recebido	-9893
▁recolher	-9894
▁responde	-9895
▁separate	-9896
▁sessenta	-9897
▁sleeping	-9898
▁solteira	-9899
▁sunlight	-9900
▁testemun	-9901
▁Clemencia	-9902
▁Monchique	-9903
▁afternoon	-9904
▁agradecer	-9905
▁apresenta	-9906
▁attribuir	-9907
▁blueberry	-9908
▁confirmou	-9909
▁conselhos	-9910
▁daquellas	-9911
▁destinado	-9912
▁elementos	-9913
▁encontrei	-9914
▁estrepito	-9915
▁explicava	-9916
▁instincto	-9917
▁jellyfish	-9918
▁montanhas	-9919
▁newspaper	-9920
▁pertencia	-9921
▁qualidade	-9922
▁repetindo	-9923
▁restabele	-9924
▁restituir	-9925
▁splashing	-9926
▁suspeitas	-9927
▁sustentar	-9928
▁transform	-9929
▁voltarete	-9930
▁autoridade	-9931
▁cabelleire	-9932
▁certamente	-9933
▁costureira	-9934
▁derradeira	-9935
▁disposição	-9936
▁dissimular	-9937
▁distincção	-9938
▁escrevendo	-9939
▁fascinated	-9940
▁levantando	-9941
▁mysterioso	-9942
▁nascimento	-9943
▁presidente	-9944
▁respectful	-9945
▁sweetheart	-9946
▁ajuntamento	-9947
▁commandante	-9948
▁conversando	-9949
▁escriptorio	-9950
▁imagination	-9951
▁ingredients	-9952
▁instrumento	-9953
▁intelligent	-9954
▁manuscripto	-9955
▁indifferente	-9956
▁preparativos	-9957
AP	-9958
Me	-9959
RA	-9960
So	-9961
ns	-9962
ye	-9963
üa	-9964
?--	-9965
dar	-9966
fit	-9967
gam	-9968
gen	-9969
lio	-9970
loe	-9971
rea	-9972
ups	-9973
▁DE	-9974
▁Fa	-9975
▁Il	-9976
▁Iâ	-9977
▁Je	-9978
▁LX	-9979
▁OK	-9980
▁cy	-9981
..._	-9982
:--«	-9983
Here	-9984
aina	-9985
amba	-9986
atos	-9987
avid	-9988
azer	-9989
azes	-9990
bles	-9991
bril	-9992
como	-9993
efin	-9994
eras	-9995
etle	-9996
gido	-9997
guez	-9998
iate	-9999
icho	-10000
isou	-10001
isão	-10002
lier	-10003
mava	-10004
ndem	-10005
ndes	-10006
ntou	-10007
opat	-10008
osso	-10009
redo	-10010
rend	-10011
rião	-10012
robe	-10013
tada	-10014
tain	-10015
vada	-10016
xima	-10017
▁Acc	-10018
▁Ala	-10019
▁Ale	-10020
▁Ang	-10021
▁Are	-10022
▁Bom	-10023
▁Bra	-10024
▁CXX	-10025
▁Cla	-10026
▁Deu	-10027
▁Har	-10028
▁Joy	-10029
▁LXX	-10030
▁Pen	-10031
▁Pra	-10032
▁Rob	-10033
▁Tro	-10034
▁Vas	-10035
▁afo	-10036
▁anx	-10037
▁bib	-10038
▁bár	-10039
▁cum	-10040
▁cór	-10041
▁den	-10042
▁duv	-10043
▁fog	-10044
▁jud	-10045
▁juí	-10046
▁moc	-10047
▁ost	-10048
▁pôs	-10049
▁sar	-10050
▁seg	-10051
▁soc	-10052
▁toa	-10053
▁tub	-10054
▁vad	-10055
▁vet	-10056
Assim	-10057
Vamos	-10058
adium	-10059
aixon	-10060
alhos	-10061
anegy	-10062
antei	-10063
caram	-10064
ccoli	-10065
cerca	-10066
ceros	-10067
cisco	-10068
entas	-10069
enças	-10070
erial	-10071
feira	-10072
gente	-10073
iasse	-10074
icida	-10075
igail	-10076
iggly	-10077
intha	-10078
jamos	-10079
lices	-10080
murro	-10081
olesc	-10082
oured	-10083
ouses	-10084
pidos	-10085
reira	-10086
resso	-10087
teria	-10088
vados	-10089
valho	-10090
vista	-10091
çavam	-10092
œThat	-10093
▁Beth	-10094
▁Cant	-10095
▁Digo	-10096
▁Incl	-10097
▁Jess	-10098
▁LXXX	-10099
▁Luso	-10100
▁Ptol	-10101
▁Pólo	-10102
▁Rece	-10103
▁Sião	-10104
▁Tran	-10105
▁Veja	-10106
▁agas	-10107
▁alum	-10108
▁apal	-10109
▁asks	-10110
▁atte	-10111
▁atur	-10112
▁bean	-10113
▁bebe	-10114
▁bico	-10115
▁brig	-10116
▁cell	-10117
▁coro	-10118
▁cows	-10119
▁cris	-10120
▁crue	-10121
▁crêr	-10122
▁desm	-10123
▁eggs	-10124
▁empl	-10125
▁fals	-10126
▁foge	-10127
▁grat	-10128
▁hypo	-10129
▁item	-10130
▁jant	-10131
▁jogo	-10132
▁leda	-10133
▁lime	-10134
▁lose	-10135
▁mago	-10136
▁mild	-10137
▁moda	-10138
▁pais	-10139
▁peça	-10140
▁pour	-10141
▁proa	-10142
▁ramo	-10143
▁reno	-10144
▁romp	-10145
▁ruim	-10146
▁soph	-10147
▁suss	-10148
▁vaso	-10149
▁wipe	-10150
▁wrap	-10151
▁yoga	-10152
amação	-10153
arguiu	-10154
ciente	-10155
estava	-10156
hensão	-10157
ilhões	-10158
irando	-10159
itavel	-10160
queles	-10161
quinha	-10162
utação	-10163
▁Achei	-10164
▁Basta	-10165
▁Chloe	-10166
▁Clara	-10167
▁David	-10168
▁Diana	-10169
▁Escre	-10170
▁Flora	-10171
▁Frank	-10172
▁Joane	-10173
▁Julia	-10174
▁Nossa	-10175
▁Olive	-10176
▁Would	-10177
▁abaix	-10178
▁abund	-10179
▁acaba	-10180
▁acham	-10181
▁affag	-10182
▁alien	-10183
▁aroma	-10184
▁badly	-10185
▁balls	-10186
▁barba	-10187
▁casou	-10188
▁casta	-10189
▁cedia	-10190
▁chega	-10191
▁chine	-10192
▁colhe	-10193
▁creia	-10194
▁cuida	-10195
▁decre	-10196
▁deixo	-10197
▁deles	-10198
▁desma	-10199
▁desor	-10200
▁devol	-10201
▁dough	-10202
▁drain	-10203
▁duras	-10204
▁duros	-10205
▁embal	-10206
▁engra	-10207
▁enxer	-10208
▁escar	-10209
▁espad	-10210
▁falle	-10211
▁fallo	-10212
▁falsa	-10213
▁feste	-10214
▁force	-10215
▁freio	-10216
▁frias	-10217
▁globo	-10218
▁guiar	-10219
▁hedge	-10220
▁holes	-10221
▁integ	-10222
▁inver	-10223
▁invis	-10224
▁justa	-10225
▁leite	-10226
▁loops	-10227
▁luzes	-10228
▁marry	-10229
▁melod	-10230
▁metti	-10231
▁monot	-10232
▁movia	-10233
▁nasce	-10234
▁needs	-10235
▁nuvem	-10236
▁occul	-10237
▁palha	-10238
▁panno	-10239
▁pearl	-10240
▁peior	-10241
▁pelle	-10242
▁penso	-10243
▁picks	-10244
▁puxou	-10245
▁reluz	-10246
▁rhino	-10247
▁screw	-10248
▁serão	-10249
▁spell	-10250
▁straw	-10251
▁surdo	-10252
▁taboa	-10253
▁terão	-10254
▁tools	-10255
▁trail	-10256
▁troco	-10257
▁uncle	-10258
▁usual	-10259
▁valem	-10260
▁vicio	-10261
▁vigor	-10262
▁yours	-10263
alhados	-10264
entasse	-10265
inheiro	-10266
onhamos	-10267
riedade	-10268
rimonio	-10269
roscope	-10270
▁Deixei	-10271
▁Estado	-10272
▁Mestre	-10273
▁Morreu	-10274
▁Sentia	-10275
▁achára	-10276
▁acresc	-10277
▁advice	-10278
▁afroux	-10279
▁amasse	-10280
▁artigo	-10281
▁bailes	-10282
▁beetle	-10283
▁bumped	-10284
▁cabana	-10285
▁causas	-10286
▁cereal	-10287
▁cheias	-10288
▁chewed	-10289
▁chores	-10290
▁clarão	-10291
▁cooked	-10292
▁descan	-10293
▁despro	-10294
▁devota	-10295
▁domest	-10296
▁during	-10297
▁eguaes	-10298
▁embria	-10299
▁encant	-10300
▁energy	-10301
▁erguia	-10302
▁espero	-10303
▁esposo	-10304
▁estudo	-10305
▁ficara	-10306
▁fructo	-10307
▁future	-10308
▁grossa	-10309
▁haverá	-10310
▁haviam	-10311
▁houses	-10312
▁incons	-10313
▁indign	-10314
▁lindos	-10315
▁língua	-10316
▁magnet	-10317
▁margem	-10318
▁mortes	-10319
▁obliqu	-10320
▁orelha	-10321
▁parent	-10322
▁passam	-10323
▁pastry	-10324
▁pequen	-10325
▁perpet	-10326
▁ponder	-10327
▁portão	-10328
▁prophe	-10329
▁provar	-10330
▁prémio	-10331
▁recuou	-10332
▁repair	-10333
▁repass	-10334
▁saindo	-10335
▁saving	-10336
▁scenas	-10337
▁shells	-10338
▁solved	-10339
▁subido	-10340
▁supply	-10341
▁suppor	-10342
▁towers	-10343
▁trecho	-10344
▁tugged	-10345
▁vacill	-10346
▁voltei	-10347
▁vultos	-10348
▁winter	-10349
▁zigzag	-10350
aquellas	-10351
aquelles	-10352
onsenhor	-10353
▁Abigail	-10354
▁Alagoas	-10355
▁Chamava	-10356
▁Christo	-10357
▁Conrado	-10358
▁Instead	-10359
▁Parecia	-10360
▁Ptolome	-10361
▁Villaça	-10362
▁accordo	-10363
▁acharam	-10364
▁admirou	-10365
▁adolesc	-10366
▁alheias	-10367
▁almoçar	-10368
▁anxious	-10369
▁apaixon	-10370
▁assento	-10371
▁attento	-10372
▁blasphe	-10373
▁blowing	-10374
▁brincar	-10375
▁checked	-10376
▁chegada	-10377
▁coberto	-10378
▁comadre	-10379
▁compens	-10380
▁correio	-10381
▁country	-10382
▁created	-10383
▁creação	-10384
▁crossed	-10385
▁devoção	-10386
▁dirigio	-10387
▁disturb	-10388
▁dividas	-10389
▁earlier	-10390
▁elevava	-10391
▁escapar	-10392
▁escrava	-10393
▁escutou	-10394
▁estudos	-10395
▁falling	-10396
▁fechado	-10397
▁fechava	-10398
▁floated	-10399
▁glowing	-10400
▁grossas	-10401
▁guerras	-10402
▁hospede	-10403
▁imagens	-10404
▁immovel	-10405
▁improve	-10406
▁indefin	-10407
▁inteiro	-10408
▁kicking	-10409
▁ladybug	-10410
▁lagrima	-10411
▁lançava	-10412
▁levaram	-10413
▁ligeira	-10414
▁mandára	-10415
▁marinha	-10416
▁massage	-10417
▁missing	-10418
▁mostras	-10419
▁nightma	-10420
▁ouvisse	-10421
▁padecer	-10422
▁pegando	-10423
▁peralta	-10424
▁puddles	-10425
▁puzzles	-10426
▁rabbits	-10427
▁sahisse	-10428
▁setting	-10429
▁sincera	-10430
▁sincero	-10431
▁sniffed	-10432
▁solução	-10433
▁stadium	-10434
▁succumb	-10435
▁suprema	-10436
▁suspiro	-10437
▁teimava	-10438
▁theoria	-10439
▁tilbury	-10440
▁tomaram	-10441
▁warning	-10442
▁workers	-10443
▁áquella	-10444
▁áquelle	-10445
anegyrico	-10446
ivelmente	-10447
respondeu	-10448
▁Chegando	-10449
▁Conhecia	-10450
▁Jacintha	-10451
▁Naquelle	-10452
▁Preciosa	-10453
▁acceitou	-10454
▁accepted	-10455
▁advertiu	-10456
▁angustia	-10457
▁brandura	-10458
▁broccoli	-10459
▁cadeiras	-10460
▁calumnia	-10461
▁cantando	-10462
▁capricho	-10463
▁carrying	-10464
▁charutos	-10465
▁christão	-10466
▁clausula	-10467
▁coloured	-10468
▁complain	-10469
▁contasse	-10470
▁curtains	-10471
▁deixaram	-10472
▁descobri	-10473
▁desejada	-10474
▁desengan	-10475
▁diamante	-10476
▁direitos	-10477
▁diversos	-10478
▁dominava	-10479
▁effeitos	-10480
▁emplasto	-10481
▁entravam	-10482
▁envolvia	-10483
▁escarneo	-10484
▁fallando	-10485
▁familias	-10486
▁fantasia	-10487
▁firework	-10488
▁ignorava	-10489
▁imperial	-10490
▁lançando	-10491
▁memorias	-10492
▁memories	-10493
▁metaphys	-10494
▁mistakes	-10495
▁naturais	-10496
▁oratorio	-10497
▁partidos	-10498
▁passeava	-10499
▁pistolas	-10500
▁poderosa	-10501
▁preferia	-10502
▁recordar	-10503
▁recursos	-10504
▁reminisc	-10505
▁restless	-10506
▁senhorio	-10507
▁skeleton	-10508
▁snuggled	-10509
▁straight	-10510
▁throwing	-10511
▁transfer	-10512
▁vertigem	-10513
▁Fortunata	-10514
▁Francisco	-10515
▁algibeira	-10516
▁alteração	-10517
▁amazement	-10518
▁bandeiras	-10519
▁conhecida	-10520
▁creatures	-10521
▁descobria	-10522
▁destroyed	-10523
▁discursos	-10524
▁entendido	-10525
▁estavamos	-10526
▁excelente	-10527
▁fortaleza	-10528
▁lightning	-10529
▁madrugada	-10530
▁maravilha	-10531
▁offerecer	-10532
▁orchestra	-10533
▁ornaments	-10534
▁palpebras	-10535
▁parecendo	-10536
▁permittia	-10537
▁preparado	-10538
▁prometteu	-10539
▁reflectia	-10540
▁respostas	-10541
▁solitaria	-10542
▁successos	-10543
▁supplicio	-10544
▁approached	-10545
▁cavalleiro	-10546
▁descoberta	-10547
▁familiares	-10548
▁humanidade	-10549
▁inspiração	-10550
▁magistrado	-10551
▁mantimento	-10552
▁microscope	-10553
▁mysteriosa	-10554
▁necessaria	-10555
▁pretending	-10556
▁principaes	-10557
▁recompensa	-10558
▁rhinoceros	-10559
▁serenidade	-10560
▁sobresalto	-10561
▁alegremente	-10562
▁brandamente	-10563
▁consciência	-10564
▁desesperado	-10565
▁enthusiasmo	-10566
▁grandmother	-10567
▁immediately	-10568
▁investigate	-10569
▁resistência	-10570
▁comprehendeu	-10571
▁enthusiastic	-10572
▁misericordia	-10573
▁completamente	-10574
▁tranquillidade	-10575
cá	-10576
ju	-10577
íp	-10578
òr	-10579
ôo	-10580
úm	-10581
Max	-10582
Per	-10583
See	-10584
TMm	-10585
Tem	-10586
ali	-10587
ctu	-10588
dow	-10589
edy	-10590
eri	-10591
ett	-10592
fia	-10593
heu	-10594
ibu	-10595
ijo	-10596
isp	-10597
nal	-10598
nec	-10599
ned	-10600
pef	-10601
saz	-10602
zen	-10603
óra	-10604
▁Fé	-10605
▁Ob	-10606
▁XC	-10607
▁dó	-10608
▁úl	-10609
:--"	-10610
TMre	-10611
They	-10612
Tong	-10613
aint	-10614
alos	-10615
anna	-10616
arde	-10617
arnt	-10618
athe	-10619
bard	-10620
fada	-10621
fina	-10622
hens	-10623
ikes	-10624
imei	-10625
inky	-10626
jada	-10627
jado	-10628
kers	-10629
late	-10630
lhos	-10631
olos	-10632
orma	-10633
ouve	-10634
rara	-10635
rono	-10636
teis	-10637
tete	-10638
timo	-10639
ugue	-10640
ulou	-10641
urar	-10642
utal	-10643
vest	-10644
ween	-10645
▁Ach	-10646
▁CXL	-10647
▁Dir	-10648
▁Gam	-10649
▁Gig	-10650
▁Imm	-10651
▁Joa	-10652
▁Jud	-10653
▁Man	-10654
▁Nat	-10655
▁Sap	-10656
▁Saí	-10657
▁Sei	-10658
▁Sha	-10659
▁Vós	-10660
▁crê	-10661
▁eno	-10662
▁fér	-10663
▁gig	-10664
▁gri	-10665
▁ink	-10666
▁lac	-10667
▁lep	-10668
▁lip	-10669
▁mug	-10670
▁máu	-10671
▁mór	-10672
▁nad	-10673
▁nua	-10674
▁oit	-10675
▁pac	-10676
▁reb	-10677
▁sop	-10678
▁sul	-10679
▁vás	-10680
amais	-10681
amava	-10682
arece	-10683
berry	-10684
dizia	-10685
endas	-10686
ensão	-10687
gadas	-10688
gging	-10689
iaria	-10690
icket	-10691
iders	-10692
inais	-10693
ional	-10694
ipper	-10695
ordei	-10696
queta	-10697
rante	-10698
riage	-10699
rição	-10700
taram	-10701
tendo	-10702
tonot	-10703
vanta	-10704
versa	-10705
zeres	-10706
▁Acce	-10707
▁CXXX	-10708
▁Dese	-10709
▁Gost	-10710
▁King	-10711
▁Mart	-10712
▁Mike	-10713
▁Nilo	-10714
▁Nuno	-10715
▁Paul	-10716
▁Rory	-10717
▁Rose	-10718
▁Will	-10719
▁Yayá	-10720
▁Your	-10721
▁acen	-10722
▁adoe	-10723
▁arra	-10724
▁auto	-10725
▁bicy	-10726
▁bron	-10727
▁buzz	-10728
▁calc	-10729
▁chat	-10730
▁chir	-10731
▁cups	-10732
▁dará	-10733
▁dess	-10734
▁elim	-10735
▁enxo	-10736
▁espí	-10737
▁expa	-10738
▁fant	-10739
▁fico	-10740
▁fita	-10741
▁fixa	-10742
▁gaze	-10743
▁inab	-10744
▁iner	-10745
▁inev	-10746
▁irre	-10747
▁jazz	-10748
▁jeep	-10749
▁lago	-10750
▁libe	-10751
▁lick	-10752
▁lips	-10753
▁ouve	-10754
▁pair	-10755
▁pate	-10756
▁perc	-10757
▁polk	-10758
▁poço	-10759
▁pray	-10760
▁pung	-10761
▁purp	-10762
▁réde	-10763
▁sabb	-10764
▁saía	-10765
▁sofa	-10766
▁stro	-10767
▁toes	-10768
▁tube	-10769
Senhor	-10770
aphora	-10771
brella	-10772
essura	-10773
fortun	-10774
inaldo	-10775
ortuno	-10776
▁Abbie	-10777
▁Adeus	-10778
▁Bunny	-10779
▁Dizia	-10780
▁Fazia	-10781
▁Houve	-10782
▁Jacky	-10783
▁Kelly	-10784
▁Lilly	-10785
▁Muito	-10786
▁Samor	-10787
▁Suzie	-10788
▁abalo	-10789
▁absor	-10790
▁acabe	-10791
▁admir	-10792
▁adult	-10793
▁ancia	-10794
▁anjos	-10795
▁artes	-10796
▁assaz	-10797
▁atrap	-10798
▁atrev	-10799
▁autos	-10800
▁bathe	-10801
▁briga	-10802
▁cabis	-10803
▁cahia	-10804
▁carru	-10805
▁chape	-10806
▁ciume	-10807
▁colla	-10808
▁colum	-10809
▁crept	-10810
▁cries	-10811
▁dedic	-10812
▁despo	-10813
▁eaten	-10814
▁eloqu	-10815
▁estri	-10816
▁forão	-10817
▁frest	-10818
▁fugia	-10819
▁fúria	-10820
▁genro	-10821
▁incon	-10822
▁incre	-10823
▁inexp	-10824
▁invol	-10825
▁janta	-10826
▁lenta	-10827
▁licor	-10828
▁lojas	-10829
▁mance	-10830
▁mania	-10831
▁moita	-10832
▁mudar	-10833
▁mágoa	-10834
▁noção	-10835
▁pagem	-10836
▁pausa	-10837
▁perio	-10838
▁poude	-10839
▁prato	-10840
▁prazo	-10841
▁provo	-10842
▁radia	-10843
▁raras	-10844
▁ratos	-10845
▁refug	-10846
▁rende	-10847
▁ricas	-10848
▁risco	-10849
▁ruina	-10850
▁salão	-10851
▁scold	-10852
▁secco	-10853
▁segui	-10854
▁setas	-10855
▁short	-10856
▁socio	-10857
▁sojug	-10858
▁solta	-10859
▁somma	-10860
▁telha	-10861
▁theat	-10862
▁tomei	-10863
▁unhas	-10864
▁usava	-10865
▁value	-10866
▁varão	-10867
▁veias	-10868
▁venda	-10869
▁vivas	-10870
▁weeks	-10871
entavam	-10872
ivencia	-10873
laterra	-10874
▁Catual	-10875
▁Chirpy	-10876
▁Daniel	-10877
▁Entrei	-10878
▁Granny	-10879
▁Homero	-10880
▁Sempre	-10881
▁Também	-10882
▁acudia	-10883
▁adquir	-10884
▁aguard	-10885
▁alheio	-10886
▁atirar	-10887
▁attach	-10888
▁backed	-10889
▁bastou	-10890
▁behave	-10891
▁beijei	-10892
▁birdie	-10893
▁cambra	-10894
▁candid	-10895
▁caring	-10896
▁carnes	-10897
▁certos	-10898
▁chapéu	-10899
▁cheios	-10900
▁começo	-10901
▁contem	-10902
▁corrom	-10903
▁crimin	-10904
▁demand	-10905
▁descal	-10906
▁discut	-10907
▁embaix	-10908
▁enfiou	-10909
▁esmola	-10910
▁exacto	-10911
▁filthy	-10912
▁fontes	-10913
▁fresco	-10914
▁frieza	-10915
▁frozen	-10916
▁giggle	-10917
▁horses	-10918
▁infame	-10919
▁inglez	-10920
▁injust	-10921
▁ironia	-10922
▁joelho	-10923
▁knight	-10924
▁learnt	-10925
▁loving	-10926
▁manage	-10927
▁mangas	-10928
▁master	-10929
▁mental	-10930
▁mestra	-10931
▁minute	-10932
▁mordia	-10933
▁mortas	-10934
▁notice	-10935
▁papers	-10936
▁parado	-10937
▁partiu	-10938
▁pastel	-10939
▁perceb	-10940
▁planet	-10941
▁popped	-10942
▁poster	-10943
▁primor	-10944
▁realis	-10945
▁remota	-10946
▁rostos	-10947
▁roupas	-10948
▁sabido	-10949
▁scrubb	-10950
▁soltar	-10951
▁sprink	-10952
▁subita	-10953
▁subjug	-10954
▁sunset	-10955
▁teimou	-10956
▁tomada	-10957
▁trophy	-10958
▁unidos	-10959
▁unlock	-10960
▁volunt	-10961
▁waving	-10962
▁zipper	-10963
▁ácerca	-10964
ificação	-10965
ralmente	-10966
▁Cattete	-10967
▁Fazendo	-10968
▁Fortuna	-10969
▁However	-10970
▁Passeio	-10971
▁abraçou	-10972
▁achasse	-10973
▁adorava	-10974
▁animais	-10975
▁apanhar	-10976
▁arrebat	-10977
▁batatas	-10978
▁belongs	-10979
▁between	-10980
▁bravely	-10981
▁chicara	-10982
▁clavina	-10983
▁coincid	-10984
▁commoda	-10985
▁comprou	-10986
▁confuso	-10987
▁constru	-10988
▁cricket	-10989
▁deitado	-10990
▁desciam	-10991
▁despois	-10992
▁empresa	-10993
▁enseada	-10994
▁entrado	-10995
▁enxugou	-10996
▁escrevo	-10997
▁esqueça	-10998
▁estiver	-10999
▁favores	-11000
▁ficavam	-11001
▁finezas	-11002
▁fingers	-11003
▁formava	-11004
▁fugisse	-11005
▁hanging	-11006
▁honesto	-11007
▁humidos	-11008
▁inquiet	-11009
▁institu	-11010
▁journal	-11011
▁keeping	-11012
▁logares	-11013
▁loteria	-11014
▁madeira	-11015
▁mandara	-11016
▁menores	-11017
▁merecer	-11018
▁merecia	-11019
▁message	-11020
▁mission	-11021
▁monkeys	-11022
▁monstro	-11023
▁ordenou	-11024
▁pattern	-11025
▁pillows	-11026
▁plantas	-11027
▁planted	-11028
▁prendia	-11029
▁prevent	-11030
▁protest	-11031
▁próprio	-11032
▁punição	-11033
▁quantas	-11034
▁ressaca	-11035
▁risonha	-11036
▁roaring	-11037
▁sabemos	-11038
▁sadness	-11039
▁sagrada	-11040
▁sandbox	-11041
▁servido	-11042
▁sneezed	-11043
▁solemne	-11044
▁spiders	-11045
▁sunrise	-11046
▁superst	-11047
▁tirando	-11048
▁trusted	-11049
▁visital	-11050
▁visitar	-11051
▁voltado	-11052
▁ásperos	-11053
tonotario	-11054
▁Fernando	-11055
▁Ptolomeu	-11056
▁acanhado	-11057
▁actually	-11058
▁afflicta	-11059
▁alcançar	-11060
▁alfaiate	-11061
▁amarella	-11062
▁applauso	-11063
▁apprecia	-11064
▁baixinho	-11065
▁baseball	-11066
▁birdcage	-11067
▁brincava	-11068
▁brothers	-11069
▁buscando	-11070
▁carteira	-11071
▁chegaria	-11072
▁começado	-11073
▁complete	-11074
▁consente	-11075
▁convidou	-11076
▁decorate	-11077
▁descobre	-11078
▁desculpa	-11079
▁entendel	-11080
▁escapava	-11081
▁esquerdo	-11082
▁estrella	-11083
▁estupido	-11084
▁examinar	-11085
▁exterior	-11086
▁flexible	-11087
▁folhagem	-11088
▁gesticul	-11089
▁gracioso	-11090
▁habitual	-11091
▁inclinou	-11092
▁interpre	-11093
▁jantares	-11094
▁namorada	-11095
▁pancadas	-11096
▁passavam	-11097
▁pequenas	-11098
▁perigoso	-11099
▁prazeres	-11100
▁preparou	-11101
▁presents	-11102
▁proferir	-11103
▁resistiu	-11104
▁sentindo	-11105
▁shooting	-11106
▁soberano	-11107
▁stickers	-11108
▁succedeu	-11109
▁supplica	-11110
▁tamanhas	-11111
▁transcre	-11112
▁umbrella	-11113
▁welcomed	-11114
▁Reginaldo	-11115
▁adivinhar	-11116
▁aventuras	-11117
▁capitulos	-11118
▁caprichos	-11119
▁ceremonia	-11120
▁concordou	-11121
▁continuei	-11122
▁contraste	-11123
▁conversar	-11124
▁deputados	-11125
▁desenhava	-11126
▁destinada	-11127
▁determina	-11128
▁disagreed	-11129
▁docemente	-11130
▁empregado	-11131
▁encontrou	-11132
▁escarlate	-11133
▁escrupulo	-11134
▁espiritos	-11135
▁formosura	-11136
▁franqueza	-11137
▁gathering	-11138
▁graciosas	-11139
▁grandbaby	-11140
▁inclinava	-11141
▁lembrando	-11142
▁levantava	-11143
▁levemente	-11144
▁metaphora	-11145
▁moradores	-11146
▁naquelles	-11147
▁obsequios	-11148
▁offereceu	-11149
▁possantes	-11150
▁projectos	-11151
▁reflectir	-11152
▁regimento	-11153
▁revolução	-11154
▁struggled	-11155
▁transport	-11156
fortunately	-11157
▁Felizmente	-11158
▁Inglaterra	-11159
▁Portuguesa	-11160
▁aborrecida	-11161
▁acompanhal	-11162
▁andorinhas	-11163
▁basketball	-11164
▁claramente	-11165
▁confessava	-11166
▁conhecidos	-11167
▁correspond	-11168
▁declaração	-11169
▁discussing	-11170
▁experiment	-11171
▁facilidade	-11172
▁influencia	-11173
▁intervallo	-11174
▁reconheceu	-11175
▁strawberry	-11176
▁struggling	-11177
▁tempestade	-11178
▁trabalhava	-11179
▁Providencia	-11180
▁desesperada	-11181
▁francamente	-11182
▁propriedade	-11183
▁soffrimento	-11184
▁surrendered	-11185
▁verdadeiras	-11186
▁consideração	-11187
▁conveniencia	-11188
▁desconhecida	-11189
▁esquecimento	-11190
▁intelligente	-11191
▁philosophica	-11192
▁preoccupação	-11193
▁cabelleireiro	-11194
▁superioridade	-11195
▁reminiscencias	-11196
▁particularmente	-11197
Fo	-11198
Na	-11199
Sa	-11200
UL	-11201
Um	-11202
rf	-11203
rr	-11204
âm	-11205
ít	-11206
Ali	-11207
aly	-11208
cap	-11209
ecu	-11210
elp	-11211
ety	-11212
ils	-11213
iso	-11214
pag	-11215
pét	-11216
riz	-11217
sal	-11218
son	-11219
ste	-11220
tão	-11221
ull	-11222
vio	-11223
zos	-11224
íqu	-11225
ógn	-11226
óre	-11227
õem	-11228
œWe	-11229
▁Cá	-11230
▁Eg	-11231
▁Ri	-11232
▁ai	-11233
▁hi	-11234
▁lê	-11235
▁ín	-11236
...?	-11237
anaz	-11238
ania	-11239
ason	-11240
atou	-11241
açar	-11242
bida	-11243
cate	-11244
cell	-11245
chor	-11246
ckey	-11247
dled	-11248
emma	-11249
ents	-11250
gios	-11251
hest	-11252
iago	-11253
icie	-11254
ield	-11255
iers	-11256
indy	-11257
inem	-11258
mitt	-11259
ndon	-11260
oros	-11261
pado	-11262
pens	-11263
play	-11264
quiu	-11265
tery	-11266
tina	-11267
uaes	-11268
udas	-11269
unas	-11270
uoso	-11271
veiu	-11272
xtos	-11273
zado	-11274
ália	-11275
áram	-11276
édio	-11277
éria	-11278
ério	-11279
œYou	-11280
▁...	-11281
▁Aos	-11282
▁Ass	-11283
▁Bun	-11284
▁Bus	-11285
▁Def	-11286
▁Fic	-11287
▁Its	-11288
▁Jes	-11289
▁Mor	-11290
▁Nut	-11291
▁Nós	-11292
▁Pha	-11293
▁Ser	-11294
▁Sor	-11295
▁Syl	-11296
▁Vem	-11297
▁bex	-11298
▁lux	-11299
▁lêr	-11300
▁nic	-11301
▁obe	-11302
▁obt	-11303
▁opt	-11304
▁pec	-11305
▁pôz	-11306
▁rad	-11307
▁réo	-11308
▁sed	-11309
▁soa	-11310
▁tol	-11311
Tenho	-11312
acked	-11313
agers	-11314
alyse	-11315
ancos	-11316
ardes	-11317
astro	-11318
atica	-11319
ating	-11320
endeu	-11321
ensos	-11322
entam	-11323
estro	-11324
hados	-11325
iculo	-11326
illes	-11327
imava	-11328
inter	-11329
intra	-11330
isten	-11331
lação	-11332
logia	-11333
macia	-11334
manhã	-11335
menta	-11336
oming	-11337
oreza	-11338
orias	-11339
ridas	-11340
tello	-11341
timas	-11342
tinha	-11343
ulada	-11344
upado	-11345
urias	-11346
vavel	-11347
venen	-11348
áveis	-11349
çamos	-11350
úrias	-11351
œLook	-11352
▁Adam	-11353
▁Bear	-11354
▁Bird	-11355
▁Bobo	-11356
▁Cabo	-11357
▁Casa	-11358
▁Conc	-11359
▁Cuja	-11360
▁Form	-11361
▁Here	-11362
▁Juro	-11363
▁Look	-11364
▁Nept	-11365
▁Nere	-11366
▁Ouvi	-11367
▁Part	-11368
▁Reve	-11369
▁Seja	-11370
▁Tina	-11371
▁True	-11372
▁Vass	-11373
▁Vive	-11374
▁Whis	-11375
▁alar	-11376
▁anat	-11377
▁ants	-11378
▁area	-11379
▁arom	-11380
▁arvo	-11381
▁bafe	-11382
▁bate	-11383
▁bill	-11384
▁brus	-11385
▁cano	-11386
▁caça	-11387
▁chor	-11388
▁crit	-11389
▁dear	-11390
▁desd	-11391
▁enig	-11392
▁esma	-11393
▁fado	-11394
▁fins	-11395
▁firm	-11396
▁fuma	-11397
▁half	-11398
▁hate	-11399
▁herd	-11400
▁hist	-11401
▁impl	-11402
▁inse	-11403
▁irei	-11404
▁irem	-11405
▁joia	-11406
▁lend	-11407
▁lenç	-11408
▁mald	-11409
▁mana	-11410
▁mano	-11411
▁mato	-11412
▁muff	-11413
▁mães	-11414
▁neto	-11415
▁paus	-11416
▁pern	-11417
▁prec	-11418
▁rect	-11419
▁reef	-11420
▁resg	-11421
▁reso	-11422
▁rota	-11423
▁situ	-11424
▁sofá	-11425
▁spit	-11426
▁subm	-11427
▁suic	-11428
▁suma	-11429
▁sway	-11430
▁terr	-11431
▁tome	-11432
▁trag	-11433
▁urge	-11434
▁vass	-11435
▁verd	-11436
▁vind	-11437
▁ward	-11438
▁youâ	-11439
Quando	-11440
aculos	-11441
alavel	-11442
celhas	-11443
ecesse	-11444
enções	-11445
estina	-11446
gueira	-11447
herman	-11448
inhava	-11449
ission	-11450
itados	-11451
jecção	-11452
ostura	-11453
porque	-11454
posito	-11455
rancia	-11456
tornou	-11457
ulance	-11458
venção	-11459
vester	-11460
▁Camba	-11461
▁Cindy	-11462
▁Conde	-11463
▁Dotty	-11464
▁Ergue	-11465
▁Esque	-11466
▁Green	-11467
▁Manda	-11468
▁Mande	-11469
▁Maura	-11470
▁Ouviu	-11471
▁Parte	-11472
▁Prime	-11473
▁Rocio	-11474
▁Sendo	-11475
▁Tilly	-11476
▁Until	-11477
▁aboto	-11478
▁abril	-11479
▁abrio	-11480
▁acert	-11481
▁achal	-11482
▁activ	-11483
▁actos	-11484
▁aguia	-11485
▁alive	-11486
▁analo	-11487
▁andam	-11488
▁andou	-11489
▁appet	-11490
▁aviso	-11491
▁azues	-11492
▁bowed	-11493
▁cabia	-11494
▁cinta	-11495
▁conde	-11496
▁corru	-11497
▁cresc	-11498
▁cuide	-11499
▁cupca	-11500
▁daisy	-11501
▁degrá	-11502
▁diver	-11503
▁drift	-11504
▁durou	-11505
▁eagle	-11506
▁enfor	-11507
▁falei	-11508
▁farão	-11509
▁flour	-11510
▁fresc	-11511
▁frogs	-11512
▁gozar	-11513
▁grill	-11514
▁hills	-11515
▁humil	-11516
▁items	-11517
▁jeito	-11518
▁jurar	-11519
▁jurou	-11520
▁lampe	-11521
▁leque	-11522
▁levei	-11523
▁lison	-11524
▁mamãe	-11525
▁micro	-11526
▁moveu	-11527
▁natal	-11528
▁nisso	-11529
▁panda	-11530
▁pedal	-11531
▁piles	-11532
▁plays	-11533
▁podes	-11534
▁poked	-11535
▁prend	-11536
▁pódes	-11537
▁radio	-11538
▁redea	-11539
▁relva	-11540
▁sahio	-11541
▁serei	-11542
▁seres	-11543
▁solte	-11544
▁sosse	-11545
▁speak	-11546
▁staff	-11547
▁stage	-11548
▁subiu	-11549
▁suffo	-11550
▁séria	-11551
▁tasks	-11552
▁twink	-11553
▁vagas	-11554
▁vapor	-11555
▁vasos	-11556
▁verão	-11557
arismos	-11558
inteiro	-11559
looking	-11560
umentos	-11561
▁Austro	-11562
▁Calecu	-11563
▁Cidade	-11564
▁Correu	-11565
▁Escola	-11566
▁Floppy	-11567
▁Gamboa	-11568
▁Gracie	-11569
▁Italia	-11570
▁Muitos	-11571
▁Passou	-11572
▁Robbie	-11573
▁Rodrig	-11574
▁Sancho	-11575
▁Sentou	-11576
▁Soeiro	-11577
▁Trazia	-11578
▁Veloso	-11579
▁Vieram	-11580
▁Virgem	-11581
▁Wiggly	-11582
▁agulha	-11583
▁alheia	-11584
▁altivo	-11585
▁antigu	-11586
▁apagar	-11587
▁appell	-11588
▁argued	-11589
▁arrega	-11590
▁astuto	-11591
▁baking	-11592
▁beamed	-11593
▁benção	-11594
▁breaks	-11595
▁buscal	-11596
▁calada	-11597
▁cantos	-11598
▁cavall	-11599
▁cheiro	-11600
▁claras	-11601
▁cobria	-11602
▁conced	-11603
▁cordas	-11604
▁credor	-11605
▁curios	-11606
▁deeper	-11607
▁deixam	-11608
▁desfor	-11609
▁deslig	-11610
▁deslum	-11611
▁desvia	-11612
▁deuses	-11613
▁diplom	-11614
▁ditoso	-11615
▁econom	-11616
▁edific	-11617
▁enfado	-11618
▁escriv	-11619
▁explos	-11620
▁factos	-11621
▁faltam	-11622
▁fazião	-11623
▁fought	-11624
▁frivol	-11625
▁gostar	-11626
▁gotten	-11627
▁impass	-11628
▁incend	-11629
▁incógn	-11630
▁inform	-11631
▁inicia	-11632
▁insinu	-11633
▁jamais	-11634
▁lanças	-11635
▁leaned	-11636
▁letras	-11637
▁livres	-11638
▁logica	-11639
▁marujo	-11640
▁namoro	-11641
▁nectar	-11642
▁nervos	-11643
▁nicely	-11644
▁noivos	-11645
▁oração	-11646
▁outfit	-11647
▁padres	-11648
▁paints	-11649
▁parrot	-11650
▁passei	-11651
▁peleja	-11652
▁pennas	-11653
▁perpét	-11654
▁pesada	-11655
▁planos	-11656
▁punhal	-11657
▁remoto	-11658
▁rendas	-11659
▁reteve	-11660
▁rotula	-11661
▁sabiam	-11662
▁safety	-11663
▁saltou	-11664
▁segura	-11665
▁serena	-11666
▁shadow	-11667
▁silent	-11668
▁social	-11669
▁sumptu	-11670
▁sussur	-11671
▁throno	-11672
▁tigers	-11673
▁tratei	-11674
▁trazem	-11675
▁triunf	-11676
▁trocou	-11677
▁trovão	-11678
▁tumulo	-11679
▁ventre	-11680
▁verdes	-11681
igamente	-11682
▁Contava	-11683
▁Império	-11684
▁Joaquim	-11685
▁Vulcano	-11686
▁abertos	-11687
▁absurda	-11688
▁absurdo	-11689
▁acabada	-11690
▁achamos	-11691
▁achavão	-11692
▁alcunha	-11693
▁alferes	-11694
▁amorosa	-11695
▁analyse	-11696
▁andavam	-11697
▁anytime	-11698
▁aprecia	-11699
▁aqueles	-11700
▁battery	-11701
▁bicycle	-11702
▁bigodes	-11703
▁bloomed	-11704
▁cabelos	-11705
▁cançada	-11706
▁cançado	-11707
▁captain	-11708
▁cedendo	-11709
▁cigarro	-11710
▁circulo	-11711
▁company	-11712
▁confusa	-11713
▁contest	-11714
▁cordial	-11715
▁corrida	-11716
▁defunto	-11717
▁deserta	-11718
▁destruí	-11719
▁dispers	-11720
▁display	-11721
▁duvidar	-11722
▁eagerly	-11723
▁embaixo	-11724
▁encanto	-11725
▁envenen	-11726
▁escolha	-11727
▁espadas	-11728
▁esperei	-11729
▁espessa	-11730
▁estupef	-11731
▁excesso	-11732
▁falasse	-11733
▁ficando	-11734
▁ficámos	-11735
▁fitando	-11736
▁fizeste	-11737
▁general	-11738
▁gravata	-11739
▁hesitou	-11740
▁ignored	-11741
▁individ	-11742
▁inimiga	-11743
▁injuria	-11744
▁injusta	-11745
▁intento	-11746
▁intimos	-11747
▁jornada	-11748
▁lampião	-11749
▁mancebo	-11750
▁medroso	-11751
▁mendiga	-11752
▁militar	-11753
▁mirante	-11754
▁modesta	-11755
▁muscles	-11756
▁nomeado	-11757
▁opposto	-11758
▁orvalho	-11759
▁padeceu	-11760
▁palacio	-11761
▁paquete	-11762
▁passaro	-11763
▁penguin	-11764
▁perturb	-11765
▁physica	-11766
▁pratica	-11767
▁pressed	-11768
▁putting	-11769
▁raining	-11770
▁reverse	-11771
▁revolta	-11772
▁ribbons	-11773
▁rubbing	-11774
▁sacrist	-11775
▁sagrado	-11776
▁satisfe	-11777
▁shelter	-11778
▁soldier	-11779
▁spoiled	-11780
▁sympath	-11781
▁temendo	-11782
▁theater	-11783
▁tocando	-11784
▁tornado	-11785
▁tranças	-11786
▁tremulo	-11787
▁vizinha	-11788
▁written	-11789
aneamente	-11790
intemente	-11791
▁Achilles	-11792
▁Reverend	-11793
▁Whiskers	-11794
▁accommod	-11795
▁aceitava	-11796
▁admirava	-11797
▁apertava	-11798
▁assistia	-11799
▁attitude	-11800
▁baroneza	-11801
▁bastavam	-11802
▁batalhas	-11803
▁blasphem	-11804
▁caixinha	-11805
▁cambraia	-11806
▁caminhos	-11807
▁consolar	-11808
▁constern	-11809
▁contenta	-11810
▁continua	-11811
▁cortando	-11812
▁crianças	-11813
▁cushions	-11814
▁desenvol	-11815
▁diminuir	-11816
▁esforços	-11817
▁esquecia	-11818
▁estender	-11819
▁estrelas	-11820
▁fallasse	-11821
▁feelings	-11822
▁happiest	-11823
▁ilustres	-11824
▁inferior	-11825
▁lemonade	-11826
▁musculos	-11827
▁parecido	-11828
▁passaros	-11829
▁passport	-11830
▁peccados	-11831
▁pendente	-11832
▁penetrar	-11833
▁percebeu	-11834
▁perdidos	-11835
▁ponderou	-11836
▁portugue	-11837
▁precious	-11838
▁prioreza	-11839
▁produziu	-11840
▁proferiu	-11841
▁publicos	-11842
▁pudessem	-11843
▁recebera	-11844
▁relembra	-11845
▁reminder	-11846
▁reproduz	-11847
▁saltando	-11848
▁segredos	-11849
▁soberbos	-11850
▁soldados	-11851
▁squeezed	-11852
▁suspiros	-11853
▁temperat	-11854
▁tinhamos	-11855
▁tornavam	-11856
▁trazendo	-11857
▁ventured	-11858
▁violento	-11859
▁wardrobe	-11860
▁wherever	-11861
▁Perguntou	-11862
▁Sylvester	-11863
▁Vassouras	-11864
▁abandonar	-11865
▁aborrecia	-11866
▁alienista	-11867
▁ambulance	-11868
▁anecdotas	-11869
▁apparecer	-11870
▁aproximou	-11871
▁cabeceira	-11872
▁carruagem	-11873
▁chinellas	-11874
▁claridade	-11875
▁collected	-11876
▁comquanto	-11877
▁conseguio	-11878
▁conservar	-11879
▁desconcer	-11880
▁desgostos	-11881
▁discovery	-11882
▁discrição	-11883
▁encostado	-11884
▁espantada	-11885
▁essencial	-11886
▁fisherman	-11887
▁grandpare	-11888
▁guerreiro	-11889
▁hespanhol	-11890
▁historias	-11891
▁incommodo	-11892
▁nightmare	-11893
▁offerecia	-11894
▁opposição	-11895
▁precaução	-11896
▁promessas	-11897
▁religioso	-11898
▁remembers	-11899
▁respeitos	-11900
▁restituiu	-11901
▁supplicas	-11902
▁theologia	-11903
▁transpare	-11904
▁tristezas	-11905
▁trouxesse	-11906
▁vantagens	-11907
▁villagers	-11908
▁Afterwards	-11909
▁Justamente	-11910
▁adivinhava	-11911
▁algarismos	-11912
▁apresentar	-11913
▁destruição	-11914
▁escondidas	-11915
▁felizmente	-11916
▁frequentes	-11917
▁importante	-11918
▁inabalavel	-11919
▁invencivel	-11920
▁mensageiro	-11921
▁microphone	-11922
▁singulares	-11923
▁surrounded	-11924
▁testemunha	-11925
▁vendilhões	-11926
▁antiguidade	-11927
▁celebration	-11928
▁companheira	-11929
▁competition	-11930
▁imprudencia	-11931
▁intensidade	-11932
▁philosophos	-11933
▁recommendou	-11934
▁subitamente	-11935
▁testemunhas	-11936
▁verdadeiros	-11937
▁comprehendia	-11938
▁comprehensão	-11939
▁conhecimento	-11940
▁desconfiança	-11941
▁empallideceu	-11942
▁protonotario	-11943
▁resentimento	-11944
▁simplesmente	-11945
▁sobrancelhas	-11946
▁Unfortunately	-11947
▁aborrecimento	-11948
▁ecclesiastica	-11949
▁accrescentando	-11950
▁extraordinarias	-11951
AN	-11952
EN	-11953
Os	-11954
RI	-11955
ae	-11956
cr	-11957
hô	-11958
ló	-11959
pi	-11960
su	-11961
Foi	-11962
Pod	-11963
ait	-11964
bul	-11965
cte	-11966
dom	-11967
gui	-11968
ipa	-11969
loo	-11970
lou	-11971
ond	-11972
sin	-11973
spe	-11974
ued	-11975
ulu	-11976
uth	-11977
▁Ag	-11978
▁eb	-11979
▁ox	-11980
▁ya	-11981
!»--	-11982
."--	-11983
Isto	-11984
Pery	-11985
Tamb	-11986
_...	-11987
abby	-11988
apon	-11989
asis	-11990
book	-11991
cery	-11992
ctas	-11993
eman	-11994
excl	-11995
gára	-11996
inga	-11997
isca	-11998
ispo	-11999
ivar	-12000
ives	-12001
leal	-12002
llen	-12003
mosa	-12004
ntas	-12005
orio	-12006
orno	-12007
orto	-12008
osco	-12009
otes	-12010
pate	-12011
quip	-12012
raes	-12013
rano	-12014
rear	-12015
reia	-12016
reja	-12017
rona	-12018
ryão	-12019
seek	-12020
tigo	-12021
tten	-12022
ucia	-12023
udez	-12024
uosa	-12025
upid	-12026
utar	-12027
utra	-12028
well	-12029
zing	-12030
ária	-12031
çamb	-12032
íbil	-12033
▁Ama	-12034
▁Boo	-12035
▁Côr	-12036
▁Day	-12037
▁Div	-12038
▁Ela	-12039
▁Ger	-12040
▁Ide	-12041
▁Ita	-12042
▁Jet	-12043
▁Kim	-12044
▁Men	-12045
▁Mis	-12046
▁Mos	-12047
▁Num	-12048
▁Pub	-12049
▁Red	-12050
▁Sil	-12051
▁Spe	-12052
▁Ste	-12053
▁Vim	-12054
▁Who	-12055
▁ala	-12056
▁alr	-12057
▁bab	-12058
▁bru	-12059
▁cid	-12060
▁hym	-12061
▁mof	-12062
▁muc	-12063
▁mun	-12064
▁máo	-12065
▁nup	-12066
▁qué	-12067
▁ral	-12068
▁vaz	-12069
Atala	-12070
Timmy	-12071
acção	-12072
ances	-12073
arely	-12074
arina	-12075
bação	-12076
bling	-12077
cador	-12078
cesso	-12079
ciaes	-12080
conce	-12081
dendo	-12082
ecida	-12083
ensas	-12084
gador	-12085
garam	-12086
gedia	-12087
idosa	-12088
ience	-12089
ipora	-12090
isada	-12091
ndiam	-12092
pella	-12093
ranha	-12094
raque	-12095
raria	-12096
riada	-12097
riana	-12098
rives	-12099
tique	-12100
tores	-12101
ucaia	-12102
ucção	-12103
urada	-12104
urgel	-12105
usted	-12106
uções	-12107
vante	-12108
works	-12109
ximas	-12110
▁Acab	-12111
▁Adão	-12112
▁Alth	-12113
▁Bill	-12114
▁Cuid	-12115
▁Cust	-12116
▁Emmy	-12117
▁Eric	-12118
▁Fará	-12119
▁Faça	-12120
▁Fulg	-12121
▁Give	-12122
▁Jana	-12123
▁Jean	-12124
▁Judy	-12125
▁Lulu	-12126
▁Maya	-12127
▁Meri	-12128
▁Nina	-12129
▁Note	-12130
▁Prud	-12131
▁Ribe	-12132
▁Sand	-12133
▁acod	-12134
▁alvo	-12135
▁amou	-12136
▁anco	-12137
▁ande	-12138
▁avós	-12139
▁brid	-12140
▁bulb	-12141
▁bury	-12142
▁caiu	-12143
▁cale	-12144
▁cobi	-12145
▁cong	-12146
▁cred	-12147
▁dive	-12148
▁dram	-12149
▁drop	-12150
▁esbo	-12151
▁fere	-12152
▁five	-12153
▁flav	-12154
▁fumo	-12155
▁fune	-12156
▁gado	-12157
▁gear	-12158
▁glos	-12159
▁gust	-12160
▁knot	-12161
▁lama	-12162
▁lasc	-12163
▁lume	-12164
▁lung	-12165
▁marí	-12166
▁mort	-12167
▁mudo	-12168
▁mula	-12169
▁nega	-12170
▁nele	-12171
▁nojo	-12172
▁odor	-12173
▁offe	-12174
▁oleo	-12175
▁ouço	-12176
▁page	-12177
▁pago	-12178
▁paiz	-12179
▁palm	-12180
▁phos	-12181
▁polt	-12182
▁prod	-12183
▁prós	-12184
▁pérf	-12185
▁rang	-12186
▁rege	-12187
▁rios	-12188
▁ripe	-12189
▁rise	-12190
▁sahi	-12191
▁seal	-12192
▁send	-12193
▁shed	-12194
▁shot	-12195
▁socc	-12196
▁soil	-12197
▁stit	-12198
▁summ	-12199
▁sung	-12200
▁surf	-12201
▁tear	-12202
▁toca	-12203
▁toss	-12204
▁typo	-12205
▁unha	-12206
▁util	-12207
▁velo	-12208
▁vier	-12209
▁zang	-12210
Depois	-12211
Parece	-12212
adinha	-12213
ativos	-12214
bertas	-12215
cional	-12216
crição	-12217
itoril	-12218
itorio	-12219
iveram	-12220
iência	-12221
oravel	-12222
plande	-12223
quezas	-12224
rativa	-12225
stairs	-12226
terday	-12227
thello	-12228
ttiest	-12229
ultava	-12230
œHello	-12231
▁Ambos	-12232
▁Buzzy	-12233
▁Certo	-12234
▁Corri	-12235
▁Corte	-12236
▁Devia	-12237
▁Doggy	-12238
▁Donde	-12239
▁Duque	-12240
▁Elles	-12241
▁Estão	-12242
▁Gente	-12243
▁Guard	-12244
▁Julie	-12245
▁Matta	-12246
▁Mundo	-12247
▁Nosso	-12248
▁Paula	-12249
▁Pelos	-12250
▁Sarra	-12251
▁Volta	-12252
▁Where	-12253
▁abrig	-12254
▁acabo	-12255
▁admit	-12256
▁adopt	-12257
▁adorn	-12258
▁allow	-12259
▁amost	-12260
▁apron	-12261
▁arrep	-12262
▁assal	-12263
▁atado	-12264
▁atira	-12265
▁atrás	-12266
▁balbu	-12267
▁besta	-12268
▁botão	-12269
▁brinc	-12270
▁bruta	-12271
▁calar	-12272
▁caldo	-12273
▁calou	-12274
▁catho	-12275
▁cento	-12276
▁cerim	-12277
▁cheek	-12278
▁clava	-12279
▁comia	-12280
▁consa	-12281
▁coroa	-12282
▁corta	-12283
▁crash	-12284
▁cravo	-12285
▁crowd	-12286
▁crumb	-12287
▁côres	-12288
▁delas	-12289
▁depos	-12290
▁desag	-12291
▁deson	-12292
▁deved	-12293
▁ditos	-12294
▁doggy	-12295
▁doutr	-12296
▁encob	-12297
▁equip	-12298
▁exced	-12299
▁extin	-12300
▁ferir	-12301
▁feros	-12302
▁finds	-12303
▁flage	-12304
▁flaut	-12305
▁frade	-12306
▁goose	-12307
▁gotas	-12308
▁greet	-12309
▁hopes	-12310
▁ideas	-12311
▁igloo	-12312
▁incut	-12313
▁infam	-12314
▁juven	-12315
▁lagry	-12316
▁laços	-12317
▁lines	-12318
▁lives	-12319
▁louro	-12320
▁madre	-12321
▁manto	-12322
▁matto	-12323
▁mette	-12324
▁model	-12325
▁moves	-12326
▁norte	-12327
▁olive	-12328
▁outdo	-12329
▁pages	-12330
▁parts	-12331
▁pateo	-12332
▁peixe	-12333
▁pereg	-12334
▁pezar	-12335
▁pique	-12336
▁porch	-12337
▁praça	-12338
▁pride	-12339
▁proví	-12340
▁ramos	-12341
▁rebel	-12342
▁recem	-12343
▁relam	-12344
▁releu	-12345
▁ricos	-12346
▁rooms	-12347
▁sacer	-12348
▁saias	-12349
▁scint	-12350
▁scrat	-12351
▁setta	-12352
▁shrug	-12353
▁skull	-12354
▁sneak	-12355
▁solut	-12356
▁sophá	-12357
▁spike	-12358
▁terem	-12359
▁thumb	-12360
▁tinta	-12361
▁tiros	-12362
▁tomam	-12363
▁urged	-12364
▁wasnâ	-12365
▁waste	-12366
▁wheel	-12367
▁ânimo	-12368
Atalaia	-12369
Because	-12370
ensação	-12371
ificava	-12372
inações	-12373
piração	-12374
potente	-12375
prehens	-12376
íssimos	-12377
▁Achava	-12378
▁Always	-12379
▁Andara	-12380
▁Andava	-12381
▁Claire	-12382
▁Começa	-12383
▁Deixou	-12384
▁Gurgel	-12385
▁Harper	-12386
▁Promet	-12387
▁Reinos	-12388
▁Viegas	-12389
▁Vinham	-12390
▁Voltei	-12391
▁abalou	-12392
▁acudir	-12393
▁adject	-12394
▁agitou	-12395
▁ajudar	-12396
▁ajunta	-12397
▁alegra	-12398
▁amargu	-12399
▁apagou	-12400
▁aperto	-12401
▁apoder	-12402
▁appear	-12403
▁applic	-12404
▁aquela	-12405
▁arenos	-12406
▁armado	-12407
▁assent	-12408
▁attenu	-12409
▁baixos	-12410
▁barbas	-12411
▁barely	-12412
▁bradou	-12413
▁bravos	-12414
▁braças	-12415
▁caixão	-12416
▁calcul	-12417
▁canvas	-12418
▁chamam	-12419
▁chamei	-12420
▁colher	-12421
▁collig	-12422
▁contal	-12423
▁cooler	-12424
▁cresce	-12425
▁cuidei	-12426
▁curvas	-12427
▁desaba	-12428
▁desamp	-12429
▁dobrou	-12430
▁dreamt	-12431
▁drinks	-12432
▁easily	-12433
▁edição	-12434
▁emenda	-12435
▁encare	-12436
▁encomm	-12437
▁envolv	-12438
▁exacta	-12439
▁exigir	-12440
▁exterm	-12441
▁faceis	-12442
▁faltar	-12443
▁febril	-12444
▁fervor	-12445
▁fixing	-12446
▁fragil	-12447
▁fresta	-12448
▁galhar	-12449
▁ganhou	-12450
▁gentio	-12451
▁grosse	-12452
▁habito	-12453
▁habitu	-12454
▁hanger	-12455
▁hockey	-12456
▁igreja	-12457
▁imitar	-12458
▁imprev	-12459
▁incogn	-12460
▁incumb	-12461
▁indole	-12462
▁instru	-12463
▁iremos	-12464
▁julgar	-12465
▁largos	-12466
▁libras	-12467
▁livrar	-12468
▁lotion	-12469
▁mancha	-12470
▁maxima	-12471
▁meowed	-12472
▁mimosa	-12473
▁missas	-12474
▁molest	-12475
▁moribu	-12476
▁mudado	-12477
▁myself	-12478
▁navios	-12479
▁orador	-12480
▁ordena	-12481
▁pareça	-12482
▁parked	-12483
▁patern	-12484
▁pediam	-12485
▁pegava	-12486
▁pertur	-12487
▁plates	-12488
▁poetas	-12489
▁potato	-12490
▁premio	-12491
▁proper	-12492
▁propós	-12493
▁queixo	-12494
▁raised	-12495
▁reanim	-12496
▁recost	-12497
▁recuei	-12498
▁reform	-12499
▁reparo	-12500
▁reserv	-12501
▁rested	-12502
▁sahido	-12503
▁seeing	-12504
▁served	-12505
▁severo	-12506
▁shield	-12507
▁shower	-12508
▁single	-12509
▁sinist	-12510
▁slides	-12511
▁sobrev	-12512
▁soltas	-12513
▁sorrio	-12514
▁stable	-12515
▁stitch	-12516
▁stupid	-12517
▁suffer	-12518
▁suppos	-12519
▁talent	-12520
▁tapete	-12521
▁tentar	-12522
▁tremia	-12523
▁tribus	-12524
▁trocar	-12525
▁usança	-12526
▁varios	-12527
▁venera	-12528
▁vivido	-12529
▁volume	-12530
▁weapon	-12531
▁weight	-12532
▁wheels	-12533
▁winner	-12534
ntemente	-12535
pensavel	-12536
▁Adriana	-12537
▁Alexand	-12538
▁Ouvindo	-12539
▁Samorim	-12540
▁abatida	-12541
▁abraçar	-12542
▁accentu	-12543
▁acordou	-12544
▁admirar	-12545
▁adverti	-12546
▁affecto	-12547
▁agarrou	-12548
▁alright	-12549
▁alvitre	-12550
▁ameaças	-12551
▁ancioso	-12552
▁aparece	-12553
▁apoiada	-12554
▁assinal	-12555
▁avocado	-12556
▁barbaro	-12557
▁bedtime	-12558
▁beijava	-12559
▁benevol	-12560
▁brancas	-12561
▁breathe	-12562
▁brincos	-12563
▁bárbaro	-12564
▁caipora	-12565
▁calculo	-12566
▁calçada	-12567
▁charuto	-12568
▁chirped	-12569
▁começar	-12570
▁concord	-12571
▁consolo	-12572
▁consult	-12573
▁contrad	-12574
▁contudo	-12575
▁cortado	-12576
▁costura	-12577
▁cutting	-12578
▁demasia	-12579
▁derrama	-12580
▁desleal	-12581
▁dessert	-12582
▁dispens	-12583
▁dominar	-12584
▁elogios	-12585
▁elogiou	-12586
▁embryão	-12587
▁emendar	-12588
▁emprego	-12589
▁enterra	-12590
▁erguido	-12591
▁escript	-12592
▁esmolas	-12593
▁espesso	-12594
▁espiava	-12595
▁estatua	-12596
▁estrela	-12597
▁exactly	-12598
▁fallado	-12599
▁famosos	-12600
▁feridas	-12601
▁feridos	-12602
▁freezer	-12603
▁fugindo	-12604
▁gracejo	-12605
▁grocery	-12606
▁happier	-12607
▁havemos	-12608
▁havendo	-12609
▁honesta	-12610
▁illudir	-12611
▁imperio	-12612
▁indagar	-12613
▁injusto	-12614
▁insigne	-12615
▁interru	-12616
▁jaqueta	-12617
▁lampada	-12618
▁liteira	-12619
▁littera	-12620
▁matando	-12621
▁milhões	-12622
▁mittens	-12623
▁musical	-12624
▁namorar	-12625
▁obscura	-12626
▁oferece	-12627
▁olhares	-12628
▁orações	-12629
▁ouviram	-12630
▁pancada	-12631
▁periodo	-12632
▁pessoal	-12633
▁podemos	-12634
▁pontual	-12635
▁prepare	-12636
▁puderam	-12637
▁receive	-12638
▁reconst	-12639
▁recreio	-12640
▁referiu	-12641
▁relaxed	-12642
▁relação	-12643
▁remédio	-12644
▁reparou	-12645
▁restava	-12646
▁rodeado	-12647
▁scolded	-12648
▁scooped	-12649
▁sentava	-12650
▁settled	-12651
▁shelves	-12652
▁sparkle	-12653
▁sósinha	-12654
▁tomasse	-12655
▁traição	-12656
▁tripped	-12657
▁viagens	-12658
▁zipping	-12659
▁Although	-12660
▁Cristãos	-12661
▁Estreito	-12662
▁Santiago	-12663
▁Sapucaia	-12664
▁acabaria	-12665
▁acanhada	-12666
▁adiantou	-12667
▁admiring	-12668
▁ajoelhar	-12669
▁ajoelhou	-12670
▁amarello	-12671
▁ambições	-12672
▁apertado	-12673
▁apolices	-12674
▁apparece	-12675
▁ardentes	-12676
▁arrancou	-12677
▁assistir	-12678
▁assombro	-12679
▁attached	-12680
▁bandeira	-12681
▁banquete	-12682
▁becoming	-12683
▁chamando	-12684
▁concilia	-12685
▁concluia	-12686
▁convivas	-12687
▁curiosos	-12688
▁demanded	-12689
▁derredor	-12690
▁descendo	-12691
▁desfecho	-12692
▁determin	-12693
▁dezesete	-12694
▁disposta	-12695
▁embarque	-12696
▁encostou	-12697
▁enfraque	-12698
▁espertar	-12699
▁espírito	-12700
▁estreito	-12701
▁everyday	-12702
▁exprimir	-12703
▁fallavam	-12704
▁frescura	-12705
▁generosa	-12706
▁harmonia	-12707
▁heroismo	-12708
▁homicida	-12709
▁illustre	-12710
▁illusões	-12711
▁imaginei	-12712
▁immortal	-12713
▁incendio	-12714
▁inglezes	-12715
▁insisted	-12716
▁inventou	-12717
▁leitores	-12718
▁machines	-12719
▁materias	-12720
▁melancho	-12721
▁negativa	-12722
▁obrigada	-12723
▁obrigava	-12724
▁peitoril	-12725
▁penetrou	-12726
▁perderam	-12727
▁pertence	-12728
▁prestito	-12729
▁recentes	-12730
▁ridicula	-12731
▁sentando	-12732
▁soberana	-12733
▁socegado	-12734
▁soldiers	-12735
▁stitches	-12736
▁suitcase	-12737
▁temeroso	-12738
▁temporal	-12739
▁theatros	-12740
▁tormenta	-12741
▁torrente	-12742
▁tragedia	-12743
▁trombeta	-12744
▁vacation	-12745
▁visinhos	-12746
Panegyrico	-12747
▁Fulgencio	-12748
▁Rodrigues	-12749
▁aconselha	-12750
▁affeições	-12751
▁apontando	-12752
▁brevidade	-12753
▁brincando	-12754
▁buildings	-12755
▁christãos	-12756
▁commercio	-12757
▁complices	-12758
▁consultar	-12759
▁contrário	-12760
▁cortezias	-12761
▁deliciosa	-12762
▁descançar	-12763
▁descrever	-12764
▁destacava	-12765
▁diamantes	-12766
▁diligente	-12767
▁direction	-12768
▁escalpell	-12769
▁esperavam	-12770
▁esperavão	-12771
▁experienc	-12772
▁exquisita	-12773
▁fireworks	-12774
▁forgotten	-12775
▁habitação	-12776
▁hesitação	-12777
▁imaginava	-12778
▁importava	-12779
▁importuno	-12780
▁invisivel	-12781
▁mostravam	-12782
▁mountains	-12783
▁multiplic	-12784
▁obediente	-12785
▁offegante	-12786
▁opportuno	-12787
▁pavimento	-12788
▁prettiest	-12789
▁profundas	-12790
▁programma	-12791
▁protector	-12792
▁prudencia	-12793
▁quaesquer	-12794
▁reflectiu	-12795
▁repentina	-12796
▁repetição	-12797
▁resplande	-12798
▁succeeded	-12799
▁supportar	-12800
▁surprises	-12801
▁terriveis	-12802
▁trembling	-12803
▁trouxeram	-12804
▁brilhantes	-12805
▁conhecesse	-12806
▁definitiva	-12807
▁distinguia	-12808
▁esplendida	-12809
▁espreitava	-12810
▁estendendo	-12811
▁excelentes	-12812
▁experience	-12813
▁inevitavel	-12814
▁interesses	-12815
▁inventario	-12816
▁matrimonio	-12817
▁permission	-12818
▁practicing	-12819
▁raciocinio	-12820
▁recognized	-12821
▁reconhecer	-12822
▁repartição	-12823
▁revoltados	-12824
▁sacrificar	-12825
▁sandcastle	-12826
▁Comprehende	-12827
▁acanhamento	-12828
▁acclamações	-12829
▁apparencias	-12830
▁candidatura	-12831
▁civilisação	-12832
▁confidencia	-12833
▁continuavam	-12834
▁convivencia	-12835
▁destination	-12836
▁dissimulada	-12837
▁eternamente	-12838
▁exactamente	-12839
▁exclamações	-12840
▁indefinivel	-12841
▁inquietação	-12842
▁intervallos	-12843
▁intervenção	-12844
▁merecimento	-12845
▁repugnancia	-12846
▁seminarista	-12847
▁superstição	-12848
▁temperature	-12849
▁desproposito	-12850
▁indispensavel	-12851
▁reconciliação	-12852
▁vagarosamente	-12853
▁Reverendissima	-12854
!?	-12855
Le	-12856
Mo	-12857
ON	-12858
OS	-12859
Ou	-12860
já	-12861
li	-12862
lk	-12863
ré	-12864
ÃO	-12865
íd	-12866
€”	-12867
▁.	-12868
Are	-12869
Con	-12870
Des	-12871
Era	-12872
amn	-12873
bee	-12874
bio	-12875
can	-12876
cro	-12877
emo	-12878
hel	-12879
lam	-12880
lda	-12881
lei	-12882
lys	-12883
omo	-12884
orr	-12885
osh	-12886
reo	-12887
tho	-12888
tra	-12889
tre	-12890
uja	-12891
vei	-12892
ôas	-12893
œNo	-12894
œOh	-12895
▁Cé	-12896
▁Há	-12897
▁Li	-12898
▁Us	-12899
▁Vo	-12900
▁ly	-12901
▁oh	-12902
.»--	-12903
Isso	-12904
João	-12905
Para	-12906
Sabe	-12907
able	-12908
amor	-12909
ange	-12910
aren	-12911
atie	-12912
avra	-12913
baça	-12914
boat	-12915
brei	-12916
caes	-12917
cape	-12918
ccas	-12919
cill	-12920
dote	-12921
elis	-12922
ends	-12923
enet	-12924
erva	-12925
espe	-12926
icip	-12927
idor	-12928
ilet	-12929
impo	-12930
inia	-12931
iola	-12932
itão	-12933
iára	-12934
lida	-12935
nect	-12936
nico	-12937
ompl	-12938
polo	-12939
quem	-12940
quiz	-12941
rang	-12942
raça	-12943
refa	-12944
reou	-12945
rior	-12946
roat	-12947
tiva	-12948
umat	-12949
unal	-12950
vêra	-12951
zava	-12952
ífer	-12953
▁Ape	-12954
▁Bat	-12955
▁Bru	-12956
▁Dum	-12957
▁Enx	-12958
▁Ern	-12959
▁Exc	-12960
▁Fil	-12961
▁Fra	-12962
▁Fri	-12963
▁Fug	-12964
▁Ful	-12965
▁Gar	-12966
▁Has	-12967
▁Iam	-12968
▁Ind	-12969
▁Liv	-12970
▁Mae	-12971
▁Mic	-12972
▁Mil	-12973
▁Pit	-12974
▁Pol	-12975
▁Pud	-12976
▁Ref	-12977
▁Tor	-12978
▁Vis	-12979
▁Xav	-12980
▁afe	-12981
▁avô	-12982
▁bin	-12983
▁bio	-12984
▁bud	-12985
▁cil	-12986
▁deo	-12987
▁esf	-12988
▁fed	-12989
▁fuz	-12990
▁ida	-12991
▁lho	-12992
▁mex	-12993
▁nac	-12994
▁ond	-12995
▁pha	-12996
▁pow	-12997
▁rab	-12998
▁sew	-12999
▁sty	-13000
▁sug	-13001
▁tiv	-13002
▁tot	-13003
▁und	-13004
▁van	-13005
▁vêl	-13006
▁web	-13007
Estou	-13008
Maria	-13009
Mummy	-13010
There	-13011
Would	-13012
algum	-13013
alhar	-13014
ancei	-13015
anhos	-13016
annah	-13017
artar	-13018
atado	-13019
azine	-13020
bbled	-13021
caria	-13022
chair	-13023
edios	-13024
entre	-13025
ernos	-13026
essei	-13027
essou	-13028
ethys	-13029
gular	-13030
hamos	-13031
hidas	-13032
honhô	-13033
iadas	-13034
iavam	-13035
ibulo	-13036
igios	-13037
ileza	-13038
inger	-13039
inned	-13040
innie	-13041
iroso	-13042
isava	-13043
ismos	-13044
itaph	-13045
ivado	-13046
joyed	-13047
ordem	-13048
osing	-13049
pello	-13050
pente	-13051
phera	-13052
ptoed	-13053
ranco	-13054
rimos	-13055
rinha	-13056
saram	-13057
tadas	-13058
tasse	-13059
ticas	-13060
ulava	-13061
urado	-13062
vamos	-13063
zeiro	-13064
ática	-13065
çaide	-13066
élico	-13067
ónios	-13068
œWhat	-13069
▁Agar	-13070
▁Além	-13071
▁Anda	-13072
▁Ayla	-13073
▁Beep	-13074
▁Belt	-13075
▁Days	-13076
▁Expl	-13077
▁Fama	-13078
▁Febo	-13079
▁Gang	-13080
▁Lanç	-13081
▁Luck	-13082
▁Nana	-13083
▁Nora	-13084
▁Pere	-13085
▁Pode	-13086
▁Prin	-13087
▁Sure	-13088
▁Todd	-13089
▁Tomé	-13090
▁Trab	-13091
▁Vede	-13092
▁Vest	-13093
▁abom	-13094
▁afas	-13095
▁afug	-13096
▁agit	-13097
▁agre	-13098
▁alag	-13099
▁apar	-13100
▁asas	-13101
▁asht	-13102
▁asno	-13103
▁aunt	-13104
▁aver	-13105
▁beep	-13106
▁bond	-13107
▁conj	-13108
▁cult	-13109
▁dali	-13110
▁deaf	-13111
▁dent	-13112
▁déra	-13113
▁elas	-13114
▁espa	-13115
▁falo	-13116
▁fuga	-13117
▁fulm	-13118
▁gram	-13119
▁invo	-13120
▁laca	-13121
▁laid	-13122
▁lect	-13123
▁letâ	-13124
▁lisa	-13125
▁luxo	-13126
▁mast	-13127
▁maus	-13128
▁mene	-13129
▁mold	-13130
▁mote	-13131
▁nuca	-13132
▁orph	-13133
▁pesa	-13134
▁phar	-13135
▁phas	-13136
▁pigs	-13137
▁reha	-13138
▁ribe	-13139
▁scat	-13140
▁sede	-13141
▁shoe	-13142
▁sibl	-13143
▁slip	-13144
▁soou	-13145
▁stam	-13146
▁subi	-13147
▁tang	-13148
▁tano	-13149
▁term	-13150
▁tour	-13151
▁tram	-13152
▁trun	-13153
▁vias	-13154
▁yawn	-13155
Thanks	-13156
adoras	-13157
alhada	-13158
aremos	-13159
astica	-13160
cações	-13161
ceries	-13162
ercept	-13163
icioso	-13164
inente	-13165
inking	-13166
ippery	-13167
irasse	-13168
ishing	-13169
lasses	-13170
necess	-13171
pillas	-13172
quemos	-13173
quinho	-13174
rangos	-13175
ricane	-13176
ulando	-13177
uração	-13178
vações	-13179
ências	-13180
▁Afric	-13181
▁Algum	-13182
▁Apolo	-13183
▁Bento	-13184
▁Betsy	-13185
▁Cesar	-13186
▁Conce	-13187
▁Concl	-13188
▁Côrte	-13189
▁Deixa	-13190
▁Dizem	-13191
▁Dutra	-13192
▁Elias	-13193
▁Enche	-13194
▁Furry	-13195
▁Hespé	-13196
▁Holly	-13197
▁Katie	-13198
▁Larry	-13199
▁Março	-13200
▁Mauro	-13201
▁Nutty	-13202
▁Olhou	-13203
▁Sabes	-13204
▁Senti	-13205
▁Seria	-13206
▁Tendo	-13207
▁Teria	-13208
▁abert	-13209
▁acorn	-13210
▁alarm	-13211
▁allum	-13212
▁apode	-13213
▁apost	-13214
▁apraz	-13215
▁arceb	-13216
▁ardia	-13217
▁areia	-13218
▁arque	-13219
▁assid	-13220
▁atava	-13221
▁atmos	-13222
▁bacam	-13223
▁banal	-13224
▁batel	-13225
▁bicos	-13226
▁bones	-13227
▁bruto	-13228
▁cadêa	-13229
▁canta	-13230
▁carto	-13231
▁chame	-13232
▁cheap	-13233
▁cobre	-13234
▁comfy	-13235
▁compo	-13236
▁cujas	-13237
▁curso	-13238
▁danos	-13239
▁darei	-13240
▁decif	-13241
▁degra	-13242
▁deita	-13243
▁delia	-13244
▁desus	-13245
▁dried	-13246
▁effic	-13247
▁emerg	-13248
▁encur	-13249
▁ensin	-13250
▁esbel	-13251
▁escur	-13252
▁esmal	-13253
▁estás	-13254
▁exclu	-13255
▁feias	-13256
▁feios	-13257
▁feira	-13258
▁feras	-13259
▁fitar	-13260
▁frios	-13261
▁froux	-13262
▁grabs	-13263
▁gradu	-13264
▁grita	-13265
▁havel	-13266
▁heads	-13267
▁hedio	-13268
▁humor	-13269
▁ident	-13270
▁induz	-13271
▁ingra	-13272
▁iriam	-13273
▁jumps	-13274
▁knows	-13275
▁labio	-13276
▁lands	-13277
▁levam	-13278
▁limpa	-13279
▁louco	-13280
▁lutar	-13281
▁lutas	-13282
▁manso	-13283
▁mante	-13284
▁março	-13285
▁means	-13286
▁medio	-13287
▁mercê	-13288
▁molle	-13289
▁mosca	-13290
▁mudou	-13291
▁numer	-13292
▁opens	-13293
▁owned	-13294
▁papae	-13295
▁pears	-13296
▁pecun	-13297
▁pedac	-13298
▁polic	-13299
▁ponho	-13300
▁porte	-13301
▁pudor	-13302
▁punho	-13303
▁quéda	-13304
▁raros	-13305
▁reads	-13306
▁regra	-13307
▁regre	-13308
▁resid	-13309
▁roxas	-13310
▁sangu	-13311
▁saíam	-13312
▁sedas	-13313
▁segue	-13314
▁shock	-13315
▁skirt	-13316
▁sopro	-13317
▁stamp	-13318
▁stops	-13319
▁stove	-13320
▁surda	-13321
▁tenor	-13322
▁third	-13323
▁tique	-13324
▁toada	-13325
▁tooth	-13326
▁torne	-13327
▁trope	-13328
▁truth	-13329
▁unite	-13330
▁valeu	-13331
▁vejam	-13332
▁veloz	-13333
▁veria	-13334
▁waist	-13335
▁weigh	-13336
▁worth	-13337
cadores	-13338
erencia	-13339
gamente	-13340
iencias	-13341
ignação	-13342
ilmente	-13343
issimas	-13344
pateiro	-13345
▁Borges	-13346
▁Brazil	-13347
▁Camões	-13348
▁Cuidei	-13349
▁Descul	-13350
▁Follow	-13351
▁Fulano	-13352
▁Ginger	-13353
▁Ingles	-13354
▁Melhor	-13355
▁Morrer	-13356
▁Moçamb	-13357
▁Olimpo	-13358
▁Oliver	-13359
▁Pascal	-13360
▁Rufina	-13361
▁Taking	-13362
▁Tethys	-13363
▁Winter	-13364
▁Xavier	-13365
▁abrira	-13366
▁acabei	-13367
▁actual	-13368
▁ancias	-13369
▁animou	-13370
▁aragem	-13371
▁arrows	-13372
▁aurora	-13373
▁avante	-13374
▁bailar	-13375
▁barata	-13376
▁batiam	-13377
▁begged	-13378
▁bigode	-13379
▁boards	-13380
▁borbor	-13381
▁brinco	-13382
▁camisa	-13383
▁carras	-13384
▁casaca	-13385
▁cautel	-13386
▁cobrir	-13387
▁colheu	-13388
▁compoz	-13389
▁copper	-13390
▁corsel	-13391
▁cousin	-13392
▁creamy	-13393
▁crises	-13394
▁cólera	-13395
▁dantes	-13396
▁deitei	-13397
▁desert	-13398
▁desfiz	-13399
▁diabos	-13400
▁dignos	-13401
▁dobras	-13402
▁doutra	-13403
▁engana	-13404
▁enlevo	-13405
▁ensejo	-13406
▁escass	-13407
▁espiar	-13408
▁espont	-13409
▁esquad	-13410
▁esteja	-13411
▁estrid	-13412
▁exigia	-13413
▁explod	-13414
▁fallei	-13415
▁falsas	-13416
▁feitas	-13417
▁ficado	-13418
▁ficará	-13419
▁ficára	-13420
▁flamas	-13421
▁flecha	-13422
▁fluido	-13423
▁folded	-13424
▁formas	-13425
▁frouxa	-13426
▁fumaça	-13427
▁gained	-13428
▁gemido	-13429
▁geraes	-13430
▁helper	-13431
▁hoping	-13432
▁includ	-13433
▁inerte	-13434
▁infall	-13435
▁inflex	-13436
▁ingenu	-13437
▁jámais	-13438
▁lances	-13439
▁largas	-13440
▁lembro	-13441
▁lindas	-13442
▁loaded	-13443
▁manhãs	-13444
▁moraes	-13445
▁morrem	-13446
▁morros	-13447
▁muffin	-13448
▁napkin	-13449
▁ofício	-13450
▁operas	-13451
▁oscill	-13452
▁paddle	-13453
▁padeci	-13454
▁partio	-13455
▁perdel	-13456
▁perfil	-13457
▁podido	-13458
▁pontos	-13459
▁possue	-13460
▁pranto	-13461
▁preced	-13462
▁precip	-13463
▁presta	-13464
▁presum	-13465
▁prisão	-13466
▁procis	-13467
▁procur	-13468
▁produc	-13469
▁prégão	-13470
▁quente	-13471
▁quinto	-13472
▁recolh	-13473
▁recond	-13474
▁refrig	-13475
▁região	-13476
▁reinos	-13477
▁reliqu	-13478
▁remain	-13479
▁resgat	-13480
▁respon	-13481
▁resval	-13482
▁retard	-13483
▁ribbon	-13484
▁roubar	-13485
▁scient	-13486
▁serras	-13487
▁shovel	-13488
▁sinais	-13489
▁spoons	-13490
▁strike	-13491
▁sweets	-13492
▁switch	-13493
▁súbita	-13494
▁súbito	-13495
▁tardes	-13496
▁tardou	-13497
▁tarefa	-13498
▁tenção	-13499
▁throat	-13500
▁toalha	-13501
▁tocado	-13502
▁tomara	-13503
▁tomára	-13504
▁traduz	-13505
▁trains	-13506
▁tropel	-13507
▁valent	-13508
▁valiam	-13509
▁videos	-13510
▁vingar	-13511
▁vissem	-13512
exclamou	-13513
vesseiro	-13514
▁Aquelle	-13515
▁Augusta	-13516
▁Beltrão	-13517
▁Despois	-13518
▁Estando	-13519
▁Estavam	-13520
▁Friends	-13521
▁Leandro	-13522
▁Lembrou	-13523
▁Luckily	-13524
▁Malabar	-13525
▁Melinde	-13526
▁Mombaça	-13527
▁Neptuno	-13528
▁Ourives	-13529
▁Palavra	-13530
▁Publico	-13531
▁Quantas	-13532
▁Ribeiro	-13533
▁Todavia	-13534
▁accompl	-13535
▁adornos	-13536
▁adulter	-13537
▁agarrar	-13538
▁ajuntou	-13539
▁algozes	-13540
▁allivio	-13541
▁allusão	-13542
▁amantes	-13543
▁animada	-13544
▁anonymo	-13545
▁apanhou	-13546
▁aperceb	-13547
▁assomou	-13548
▁augment	-13549
▁ausente	-13550
▁auxilio	-13551
▁bombard	-13552
▁bradava	-13553
▁bridges	-13554
▁brilhar	-13555
▁canella	-13556
▁casando	-13557
▁chegára	-13558
▁cometer	-13559
▁compete	-13560
▁comtigo	-13561
▁conject	-13562
▁connect	-13563
▁consola	-13564
▁contado	-13565
▁critica	-13566
▁cupcake	-13567
▁custava	-13568
▁defende	-13569
▁demanda	-13570
▁demonio	-13571
▁descuid	-13572
▁desculp	-13573
▁despedi	-13574
▁destroy	-13575
▁dividir	-13576
▁egoismo	-13577
▁egoista	-13578
▁encarar	-13579
▁encarou	-13580
▁energia	-13581
▁enferma	-13582
▁ensinou	-13583
▁entanto	-13584
▁entreab	-13585
▁envolta	-13586
▁enxerga	-13587
▁escorre	-13588
▁escrivã	-13589
▁espanta	-13590
▁esposas	-13591
▁estalar	-13592
▁estante	-13593
▁excepto	-13594
▁exercia	-13595
▁existia	-13596
▁falavam	-13597
▁fidalga	-13598
▁freguez	-13599
▁furioso	-13600
▁grinned	-13601
▁haircut	-13602
▁hesitar	-13603
▁honking	-13604
▁hurried	-13605
▁ingente	-13606
▁julgava	-13607
▁kneeled	-13608
▁limpido	-13609
▁linguas	-13610
▁lisonje	-13611
▁malícia	-13612
▁marcado	-13613
▁margens	-13614
▁marmore	-13615
▁mascate	-13616
▁matches	-13617
▁mettida	-13618
▁mineral	-13619
▁nefando	-13620
▁negocia	-13621
▁objects	-13622
▁obrigou	-13623
▁occulto	-13624
▁officer	-13625
▁officia	-13626
▁opening	-13627
▁ordered	-13628
▁padecia	-13629
▁parenta	-13630
▁passara	-13631
▁paterna	-13632
▁perched	-13633
▁persuad	-13634
▁piedosa	-13635
▁pintado	-13636
▁pistola	-13637
▁planned	-13638
▁pockets	-13639
▁poesias	-13640
▁poetica	-13641
▁própria	-13642
▁pulling	-13643
▁quebrou	-13644
▁rapidas	-13645
▁rapidez	-13646
▁recebem	-13647
▁reinava	-13648
▁rheumat	-13649
▁robusta	-13650
▁rockets	-13651
▁sabbado	-13652
▁sacudir	-13653
▁sandalo	-13654
▁sausage	-13655
▁scismar	-13656
▁secrets	-13657
▁seguros	-13658
▁selling	-13659
▁sepulch	-13660
▁shadows	-13661
▁stomach	-13662
▁stripes	-13663
▁sweater	-13664
▁teaches	-13665
▁timidez	-13666
▁tiptoed	-13667
▁trapped	-13668
▁trazido	-13669
▁tremble	-13670
▁tribuna	-13671
▁tributo	-13672
▁turning	-13673
▁unhappy	-13674
▁urgente	-13675
▁valsava	-13676
▁viessem	-13677
▁árvores	-13678
ceramente	-13679
ificações	-13680
çadamente	-13681
▁Andarahy	-13682
▁Cruzeiro	-13683
▁Entrando	-13684
▁Interrom	-13685
▁Monçaide	-13686
▁Natureza	-13687
▁Oliveira	-13688
▁Senhoria	-13689
▁acudiram	-13690
▁admirado	-13691
▁affirmar	-13692
▁affligir	-13693
▁agitação	-13694
▁angélica	-13695
▁animação	-13696
▁apoiando	-13697
▁apresent	-13698
▁armchair	-13699
▁arranjou	-13700
▁aterrado	-13701
▁calculos	-13702
▁camellos	-13703
▁cantarol	-13704
▁certific	-13705
▁collocou	-13706
▁começára	-13707
▁confiado	-13708
▁confusas	-13709
▁conserva	-13710
▁contendo	-13711
▁convidar	-13712
▁convince	-13713
▁cruzados	-13714
▁cubiculo	-13715
▁cuidando	-13716
▁daquillo	-13717
▁darkness	-13718
▁decision	-13719
▁defeitos	-13720
▁deixavam	-13721
▁delicias	-13722
▁demencia	-13723
▁demorava	-13724
▁desfazer	-13725
▁desfazia	-13726
▁despacho	-13727
▁desterro	-13728
▁dispunha	-13729
▁duvidoso	-13730
▁economia	-13731
▁engenhos	-13732
▁entrance	-13733
▁entregou	-13734
▁escravas	-13735
▁espaldar	-13736
▁especies	-13737
▁espiando	-13738
▁espinhos	-13739
▁estimava	-13740
▁estudava	-13741
▁evidente	-13742
▁exemplos	-13743
▁expected	-13744
▁explosão	-13745
▁exprimia	-13746
▁fallemos	-13747
▁faltasse	-13748
▁faltavam	-13749
▁formigas	-13750
▁formosas	-13751
▁gigantes	-13752
▁imaginou	-13753
▁infinita	-13754
▁instinct	-13755
▁introduc	-13756
▁irritado	-13757
▁julgando	-13758
▁lembrado	-13759
▁magazine	-13760
▁mandaria	-13761
▁material	-13762
▁minucias	-13763
▁monsters	-13764
▁mustache	-13765
▁nevoeiro	-13766
▁obedecia	-13767
▁objecção	-13768
▁operação	-13769
▁opportun	-13770
▁ordenado	-13771
▁paciente	-13772
▁patibulo	-13773
▁pensasse	-13774
▁penteado	-13775
▁perdendo	-13776
▁perfumes	-13777
▁perigosa	-13778
▁poltrona	-13779
▁privação	-13780
▁properly	-13781
▁publicas	-13782
▁pupillas	-13783
▁recordou	-13784
▁released	-13785
▁resolver	-13786
▁respirou	-13787
▁romances	-13788
▁rompendo	-13789
▁sausages	-13790
▁scintill	-13791
▁secretas	-13792
▁serpente	-13793
▁shrugged	-13794
▁siblings	-13795
▁slippery	-13796
▁starfish	-13797
▁stirring	-13798
▁sujeitos	-13799
▁supposed	-13800
▁surpreza	-13801
▁suspirou	-13802
▁sustenta	-13803
▁terreiro	-13804
▁tratando	-13805
▁tribunal	-13806
▁triumpho	-13807
▁trouxera	-13808
▁universe	-13809
▁vagarosa	-13810
▁vagaroso	-13811
▁valentes	-13812
▁vencidos	-13813
▁voltasse	-13814
▁Herophilo	-13815
▁Imperador	-13816
▁Mosqueira	-13817
▁acontecia	-13818
▁adivinhou	-13819
▁agreement	-13820
▁apressado	-13821
▁atordoado	-13822
▁atravessa	-13823
▁beginning	-13824
▁billboard	-13825
▁começaram	-13826
▁commercia	-13827
▁commovida	-13828
▁concepção	-13829
▁conciliar	-13830
▁conheciam	-13831
▁conquista	-13832
▁consultou	-13833
▁costumava	-13834
▁desorient	-13835
▁destruido	-13836
▁disfarçar	-13837
▁encoberto	-13838
▁encostada	-13839
▁equipment	-13840
▁esquecera	-13841
▁exhausted	-13842
▁expedição	-13843
▁falsidade	-13844
▁fronteira	-13845
▁gloriosos	-13846
▁groceries	-13847
▁hurricane	-13848
▁impercept	-13849
▁individuo	-13850
▁monotonia	-13851
▁navegando	-13852
▁obrigados	-13853
▁organismo	-13854
▁orgulhoso	-13855
▁overjoyed	-13856
▁pensativa	-13857
▁pequenino	-13858
▁politicas	-13859
▁politicos	-13860
▁pretendia	-13861
▁primitiva	-13862
▁promettia	-13863
▁receberam	-13864
▁reclinada	-13865
▁redarguiu	-13866
▁reputação	-13867
▁retorquiu	-13868
▁sacristia	-13869
▁transtorn	-13870
▁Moçambique	-13871
▁abandonado	-13872
▁admirações	-13873
▁alvoroçado	-13874
▁apparencia	-13875
▁aproveitou	-13876
▁astronomia	-13877
▁atmosphera	-13878
▁beneficios	-13879
▁borboletas	-13880
▁cavaleiros	-13881
▁cavallaria	-13882
▁comprehend	-13883
▁confidente	-13884
▁consolação	-13885
▁constancia	-13886
▁contemplou	-13887
▁contrarias	-13888
▁desconfiar	-13889
▁descripção	-13890
▁desvairado	-13891
▁diferentes	-13892
▁discipulos	-13893
▁distrahido	-13894
▁egualmente	-13895
▁encontrava	-13896
▁entendendo	-13897
▁espiritual	-13898
▁estremecer	-13899
▁exclamação	-13900
▁expressões	-13901
▁fluttering	-13902
▁gracefully	-13903
▁gravemente	-13904
▁illuminava	-13905
▁impossível	-13906
▁intermedio	-13907
▁interrogar	-13908
▁murmurando	-13909
▁navegantes	-13910
▁necessário	-13911
▁obrigações	-13912
▁parlamento	-13913
▁procurando	-13914
▁recommenda	-13915
▁recordando	-13916
▁secretario	-13917
▁sunglasses	-13918
▁totalmente	-13919
videntemente	-13920
▁allucinação	-13921
▁antigamente	-13922
▁apresentava	-13923
▁arrependida	-13924
▁arrependido	-13925
▁cabelleiras	-13926
▁compensação	-13927
▁considerava	-13928
▁contemplava	-13929
▁discovering	-13930
▁esclarecido	-13931
▁grandemente	-13932
▁indiscrição	-13933
▁melancholia	-13934
▁organisação	-13935
▁passarinhos	-13936
▁personagens	-13937
▁respondendo	-13938
▁travesseiro	-13939
▁tristemente	-13940
▁Misericordia	-13941
▁acompanhando	-13942
▁contemplando	-13943
▁extremamente	-13944
▁procedimento	-13945
▁quatrocentos	-13946
▁seminaristas	-13947
▁simplicidade	-13948
▁transparente	-13949
▁consequencias	-13950
▁desembargador	-13951
▁desobediencia	-13952
▁evidentemente	-13953
▁arrependimento	-13954
▁voluptuosidade	-13955
!'	-13956
AT	-13957
Go	-13958
IT	-13959
MA	-13960
Ne	-13961
Vê	-13962
lá	-13963
mm	-13964
ts	-13965
ux	-13966
»;	-13967
éo	-13968
óe	-13969
ôe	-13970
œJ	-13971
▁[	-13972
Ben	-13973
Bye	-13974
Cla	-13975
Cre	-13976
Nem	-13977
Out	-13978
Sem	-13979
São	-13980
Tod	-13981
Vou	-13982
Yay	-13983
ads	-13984
arf	-13985
avo	-13986
dad	-13987
dão	-13988
fam	-13989
fly	-13990
ifl	-13991
ono	-13992
pez	-13993
pão	-13994
rob	-13995
tac	-13996
uel	-13997
uga	-13998
uos	-13999
zie	-14000
érs	-14001
êas	-14002
óde	-14003
▁Ai	-14004
▁Br	-14005
▁VI	-14006
▁ah	-14007
▁aç	-14008
▁gy	-14009
Pass	-14010
Will	-14011
ales	-14012
alph	-14013
ambo	-14014
amão	-14015
asso	-14016
baix	-14017
bolo	-14018
bulo	-14019
cing	-14020
cipl	-14021
cára	-14022
eday	-14023
emis	-14024
fera	-14025
ffic	-14026
féus	-14027
gers	-14028
gull	-14029
hero	-14030
hida	-14031
htub	-14032
ibão	-14033
icky	-14034
ived	-14035
iéis	-14036
joso	-14037
kins	-14038
loom	-14039
munk	-14040
ndor	-14041
ongo	-14042
onos	-14043
oste	-14044
riço	-14045
stas	-14046
ucet	-14047
ueis	-14048
uggy	-14049
umby	-14050
urna	-14051
usos	-14052
utou	-14053
ygen	-14054
ábil	-14055
íger	-14056
ópia	-14057
▁Ace	-14058
▁Arm	-14059
▁Ast	-14060
▁Boa	-14061
▁Crê	-14062
▁Cur	-14063
▁Dai	-14064
▁Dei	-14065
▁Eil	-14066
▁Ele	-14067
▁Enc	-14068
▁Ene	-14069
▁Eti	-14070
▁God	-14071
▁Hei	-14072
▁Hel	-14073
▁Hon	-14074
▁III	-14075
▁Inf	-14076
▁Jog	-14077
▁Not	-14078
▁Obr	-14079
▁Raz	-14080
▁Sah	-14081
▁Teu	-14082
▁Vae	-14083
▁Val	-14084
▁ald	-14085
▁amu	-14086
▁aza	-14087
▁cov	-14088
▁doç	-14089
▁eil	-14090
▁emm	-14091
▁lel	-14092
▁mut	-14093
▁orç	-14094
▁psy	-14095
▁row	-14096
▁rus	-14097
▁sla	-14098
▁tes	-14099
▁tín	-14100
▁unt	-14101
▁vom	-14102
▁vãs	-14103
▁véo	-14104
▁vôo	-14105
▁árd	-14106
...--	-14107
Ainda	-14108
Clair	-14109
Creio	-14110
Desta	-14111
Entre	-14112
Nunca	-14113
Porém	-14114
afrio	-14115
alter	-14116
amego	-14117
antly	-14118
ardim	-14119
ardos	-14120
assar	-14121
astas	-14122
astou	-14123
avera	-14124
bares	-14125
baros	-14126
brada	-14127
cavão	-14128
ccoon	-14129
cegas	-14130
child	-14131
costa	-14132
cutor	-14133
elita	-14134
endem	-14135
eneza	-14136
fério	-14137
gasse	-14138
gavam	-14139
hares	-14140
hemos	-14141
ianas	-14142
iario	-14143
icada	-14144
icion	-14145
inato	-14146
inham	-14147
inhei	-14148
ippin	-14149
irada	-14150
irosa	-14151
ities	-14152
ivery	-14153
kespe	-14154
leira	-14155
leiro	-14156
minha	-14157
ndego	-14158
ndera	-14159
ntava	-14160
olhos	-14161
ompat	-14162
orria	-14163
panha	-14164
pared	-14165
pesar	-14166
plane	-14167
pport	-14168
pções	-14169
rania	-14170
ravel	-14171
rensa	-14172
resce	-14173
rimir	-14174
ronta	-14175
rosas	-14176
rárão	-14177
selhe	-14178
taria	-14179
tress	-14180
ulifl	-14181
uloso	-14182
vares	-14183
vidos	-14184
çaria	-14185
çavão	-14186
óreas	-14187
▁Adiv	-14188
▁Alem	-14189
▁Aper	-14190
▁Cari	-14191
▁Cent	-14192
▁Cris	-14193
▁Cump	-14194
▁Céus	-14195
▁Diga	-14196
▁Dina	-14197
▁Have	-14198
▁Hisp	-14199
▁June	-14200
▁Like	-14201
▁Maur	-14202
▁Merc	-14203
▁Mira	-14204
▁Noto	-14205
▁Pérs	-14206
▁Saiu	-14207
▁Star	-14208
▁Todo	-14209
▁Toni	-14210
▁Trou	-14211
▁Vejo	-14212
▁abne	-14213
▁acar	-14214
▁adro	-14215
▁afam	-14216
▁afar	-14217
▁alve	-14218
▁amal	-14219
▁amas	-14220
▁amed	-14221
▁amof	-14222
▁asse	-14223
▁assi	-14224
▁atou	-14225
▁augm	-14226
▁aval	-14227
▁bank	-14228
▁bole	-14229
▁boom	-14230
▁bras	-14231
▁caip	-14232
▁cega	-14233
▁ceia	-14234
▁cert	-14235
▁chas	-14236
▁chef	-14237
▁crua	-14238
▁dais	-14239
▁damn	-14240
▁dare	-14241
▁dece	-14242
▁doia	-14243
▁dons	-14244
▁dote	-14245
▁educ	-14246
▁ench	-14247
▁esvo	-14248
▁fixo	-14249
▁gems	-14250
▁golf	-14251
▁horr	-14252
▁hose	-14253
▁intr	-14254
▁lant	-14255
▁leme	-14256
▁lodo	-14257
▁mane	-14258
▁mate	-14259
▁maço	-14260
▁meat	-14261
▁menu	-14262
▁navy	-14263
▁nora	-14264
▁onda	-14265
▁osso	-14266
▁paro	-14267
▁pran	-14268
▁publ	-14269
▁raiv	-14270
▁reac	-14271
▁rend	-14272
▁rijo	-14273
▁roxa	-14274
▁roxo	-14275
▁rudo	-14276
▁scam	-14277
▁scur	-14278
▁sequ	-14279
▁seta	-14280
▁seve	-14281
▁sink	-14282
▁snap	-14283
▁snat	-14284
▁solo	-14285
▁sons	-14286
▁squa	-14287
▁suor	-14288
▁sêde	-14289
▁tabe	-14290
▁tend	-14291
▁thri	-14292
▁tolo	-14293
▁tomo	-14294
▁tore	-14295
▁vers	-14296
▁vice	-14297
▁vila	-14298
▁vitu	-14299
▁voto	-14300
▁vãos	-14301
▁whip	-14302
▁wigg	-14303
▁zelo	-14304
▁áure	-14305
▁íncl	-14306
▁ódio	-14307
adouro	-14308
alhado	-14309
antino	-14310
aparte	-14311
ations	-14312
cessem	-14313
ciosos	-14314
ctação	-14315
deirão	-14316
elcome	-14317
gantes	-14318
iciado	-14319
iderou	-14320
ificou	-14321
itaram	-14322
itario	-14323
iveiro	-14324
ivered	-14325
jantes	-14326
matica	-14327
ortais	-14328
quetes	-14329
rações	-14330
rinhos	-14331
uidade	-14332
urgião	-14333
œThatâ	-14334
▁Abriu	-14335
▁Annie	-14336
▁Binky	-14337
▁Bloom	-14338
▁Chama	-14339
▁Chico	-14340
▁China	-14341
▁Creia	-14342
▁Deste	-14343
▁Fazem	-14344
▁Fosse	-14345
▁Hemis	-14346
▁Ilhas	-14347
▁Jesus	-14348
▁Karen	-14349
▁Linda	-14350
▁Musas	-14351
▁Nancy	-14352
▁Nereu	-14353
▁Panca	-14354
▁Parei	-14355
▁Ralph	-14356
▁Salta	-14357
▁Since	-14358
▁Sique	-14359
▁Soube	-14360
▁Thatâ	-14361
▁Tomou	-14362
▁Ultim	-14363
▁Viram	-14364
▁accum	-14365
▁aceno	-14366
▁aceso	-14367
▁afric	-14368
▁agudo	-14369
▁alvas	-14370
▁apoio	-14371
▁argue	-14372
▁artic	-14373
▁assop	-14374
▁assum	-14375
▁atter	-14376
▁atton	-14377
▁avaro	-14378
▁avoid	-14379
▁banho	-14380
▁barre	-14381
▁beads	-14382
▁bebia	-14383
▁becco	-14384
▁bicho	-14385
▁bodas	-14386
▁borda	-14387
▁botar	-14388
▁brada	-14389
▁brain	-14390
▁brava	-14391
▁budge	-14392
▁burst	-14393
▁caixa	-14394
▁calmo	-14395
▁cante	-14396
▁cared	-14397
▁casca	-14398
▁casto	-14399
▁cerco	-14400
▁chalk	-14401
▁chico	-14402
▁chita	-14403
▁cidad	-14404
▁clima	-14405
▁coral	-14406
▁criou	-14407
▁cubes	-14408
▁curvo	-14409
▁deduz	-14410
▁demos	-14411
▁derro	-14412
▁desci	-14413
▁deter	-14414
▁digas	-14415
▁dizes	-14416
▁doors	-14417
▁drops	-14418
▁duque	-14419
▁dôres	-14420
▁edges	-14421
▁enrol	-14422
▁entro	-14423
▁envia	-14424
▁ester	-14425
▁evang	-14426
▁event	-14427
▁expor	-14428
▁falls	-14429
▁façam	-14430
▁feast	-14431
▁fital	-14432
▁flame	-14433
▁foods	-14434
▁funda	-14435
▁furia	-14436
▁furto	-14437
▁garbo	-14438
▁gasta	-14439
▁gasto	-14440
▁gibão	-14441
▁grade	-14442
▁grape	-14443
▁guarn	-14444
▁haste	-14445
▁hider	-14446
▁ideal	-14447
▁idone	-14448
▁immol	-14449
▁impet	-14450
▁incul	-14451
▁insul	-14452
▁iroso	-14453
▁irres	-14454
▁itchy	-14455
▁jogos	-14456
▁julga	-14457
▁juízo	-14458
▁ledos	-14459
▁legis	-14460
▁lenha	-14461
▁lenho	-14462
▁ligar	-14463
▁linho	-14464
▁litte	-14465
▁lugub	-14466
▁mallo	-14467
▁massa	-14468
▁matal	-14469
▁miral	-14470
▁mirar	-14471
▁mover	-14472
▁muddy	-14473
▁murmu	-14474
▁negal	-14475
▁nicer	-14476
▁orgão	-14477
▁ousou	-14478
▁pagam	-14479
▁panic	-14480
▁parei	-14481
▁pasmo	-14482
▁pasta	-14483
▁pasto	-14484
▁paths	-14485
▁pause	-14486
▁pened	-14487
▁pesad	-14488
▁pinta	-14489
▁podér	-14490
▁poria	-14491
▁posit	-14492
▁prohi	-14493
▁puder	-14494
▁pulls	-14495
▁pódem	-14496
▁quise	-14497
▁quita	-14498
▁ranch	-14499
▁reass	-14500
▁recto	-14501
▁reduz	-14502
▁remat	-14503
▁renda	-14504
▁reper	-14505
▁rescu	-14506
▁resgu	-14507
▁reter	-14508
▁retro	-14509
▁rodas	-14510
▁rompe	-14511
▁saiba	-14512
▁salas	-14513
▁scarf	-14514
▁seios	-14515
▁serie	-14516
▁sexta	-14517
▁shown	-14518
▁sides	-14519
▁sings	-14520
▁sinão	-14521
▁snuck	-14522
▁soapy	-14523
▁sogro	-14524
▁solid	-14525
▁stare	-14526
▁sting	-14527
▁style	-14528
▁teima	-14529
▁tento	-14530
▁tenue	-14531
▁tocou	-14532
▁tosse	-14533
▁touro	-14534
▁varze	-14535
▁virão	-14536
▁volte	-14537
▁works	-14538
▁worse	-14539
▁índia	-14540
condria	-14541
criptos	-14542
entados	-14543
estação	-14544
inaldas	-14545
ndentes	-14546
pectiva	-14547
romisso	-14548
ulidade	-14549
▁Apesar	-14550
▁Apezar	-14551
▁Appare	-14552
▁Aquele	-14553
▁Arábia	-14554
▁Bóreas	-14555
▁Contei	-14556
▁Copper	-14557
▁Custou	-14558
▁Desceu	-14559
▁Desped	-14560
▁Divina	-14561
▁During	-14562
▁Eneias	-14563
▁Ergueu	-14564
▁Fallou	-14565
▁Hannah	-14566
▁Lamego	-14567
▁Lizzie	-14568
▁Mandei	-14569
▁Melind	-14570
▁Mendes	-14571
▁Pensei	-14572
▁Pippin	-14573
▁Rabbit	-14574
▁Repito	-14575
▁Speedy	-14576
▁Veneza	-14577
▁abraço	-14578
▁achara	-14579
▁adding	-14580
▁agrest	-14581
▁ajudal	-14582
▁americ	-14583
▁ampara	-14584
▁anchor	-14585
▁angulo	-14586
▁apreço	-14587
▁atacar	-14588
▁atreve	-14589
▁bancos	-14590
▁barrel	-14591
▁barões	-14592
▁bouncy	-14593
▁breves	-14594
▁brigar	-14595
▁bronze	-14596
▁burned	-14597
▁cahião	-14598
▁carran	-14599
▁carros	-14600
▁chairs	-14601
▁chamma	-14602
▁chapeu	-14603
▁chorei	-14604
▁chovia	-14605
▁cingia	-14606
▁cochic	-14607
▁colcha	-14608
▁comete	-14609
▁conter	-14610
▁coruja	-14611
▁cosido	-14612
▁crumbs	-14613
▁cuddle	-14614
▁cuides	-14615
▁cumpre	-14616
▁derrib	-14617
▁desarm	-14618
▁descem	-14619
▁desden	-14620
▁destem	-14621
▁desvel	-14622
▁diabol	-14623
▁dignas	-14624
▁diverg	-14625
▁dormiu	-14626
▁elogio	-14627
▁encher	-14628
▁enfiei	-14629
▁ensina	-14630
▁entrea	-14631
▁escola	-14632
▁escudo	-14633
▁esping	-14634
▁examin	-14635
▁expand	-14636
▁falece	-14637
▁falsos	-14638
▁fariam	-14639
▁fastio	-14640
▁faucet	-14641
▁feitio	-14642
▁fingia	-14643
▁formid	-14644
▁franco	-14645
▁fraque	-14646
▁furios	-14647
▁galhos	-14648
▁galope	-14649
▁grades	-14650
▁grupos	-14651
▁halito	-14652
▁houver	-14653
▁impede	-14654
▁impert	-14655
▁implac	-14656
▁indulg	-14657
▁indust	-14658
▁inflam	-14659
▁inunda	-14660
▁jailer	-14661
▁julgou	-14662
▁jurava	-14663
▁kindly	-14664
▁lacaio	-14665
▁lamina	-14666
▁lastim	-14667
▁lavrar	-14668
▁leguas	-14669
▁lepida	-14670
▁ligado	-14671
▁magest	-14672
▁marche	-14673
▁marfim	-14674
▁matava	-14675
▁mimoso	-14676
▁mister	-14677
▁mudára	-14678
▁muscle	-14679
▁navega	-14680
▁nelles	-14681
▁nesses	-14682
▁nestas	-14683
▁nestes	-14684
▁nhonhô	-14685
▁nomeia	-14686
▁oculos	-14687
▁outrem	-14688
▁oxygen	-14689
▁pagava	-14690
▁painel	-14691
▁palace	-14692
▁pastor	-14693
▁percor	-14694
▁perdoa	-14695
▁pesado	-14696
▁pesava	-14697
▁phosph	-14698
▁planes	-14699
▁planta	-14700
▁podeis	-14701
▁porfia	-14702
▁powder	-14703
▁pretas	-14704
▁pretos	-14705
▁prompt	-14706
▁proteg	-14707
▁provas	-14708
▁pueril	-14709
▁pulsos	-14710
▁purred	-14711
▁rancor	-14712
▁reitor	-14713
▁rendeu	-14714
▁resumo	-14715
▁retiro	-14716
▁ripped	-14717
▁ritual	-14718
▁rompeu	-14719
▁rédeas	-14720
▁sahiam	-14721
▁sahira	-14722
▁shined	-14723
▁signed	-14724
▁smells	-14725
▁soccer	-14726
▁sonhou	-14727
▁sorted	-14728
▁spikes	-14729
▁sports	-14730
▁sugger	-14731
▁suppôr	-14732
▁sustos	-14733
▁tedios	-14734
▁temerá	-14735
▁tenhas	-14736
▁tereis	-14737
▁teriam	-14738
▁textos	-14739
▁throws	-14740
▁tracks	-14741
▁traria	-14742
▁turnip	-14743
▁unpack	-14744
▁varões	-14745
▁venceu	-14746
▁vestia	-14747
▁vexava	-14748
▁vinhos	-14749
▁wooden	-14750
▁worker	-14751
▁writes	-14752
▁última	-14753
........	-14754
kespeare	-14755
ructions	-14756
velmente	-14757
▁Alvares	-14758
▁António	-14759
▁Aquella	-14760
▁Aquillo	-14761
▁Brownie	-14762
▁Começou	-14763
▁Desbara	-14764
▁Gostava	-14765
▁Imagine	-14766
▁Johnson	-14767
▁Magriço	-14768
▁Mondego	-14769
▁Othello	-14770
▁Pereira	-14771
▁Pharoux	-14772
▁Pudding	-14773
▁Regedor	-14774
▁Relação	-14775
▁Restava	-14776
▁Sandice	-14777
▁Satanaz	-14778
▁Someone	-14779
▁Turquia	-14780
▁Without	-14781
▁abanava	-14782
▁abertas	-14783
▁abrigar	-14784
▁acendeu	-14785
▁acharia	-14786
▁acharás	-14787
▁achavam	-14788
▁afastou	-14789
▁affectu	-14790
▁affeiço	-14791
▁affirma	-14792
▁agitava	-14793
▁allopat	-14794
▁almocei	-14795
▁anciosa	-14796
▁apanhal	-14797
▁arranjo	-14798
▁artista	-14799
▁atinava	-14800
▁atravez	-14801
▁austera	-14802
▁avisado	-14803
▁bathtub	-14804
▁bexigas	-14805
▁busquei	-14806
▁cahirão	-14807
▁camaras	-14808
▁candida	-14809
▁casadas	-14810
▁casasse	-14811
▁caulifl	-14812
▁censura	-14813
▁cercada	-14814
▁chamada	-14815
▁chammas	-14816
▁chegara	-14817
▁cigarra	-14818
▁ciência	-14819
▁coberta	-14820
▁cocegas	-14821
▁colloqu	-14822
▁comedia	-14823
▁comprei	-14824
▁conflic	-14825
▁contino	-14826
▁cortava	-14827
▁counter	-14828
▁crescer	-14829
▁crescia	-14830
▁curtain	-14831
▁daquela	-14832
▁degráos	-14833
▁demorar	-14834
▁descomp	-14835
▁desejar	-14836
▁desfall	-14837
▁discipl	-14838
▁dividia	-14839
▁doentes	-14840
▁dominio	-14841
▁dourado	-14842
▁drifted	-14843
▁eleição	-14844
▁elogiar	-14845
▁emendou	-14846
▁encarre	-14847
▁enfiado	-14848
▁enganos	-14849
▁entrára	-14850
▁epitaph	-14851
▁escaped	-14852
▁escutar	-14853
▁espadim	-14854
▁esqueci	-14855
▁estação	-14856
▁estrago	-14857
▁excitar	-14858
▁explico	-14859
▁ficárão	-14860
▁fitavam	-14861
▁follows	-14862
▁ganhava	-14863
▁giraffe	-14864
▁gravura	-14865
▁growled	-14866
▁heroica	-14867
▁however	-14868
▁império	-14869
▁indigno	-14870
▁interlo	-14871
▁interno	-14872
▁invejas	-14873
▁inverno	-14874
▁jogging	-14875
▁letting	-14876
▁levaria	-14877
▁levavam	-14878
▁licções	-14879
▁lisonge	-14880
▁listens	-14881
▁lucidez	-14882
▁luzente	-14883
▁marbles	-14884
▁mascara	-14885
▁medicos	-14886
▁merecem	-14887
▁mettido	-14888
▁million	-14889
▁moderno	-14890
[...]
